# !!!This file disallow TABs!!!
version: 2
quantize_parameters:
  '@attach_Add_/lm_head/Add/out0_0:out0':
    qtype: u8
    quantizer: asymmetric_affine
    rounding: rtne
    max_value: 11.506993293762207
    min_value: -27.109127044677734
    scale: 0.1514357626438141
    zero_point: 179
  '@Add_/wav2vec2/encoder/layers.11/final_layer_norm/Add_1_4:out0':
    qtype: u8
    quantizer: asymmetric_affine
    rounding: rtne
    max_value: 1.8364628553390503
    min_value: -1.8359836339950562
    scale: 0.014401750639081001
    zero_point: 127
  '@Add_/wav2vec2/encoder/layers.11/Add_1_6:out0':
    qtype: u8
    quantizer: asymmetric_affine
    rounding: rtne
    max_value: 30.308700561523438
    min_value: -35.002662658691406
    scale: 0.25612300634384155
    zero_point: 137
  '@Add_/wav2vec2/encoder/layers.11/layer_norm/Add_1_8:out0':
    qtype: u8
    quantizer: asymmetric_affine
    rounding: rtne
    max_value: 2.949404716491699
    min_value: -7.355704307556152
    scale: 0.040412191301584244
    zero_point: 182
  '@Add_/wav2vec2/encoder/layers.11/Add_11:out0':
    qtype: u8
    quantizer: asymmetric_affine
    rounding: rtne
    max_value: 12.286623001098633
    min_value: -11.292160034179688
    scale: 0.09246581792831421
    zero_point: 122
  '@Mul_/wav2vec2/encoder/layers.11/feed_forward/intermediate_act_fn/Mul_1_13:out0':
    qtype: u8
    quantizer: asymmetric_affine
    rounding: rtne
    max_value: 5.516469955444336
    min_value: -0.16997124254703522
    scale: 0.022299770265817642
    zero_point: 8
  '@Add_/wav2vec2/encoder/layers.10/final_layer_norm/Add_1_15:out0':
    qtype: u8
    quantizer: asymmetric_affine
    rounding: rtne
    max_value: 13.994834899902344
    min_value: -12.088314056396484
    scale: 0.10228686034679413
    zero_point: 118
  '@Add_/wav2vec2/encoder/layers.10/Add_1_20:out0':
    qtype: u8
    quantizer: asymmetric_affine
    rounding: rtne
    max_value: 27.857746124267578
    min_value: -18.82805633544922
    scale: 0.18308158218860626
    zero_point: 103
  '@Reshape_/wav2vec2/encoder/layers.11/attention/Reshape_7_22:out0':
    qtype: u8
    quantizer: asymmetric_affine
    rounding: rtne
    max_value: 3.536486864089966
    min_value: -3.3315837383270264
    scale: 0.026933610439300537
    zero_point: 124
  '@Transpose_/wav2vec2/encoder/layers.11/attention/Transpose_4_25:out0':
    qtype: u8
    quantizer: asymmetric_affine
    rounding: rtne
    max_value: 3.536486864089966
    min_value: -3.3315837383270264
    scale: 0.026933610439300537
    zero_point: 124
  '@Add_/wav2vec2/encoder/layers.10/layer_norm/Add_1_27:out0':
    qtype: u8
    quantizer: asymmetric_affine
    rounding: rtne
    max_value: 7.352800369262695
    min_value: -13.542450904846191
    scale: 0.08194216340780258
    zero_point: 165
  '@Reshape_/wav2vec2/encoder/layers.11/attention/Reshape_6_30:out0':
    qtype: u8
    quantizer: asymmetric_affine
    rounding: rtne
    max_value: 3.536486864089966
    min_value: -3.3315837383270264
    scale: 0.026933610439300537
    zero_point: 124
  '@Add_/wav2vec2/encoder/layers.10/Add_31:out0':
    qtype: u8
    quantizer: asymmetric_affine
    rounding: rtne
    max_value: 7.118677139282227
    min_value: -7.296656608581543
    scale: 0.05653072148561478
    zero_point: 129
  '@Mul_/wav2vec2/encoder/layers.10/feed_forward/intermediate_act_fn/Mul_1_33:out0':
    qtype: u8
    quantizer: asymmetric_affine
    rounding: rtne
    max_value: 5.258763790130615
    min_value: -0.16997124254703522
    scale: 0.0212891586124897
    zero_point: 8
  '@MatMul_/wav2vec2/encoder/layers.11/attention/MatMul_1_35:out0':
    qtype: u8
    quantizer: asymmetric_affine
    rounding: rtne
    max_value: 3.536486864089966
    min_value: -3.3315837383270264
    scale: 0.026933610439300537
    zero_point: 124
  '@Add_/wav2vec2/encoder/layers.9/final_layer_norm/Add_1_36:out0':
    qtype: u8
    quantizer: asymmetric_affine
    rounding: rtne
    max_value: 3.693873882293701
    min_value: -3.4745216369628906
    scale: 0.028111355379223824
    zero_point: 124
  '@Softmax_/wav2vec2/encoder/layers.11/attention/Softmax_41:out0':
    qtype: u8
    quantizer: asymmetric_affine
    rounding: rtne
    max_value: 1.0
    min_value: 0.0
    scale: 0.003921568859368563
    zero_point: 0
  '@Reshape_/wav2vec2/encoder/layers.11/attention/Reshape_5_42:out0':
    qtype: u8
    quantizer: asymmetric_affine
    rounding: rtne
    max_value: 3.566725254058838
    min_value: -3.4339070320129395
    scale: 0.027453459799289703
    zero_point: 125
  '@Add_/wav2vec2/encoder/layers.9/Add_1_43:out0':
    qtype: u8
    quantizer: asymmetric_affine
    rounding: rtne
    max_value: 184.06504821777344
    min_value: -82.32637023925781
    scale: 1.0446722507476807
    zero_point: 79
  '@Reshape_/wav2vec2/encoder/layers.10/attention/Reshape_7_45:out0':
    qtype: u8
    quantizer: asymmetric_affine
    rounding: rtne
    max_value: 2.3437652587890625
    min_value: -2.350630760192871
    scale: 0.018409395590424538
    zero_point: 128
  '@Transpose_/wav2vec2/encoder/layers.10/attention/Transpose_4_48:out0':
    qtype: u8
    quantizer: asymmetric_affine
    rounding: rtne
    max_value: 2.3437652587890625
    min_value: -2.350630760192871
    scale: 0.018409395590424538
    zero_point: 128
  '@Transpose_/wav2vec2/encoder/layers.11/attention/Transpose_1_51:out0':
    qtype: u8
    quantizer: asymmetric_affine
    rounding: rtne
    max_value: 3.566725254058838
    min_value: -3.4339070320129395
    scale: 0.027453459799289703
    zero_point: 125
  '@Add_/wav2vec2/encoder/layers.9/layer_norm/Add_1_52:out0':
    qtype: u8
    quantizer: asymmetric_affine
    rounding: rtne
    max_value: 5.888742446899414
    min_value: -12.495783805847168
    scale: 0.07209617644548416
    zero_point: 173
  '@Reshape_/wav2vec2/encoder/layers.10/attention/Reshape_6_55:out0':
    qtype: u8
    quantizer: asymmetric_affine
    rounding: rtne
    max_value: 2.3437652587890625
    min_value: -2.350630760192871
    scale: 0.018409395590424538
    zero_point: 128
  '@Reshape_/wav2vec2/encoder/layers.11/attention/Reshape_3_56:out0':
    qtype: u8
    quantizer: asymmetric_affine
    rounding: rtne
    max_value: 22.588544845581055
    min_value: -23.705488204956055
    scale: 0.181545227766037
    zero_point: 131
  '@Transpose_/wav2vec2/encoder/layers.11/attention/Transpose_3_57:out0':
    qtype: u8
    quantizer: asymmetric_affine
    rounding: rtne
    max_value: 30.500930786132812
    min_value: -30.604816436767578
    scale: 0.23963038623332977
    zero_point: 128
  '@Reshape_/wav2vec2/encoder/layers.11/attention/Reshape_1_58:out0':
    qtype: u8
    quantizer: asymmetric_affine
    rounding: rtne
    max_value: 3.566725254058838
    min_value: -3.4339070320129395
    scale: 0.027453459799289703
    zero_point: 125
  '@Add_/wav2vec2/encoder/layers.9/Add_59:out0':
    qtype: u8
    quantizer: asymmetric_affine
    rounding: rtne
    max_value: 3.6467361450195312
    min_value: -3.6467361450195312
    scale: 0.02860185131430626
    zero_point: 128
  '@Mul_/wav2vec2/encoder/layers.9/feed_forward/intermediate_act_fn/Mul_1_61:out0':
    qtype: u8
    quantizer: asymmetric_affine
    rounding: rtne
    max_value: 35.629539489746094
    min_value: -0.16997122764587402
    scale: 0.14039023220539093
    zero_point: 1
  '@MatMul_/wav2vec2/encoder/layers.10/attention/MatMul_1_63:out0':
    qtype: u8
    quantizer: asymmetric_affine
    rounding: rtne
    max_value: 2.3437652587890625
    min_value: -2.350630760192871
    scale: 0.018409395590424538
    zero_point: 128
  '@Transpose_/wav2vec2/encoder/layers.11/attention/Transpose_2_64:out0':
    qtype: u8
    quantizer: asymmetric_affine
    rounding: rtne
    max_value: 22.588544845581055
    min_value: -23.705488204956055
    scale: 0.181545227766037
    zero_point: 131
  '@Reshape_/wav2vec2/encoder/layers.11/attention/Reshape_4_65:out0':
    qtype: u8
    quantizer: asymmetric_affine
    rounding: rtne
    max_value: 30.500930786132812
    min_value: -30.604816436767578
    scale: 0.23963038623332977
    zero_point: 128
  '@Add_/wav2vec2/encoder/layers.8/final_layer_norm/Add_1_67:out0':
    qtype: u8
    quantizer: asymmetric_affine
    rounding: rtne
    max_value: 4.080666542053223
    min_value: -3.177856206893921
    scale: 0.028464796021580696
    zero_point: 112
  '@Softmax_/wav2vec2/encoder/layers.10/attention/Softmax_72:out0':
    qtype: u8
    quantizer: asymmetric_affine
    rounding: rtne
    max_value: 0.9109677672386169
    min_value: 0.0
    scale: 0.003572422545403242
    zero_point: 0
  '@Reshape_/wav2vec2/encoder/layers.10/attention/Reshape_5_73:out0':
    qtype: u8
    quantizer: asymmetric_affine
    rounding: rtne
    max_value: 3.5304925441741943
    min_value: -2.933505058288574
    scale: 0.02534901164472103
    zero_point: 116
  '@Reshape_/wav2vec2/encoder/layers.11/attention/Reshape_2_74:out0':
    qtype: u8
    quantizer: asymmetric_affine
    rounding: rtne
    max_value: 22.588544845581055
    min_value: -23.705488204956055
    scale: 0.181545227766037
    zero_point: 131
  '@Transpose_/wav2vec2/encoder/layers.11/attention/Transpose_75:out0':
    qtype: u8
    quantizer: asymmetric_affine
    rounding: rtne
    max_value: 30.500930786132812
    min_value: -30.604816436767578
    scale: 0.23963038623332977
    zero_point: 128
  '@Add_/wav2vec2/encoder/layers.8/Add_1_78:out0':
    qtype: u8
    quantizer: asymmetric_affine
    rounding: rtne
    max_value: 214.1957550048828
    min_value: -182.8432159423828
    scale: 1.5570155382156372
    zero_point: 117
  '@Reshape_/wav2vec2/encoder/layers.9/attention/Reshape_7_80:out0':
    qtype: u8
    quantizer: asymmetric_affine
    rounding: rtne
    max_value: 2.1382412910461426
    min_value: -1.9350199699401855
    scale: 0.015973573550581932
    zero_point: 121
  '@Transpose_/wav2vec2/encoder/layers.9/attention/Transpose_4_83:out0':
    qtype: u8
    quantizer: asymmetric_affine
    rounding: rtne
    max_value: 2.1382412910461426
    min_value: -1.9350199699401855
    scale: 0.015973573550581932
    zero_point: 121
  '@Transpose_/wav2vec2/encoder/layers.10/attention/Transpose_1_86:out0':
    qtype: u8
    quantizer: asymmetric_affine
    rounding: rtne
    max_value: 3.5304925441741943
    min_value: -2.933505058288574
    scale: 0.02534901164472103
    zero_point: 116
  '@Mul_/wav2vec2/encoder/layers.11/attention/Mul_87:out0':
    qtype: u8
    quantizer: asymmetric_affine
    rounding: rtne
    max_value: 22.588544845581055
    min_value: -23.705488204956055
    scale: 0.181545227766037
    zero_point: 131
  '@Reshape_/wav2vec2/encoder/layers.11/attention/Reshape_88:out0':
    qtype: u8
    quantizer: asymmetric_affine
    rounding: rtne
    max_value: 30.500930786132812
    min_value: -30.604816436767578
    scale: 0.23963038623332977
    zero_point: 128
  '@Add_/wav2vec2/encoder/layers.8/layer_norm/Add_1_91:out0':
    qtype: u8
    quantizer: asymmetric_affine
    rounding: rtne
    max_value: 7.661256313323975
    min_value: -12.621505737304688
    scale: 0.07954024523496628
    zero_point: 159
  '@Reshape_/wav2vec2/encoder/layers.9/attention/Reshape_6_94:out0':
    qtype: u8
    quantizer: asymmetric_affine
    rounding: rtne
    max_value: 2.1382412910461426
    min_value: -1.9350199699401855
    scale: 0.015973573550581932
    zero_point: 121
  '@Reshape_/wav2vec2/encoder/layers.10/attention/Reshape_3_95:out0':
    qtype: u8
    quantizer: asymmetric_affine
    rounding: rtne
    max_value: 0.9983749985694885
    min_value: -0.9505608081817627
    scale: 0.0076428852044045925
    zero_point: 124
  '@Transpose_/wav2vec2/encoder/layers.10/attention/Transpose_3_96:out0':
    qtype: u8
    quantizer: asymmetric_affine
    rounding: rtne
    max_value: 18.97290802001953
    min_value: -21.746410369873047
    scale: 0.15968360006809235
    zero_point: 136
  '@Reshape_/wav2vec2/encoder/layers.10/attention/Reshape_1_97:out0':
    qtype: u8
    quantizer: asymmetric_affine
    rounding: rtne
    max_value: 3.5304925441741943
    min_value: -2.933505058288574
    scale: 0.02534901164472103
    zero_point: 116
  '@Constant_/wav2vec2/encoder/layers.11/attention/Constant_99:out0':
    qtype: u8
    quantizer: asymmetric_affine
    rounding: rtne
    max_value: 0.125
    min_value: 0.0
    scale: 0.0004901961074210703
    zero_point: 0
  '@Add_/wav2vec2/encoder/layers.8/Add_102:out0':
    qtype: u8
    quantizer: asymmetric_affine
    rounding: rtne
    max_value: 5.44214391708374
    min_value: -4.390963077545166
    scale: 0.038561202585697174
    zero_point: 114
  '@Mul_/wav2vec2/encoder/layers.8/feed_forward/intermediate_act_fn/Mul_1_104:out0':
    qtype: u8
    quantizer: asymmetric_affine
    rounding: rtne
    max_value: 30.457775115966797
    min_value: -0.16997124254703522
    scale: 0.12010881304740906
    zero_point: 1
  '@MatMul_/wav2vec2/encoder/layers.9/attention/MatMul_1_106:out0':
    qtype: u8
    quantizer: asymmetric_affine
    rounding: rtne
    max_value: 2.1382412910461426
    min_value: -1.9350199699401855
    scale: 0.015973573550581932
    zero_point: 121
  '@Transpose_/wav2vec2/encoder/layers.10/attention/Transpose_2_107:out0':
    qtype: u8
    quantizer: asymmetric_affine
    rounding: rtne
    max_value: 0.9983749985694885
    min_value: -0.9505608081817627
    scale: 0.0076428852044045925
    zero_point: 124
  '@Reshape_/wav2vec2/encoder/layers.10/attention/Reshape_4_108:out0':
    qtype: u8
    quantizer: asymmetric_affine
    rounding: rtne
    max_value: 18.97290802001953
    min_value: -21.746410369873047
    scale: 0.15968360006809235
    zero_point: 136
  '@Add_/wav2vec2/encoder/layers.7/final_layer_norm/Add_1_114:out0':
    qtype: u8
    quantizer: asymmetric_affine
    rounding: rtne
    max_value: 3.552886962890625
    min_value: -3.0302398204803467
    scale: 0.025816183537244797
    zero_point: 117
  '@Softmax_/wav2vec2/encoder/layers.9/attention/Softmax_119:out0':
    qtype: u8
    quantizer: asymmetric_affine
    rounding: rtne
    max_value: 0.6790425777435303
    min_value: 0.0
    scale: 0.0026629120111465454
    zero_point: 0
  '@Reshape_/wav2vec2/encoder/layers.9/attention/Reshape_5_120:out0':
    qtype: u8
    quantizer: asymmetric_affine
    rounding: rtne
    max_value: 2.3225905895233154
    min_value: -2.3225905895233154
    scale: 0.018216397613286972
    zero_point: 127
  '@Reshape_/wav2vec2/encoder/layers.10/attention/Reshape_2_121:out0':
    qtype: u8
    quantizer: asymmetric_affine
    rounding: rtne
    max_value: 0.9983749985694885
    min_value: -0.9505608081817627
    scale: 0.0076428852044045925
    zero_point: 124
  '@Transpose_/wav2vec2/encoder/layers.10/attention/Transpose_122:out0':
    qtype: u8
    quantizer: asymmetric_affine
    rounding: rtne
    max_value: 18.97290802001953
    min_value: -21.746410369873047
    scale: 0.15968360006809235
    zero_point: 136
  '@Add_/wav2vec2/encoder/layers.7/Add_1_126:out0':
    qtype: u8
    quantizer: asymmetric_affine
    rounding: rtne
    max_value: 312.8367614746094
    min_value: -67.34278106689453
    scale: 1.4909001588821411
    zero_point: 45
  '@Reshape_/wav2vec2/encoder/layers.8/attention/Reshape_7_128:out0':
    qtype: u8
    quantizer: asymmetric_affine
    rounding: rtne
    max_value: 1.3435038328170776
    min_value: -1.4930998086929321
    scale: 0.01112393569201231
    zero_point: 134
  '@Transpose_/wav2vec2/encoder/layers.8/attention/Transpose_4_131:out0':
    qtype: u8
    quantizer: asymmetric_affine
    rounding: rtne
    max_value: 1.3435038328170776
    min_value: -1.4930998086929321
    scale: 0.01112393569201231
    zero_point: 134
  '@Transpose_/wav2vec2/encoder/layers.9/attention/Transpose_1_134:out0':
    qtype: u8
    quantizer: asymmetric_affine
    rounding: rtne
    max_value: 2.3225905895233154
    min_value: -2.3225905895233154
    scale: 0.018216397613286972
    zero_point: 127
  '@Mul_/wav2vec2/encoder/layers.10/attention/Mul_135:out0':
    qtype: u8
    quantizer: asymmetric_affine
    rounding: rtne
    max_value: 0.9983749985694885
    min_value: -0.9505608081817627
    scale: 0.0076428852044045925
    zero_point: 124
  '@Reshape_/wav2vec2/encoder/layers.10/attention/Reshape_136:out0':
    qtype: u8
    quantizer: asymmetric_affine
    rounding: rtne
    max_value: 18.97290802001953
    min_value: -21.746410369873047
    scale: 0.15968360006809235
    zero_point: 136
  '@Add_/wav2vec2/encoder/layers.7/layer_norm/Add_1_138:out0':
    qtype: u8
    quantizer: asymmetric_affine
    rounding: rtne
    max_value: 9.620734214782715
    min_value: -33.64462661743164
    scale: 0.1696680784225464
    zero_point: 198
  '@Reshape_/wav2vec2/encoder/layers.8/attention/Reshape_6_141:out0':
    qtype: u8
    quantizer: asymmetric_affine
    rounding: rtne
    max_value: 1.3435038328170776
    min_value: -1.4930998086929321
    scale: 0.01112393569201231
    zero_point: 134
  '@Reshape_/wav2vec2/encoder/layers.9/attention/Reshape_3_142:out0':
    qtype: u8
    quantizer: asymmetric_affine
    rounding: rtne
    max_value: 0.6919872760772705
    min_value: -0.5902582406997681
    scale: 0.005028413608670235
    zero_point: 117
  '@Transpose_/wav2vec2/encoder/layers.9/attention/Transpose_3_143:out0':
    qtype: u8
    quantizer: asymmetric_affine
    rounding: rtne
    max_value: 8.595927238464355
    min_value: -7.505475997924805
    scale: 0.06314275413751602
    zero_point: 119
  '@Reshape_/wav2vec2/encoder/layers.9/attention/Reshape_1_144:out0':
    qtype: u8
    quantizer: asymmetric_affine
    rounding: rtne
    max_value: 2.3225905895233154
    min_value: -2.3225905895233154
    scale: 0.018216397613286972
    zero_point: 127
  '@Constant_/wav2vec2/encoder/layers.10/attention/Constant_146:out0':
    qtype: u8
    quantizer: asymmetric_affine
    rounding: rtne
    max_value: 0.125
    min_value: 0.0
    scale: 0.0004901961074210703
    zero_point: 0
  '@Add_/wav2vec2/encoder/layers.7/Add_149:out0':
    qtype: u8
    quantizer: asymmetric_affine
    rounding: rtne
    max_value: 4.567605018615723
    min_value: -4.603121757507324
    scale: 0.03596363589167595
    zero_point: 128
  '@Mul_/wav2vec2/encoder/layers.7/feed_forward/intermediate_act_fn/Mul_1_151:out0':
    qtype: u8
    quantizer: asymmetric_affine
    rounding: rtne
    max_value: 9.370491027832031
    min_value: -0.16997124254703522
    scale: 0.0374135784804821
    zero_point: 5
  '@MatMul_/wav2vec2/encoder/layers.8/attention/MatMul_1_153:out0':
    qtype: u8
    quantizer: asymmetric_affine
    rounding: rtne
    max_value: 1.3435038328170776
    min_value: -1.4930998086929321
    scale: 0.01112393569201231
    zero_point: 134
  '@Transpose_/wav2vec2/encoder/layers.9/attention/Transpose_2_154:out0':
    qtype: u8
    quantizer: asymmetric_affine
    rounding: rtne
    max_value: 0.6919872760772705
    min_value: -0.5902582406997681
    scale: 0.005028413608670235
    zero_point: 117
  '@Reshape_/wav2vec2/encoder/layers.9/attention/Reshape_4_155:out0':
    qtype: u8
    quantizer: asymmetric_affine
    rounding: rtne
    max_value: 8.595927238464355
    min_value: -7.505475997924805
    scale: 0.06314275413751602
    zero_point: 119
  '@Add_/wav2vec2/encoder/layers.6/final_layer_norm/Add_1_161:out0':
    qtype: u8
    quantizer: asymmetric_affine
    rounding: rtne
    max_value: 3.4101245403289795
    min_value: -2.837524890899658
    scale: 0.024500584229826927
    zero_point: 116
  '@Softmax_/wav2vec2/encoder/layers.8/attention/Softmax_166:out0':
    qtype: u8
    quantizer: asymmetric_affine
    rounding: rtne
    max_value: 0.4098961055278778
    min_value: 0.0
    scale: 0.001607435755431652
    zero_point: 0
  '@Reshape_/wav2vec2/encoder/layers.8/attention/Reshape_5_167:out0':
    qtype: u8
    quantizer: asymmetric_affine
    rounding: rtne
    max_value: 2.3869667053222656
    min_value: -2.4951367378234863
    scale: 0.019145503640174866
    zero_point: 130
  '@Reshape_/wav2vec2/encoder/layers.9/attention/Reshape_2_168:out0':
    qtype: u8
    quantizer: asymmetric_affine
    rounding: rtne
    max_value: 0.6919872760772705
    min_value: -0.5902582406997681
    scale: 0.005028413608670235
    zero_point: 117
  '@Transpose_/wav2vec2/encoder/layers.9/attention/Transpose_169:out0':
    qtype: u8
    quantizer: asymmetric_affine
    rounding: rtne
    max_value: 8.595927238464355
    min_value: -7.505475997924805
    scale: 0.06314275413751602
    zero_point: 119
  '@Add_/wav2vec2/encoder/layers.6/Add_1_173:out0':
    qtype: u8
    quantizer: asymmetric_affine
    rounding: rtne
    max_value: 8.729120254516602
    min_value: -69.31668090820312
    scale: 0.3060619533061981
    zero_point: 226
  '@Reshape_/wav2vec2/encoder/layers.7/attention/Reshape_7_175:out0':
    qtype: u8
    quantizer: asymmetric_affine
    rounding: rtne
    max_value: 1.375687837600708
    min_value: -1.5910186767578125
    scale: 0.011634143069386482
    zero_point: 137
  '@Transpose_/wav2vec2/encoder/layers.7/attention/Transpose_4_178:out0':
    qtype: u8
    quantizer: asymmetric_affine
    rounding: rtne
    max_value: 1.375687837600708
    min_value: -1.5910186767578125
    scale: 0.011634143069386482
    zero_point: 137
  '@Transpose_/wav2vec2/encoder/layers.8/attention/Transpose_1_181:out0':
    qtype: u8
    quantizer: asymmetric_affine
    rounding: rtne
    max_value: 2.3869667053222656
    min_value: -2.4951367378234863
    scale: 0.019145503640174866
    zero_point: 130
  '@Mul_/wav2vec2/encoder/layers.9/attention/Mul_182:out0':
    qtype: u8
    quantizer: asymmetric_affine
    rounding: rtne
    max_value: 0.6919872760772705
    min_value: -0.5902582406997681
    scale: 0.005028413608670235
    zero_point: 117
  '@Reshape_/wav2vec2/encoder/layers.9/attention/Reshape_183:out0':
    qtype: u8
    quantizer: asymmetric_affine
    rounding: rtne
    max_value: 8.595927238464355
    min_value: -7.505475997924805
    scale: 0.06314275413751602
    zero_point: 119
  '@Add_/wav2vec2/encoder/layers.6/layer_norm/Add_1_185:out0':
    qtype: u8
    quantizer: asymmetric_affine
    rounding: rtne
    max_value: 7.03165340423584
    min_value: -58.358821868896484
    scale: 0.2564332187175751
    zero_point: 228
  '@Reshape_/wav2vec2/encoder/layers.7/attention/Reshape_6_188:out0':
    qtype: u8
    quantizer: asymmetric_affine
    rounding: rtne
    max_value: 1.375687837600708
    min_value: -1.5910186767578125
    scale: 0.011634143069386482
    zero_point: 137
  '@Reshape_/wav2vec2/encoder/layers.8/attention/Reshape_3_189:out0':
    qtype: u8
    quantizer: asymmetric_affine
    rounding: rtne
    max_value: 0.6752110123634338
    min_value: -0.7278858423233032
    scale: 0.005502340849488974
    zero_point: 132
  '@Transpose_/wav2vec2/encoder/layers.8/attention/Transpose_3_190:out0':
    qtype: u8
    quantizer: asymmetric_affine
    rounding: rtne
    max_value: 8.685783386230469
    min_value: -9.563340187072754
    scale: 0.0715651884675026
    zero_point: 134
  '@Reshape_/wav2vec2/encoder/layers.8/attention/Reshape_1_191:out0':
    qtype: u8
    quantizer: asymmetric_affine
    rounding: rtne
    max_value: 2.3869667053222656
    min_value: -2.4951367378234863
    scale: 0.019145503640174866
    zero_point: 130
  '@Constant_/wav2vec2/encoder/layers.9/attention/Constant_193:out0':
    qtype: u8
    quantizer: asymmetric_affine
    rounding: rtne
    max_value: 0.125
    min_value: 0.0
    scale: 0.0004901961074210703
    zero_point: 0
  '@Add_/wav2vec2/encoder/layers.6/Add_196:out0':
    qtype: u8
    quantizer: asymmetric_affine
    rounding: rtne
    max_value: 3.646639108657837
    min_value: -7.484724998474121
    scale: 0.043652407824993134
    zero_point: 171
  '@Mul_/wav2vec2/encoder/layers.6/feed_forward/intermediate_act_fn/Mul_1_198:out0':
    qtype: u8
    quantizer: asymmetric_affine
    rounding: rtne
    max_value: 4.724124908447266
    min_value: -0.16997122764587402
    scale: 0.019192535430192947
    zero_point: 9
  '@MatMul_/wav2vec2/encoder/layers.7/attention/MatMul_1_200:out0':
    qtype: u8
    quantizer: asymmetric_affine
    rounding: rtne
    max_value: 1.375687837600708
    min_value: -1.5910186767578125
    scale: 0.011634143069386482
    zero_point: 137
  '@Transpose_/wav2vec2/encoder/layers.8/attention/Transpose_2_201:out0':
    qtype: u8
    quantizer: asymmetric_affine
    rounding: rtne
    max_value: 0.6752110123634338
    min_value: -0.7278858423233032
    scale: 0.005502340849488974
    zero_point: 132
  '@Reshape_/wav2vec2/encoder/layers.8/attention/Reshape_4_202:out0':
    qtype: u8
    quantizer: asymmetric_affine
    rounding: rtne
    max_value: 8.685783386230469
    min_value: -9.563340187072754
    scale: 0.0715651884675026
    zero_point: 134
  '@Add_/wav2vec2/encoder/layers.5/final_layer_norm/Add_1_208:out0':
    qtype: u8
    quantizer: asymmetric_affine
    rounding: rtne
    max_value: 3.4041576385498047
    min_value: -2.8421781063079834
    scale: 0.024495435878634453
    zero_point: 116
  '@Softmax_/wav2vec2/encoder/layers.7/attention/Softmax_213:out0':
    qtype: u8
    quantizer: asymmetric_affine
    rounding: rtne
    max_value: 0.4617101848125458
    min_value: 0.0
    scale: 0.0018106282223016024
    zero_point: 0
  '@Reshape_/wav2vec2/encoder/layers.7/attention/Reshape_5_214:out0':
    qtype: u8
    quantizer: asymmetric_affine
    rounding: rtne
    max_value: 2.5608274936676025
    min_value: -2.389432668685913
    scale: 0.01941278576850891
    zero_point: 123
  '@Reshape_/wav2vec2/encoder/layers.8/attention/Reshape_2_215:out0':
    qtype: u8
    quantizer: asymmetric_affine
    rounding: rtne
    max_value: 0.6752110123634338
    min_value: -0.7278858423233032
    scale: 0.005502340849488974
    zero_point: 132
  '@Transpose_/wav2vec2/encoder/layers.8/attention/Transpose_216:out0':
    qtype: u8
    quantizer: asymmetric_affine
    rounding: rtne
    max_value: 8.685783386230469
    min_value: -9.563340187072754
    scale: 0.0715651884675026
    zero_point: 134
  '@Add_/wav2vec2/encoder/layers.5/Add_1_220:out0':
    qtype: u8
    quantizer: asymmetric_affine
    rounding: rtne
    max_value: 7.083684921264648
    min_value: -60.552162170410156
    scale: 0.26523861289024353
    zero_point: 228
  '@Reshape_/wav2vec2/encoder/layers.6/attention/Reshape_7_222:out0':
    qtype: u8
    quantizer: asymmetric_affine
    rounding: rtne
    max_value: 1.2906949520111084
    min_value: -2.1735427379608154
    scale: 0.013585246168076992
    zero_point: 160
  '@Transpose_/wav2vec2/encoder/layers.6/attention/Transpose_4_225:out0':
    qtype: u8
    quantizer: asymmetric_affine
    rounding: rtne
    max_value: 1.2906949520111084
    min_value: -2.1735427379608154
    scale: 0.013585246168076992
    zero_point: 160
  '@Transpose_/wav2vec2/encoder/layers.7/attention/Transpose_1_228:out0':
    qtype: u8
    quantizer: asymmetric_affine
    rounding: rtne
    max_value: 2.5608274936676025
    min_value: -2.389432668685913
    scale: 0.01941278576850891
    zero_point: 123
  '@Mul_/wav2vec2/encoder/layers.8/attention/Mul_229:out0':
    qtype: u8
    quantizer: asymmetric_affine
    rounding: rtne
    max_value: 0.6752110123634338
    min_value: -0.7278858423233032
    scale: 0.005502340849488974
    zero_point: 132
  '@Reshape_/wav2vec2/encoder/layers.8/attention/Reshape_230:out0':
    qtype: u8
    quantizer: asymmetric_affine
    rounding: rtne
    max_value: 8.685783386230469
    min_value: -9.563340187072754
    scale: 0.0715651884675026
    zero_point: 134
  '@Add_/wav2vec2/encoder/layers.5/layer_norm/Add_1_232:out0':
    qtype: u8
    quantizer: asymmetric_affine
    rounding: rtne
    max_value: 5.688444137573242
    min_value: -45.10539627075195
    scale: 0.19919152557849884
    zero_point: 226
  '@Reshape_/wav2vec2/encoder/layers.6/attention/Reshape_6_235:out0':
    qtype: u8
    quantizer: asymmetric_affine
    rounding: rtne
    max_value: 1.2906949520111084
    min_value: -2.1735427379608154
    scale: 0.013585246168076992
    zero_point: 160
  '@Reshape_/wav2vec2/encoder/layers.7/attention/Reshape_3_236:out0':
    qtype: u8
    quantizer: asymmetric_affine
    rounding: rtne
    max_value: 0.6273309588432312
    min_value: -0.6039899587631226
    scale: 0.004828709177672863
    zero_point: 125
  '@Transpose_/wav2vec2/encoder/layers.7/attention/Transpose_3_237:out0':
    qtype: u8
    quantizer: asymmetric_affine
    rounding: rtne
    max_value: 5.016225337982178
    min_value: -5.101493835449219
    scale: 0.03967733308672905
    zero_point: 129
  '@Reshape_/wav2vec2/encoder/layers.7/attention/Reshape_1_238:out0':
    qtype: u8
    quantizer: asymmetric_affine
    rounding: rtne
    max_value: 2.5608274936676025
    min_value: -2.389432668685913
    scale: 0.01941278576850891
    zero_point: 123
  '@Constant_/wav2vec2/encoder/layers.8/attention/Constant_240:out0':
    qtype: u8
    quantizer: asymmetric_affine
    rounding: rtne
    max_value: 0.125
    min_value: 0.0
    scale: 0.0004901961074210703
    zero_point: 0
  '@Add_/wav2vec2/encoder/layers.5/Add_243:out0':
    qtype: u8
    quantizer: asymmetric_affine
    rounding: rtne
    max_value: 3.7427709102630615
    min_value: -11.70817756652832
    scale: 0.06059195473790169
    zero_point: 193
  '@Mul_/wav2vec2/encoder/layers.5/feed_forward/intermediate_act_fn/Mul_1_245:out0':
    qtype: u8
    quantizer: asymmetric_affine
    rounding: rtne
    max_value: 4.9372406005859375
    min_value: -0.16997124254703522
    scale: 0.020028281956911087
    zero_point: 8
  '@MatMul_/wav2vec2/encoder/layers.6/attention/MatMul_1_247:out0':
    qtype: u8
    quantizer: asymmetric_affine
    rounding: rtne
    max_value: 1.2906949520111084
    min_value: -2.1735427379608154
    scale: 0.013585246168076992
    zero_point: 160
  '@Transpose_/wav2vec2/encoder/layers.7/attention/Transpose_2_248:out0':
    qtype: u8
    quantizer: asymmetric_affine
    rounding: rtne
    max_value: 0.6273309588432312
    min_value: -0.6039899587631226
    scale: 0.004828709177672863
    zero_point: 125
  '@Reshape_/wav2vec2/encoder/layers.7/attention/Reshape_4_249:out0':
    qtype: u8
    quantizer: asymmetric_affine
    rounding: rtne
    max_value: 5.016225337982178
    min_value: -5.101493835449219
    scale: 0.03967733308672905
    zero_point: 129
  '@Add_/wav2vec2/encoder/layers.4/final_layer_norm/Add_1_255:out0':
    qtype: u8
    quantizer: asymmetric_affine
    rounding: rtne
    max_value: 3.367375612258911
    min_value: -2.7962090969085693
    scale: 0.024170920252799988
    zero_point: 116
  '@Softmax_/wav2vec2/encoder/layers.6/attention/Softmax_260:out0':
    qtype: u8
    quantizer: asymmetric_affine
    rounding: rtne
    max_value: 0.45701178908348083
    min_value: 0.0
    scale: 0.0017922030529007316
    zero_point: 0
  '@Reshape_/wav2vec2/encoder/layers.6/attention/Reshape_5_261:out0':
    qtype: u8
    quantizer: asymmetric_affine
    rounding: rtne
    max_value: 2.819174289703369
    min_value: -2.742400646209717
    scale: 0.021810097619891167
    zero_point: 126
  '@Reshape_/wav2vec2/encoder/layers.7/attention/Reshape_2_262:out0':
    qtype: u8
    quantizer: asymmetric_affine
    rounding: rtne
    max_value: 0.6273309588432312
    min_value: -0.6039899587631226
    scale: 0.004828709177672863
    zero_point: 125
  '@Transpose_/wav2vec2/encoder/layers.7/attention/Transpose_263:out0':
    qtype: u8
    quantizer: asymmetric_affine
    rounding: rtne
    max_value: 5.016225337982178
    min_value: -5.101493835449219
    scale: 0.03967733308672905
    zero_point: 129
  '@Add_/wav2vec2/encoder/layers.4/Add_1_267:out0':
    qtype: u8
    quantizer: asymmetric_affine
    rounding: rtne
    max_value: 19.697938919067383
    min_value: -62.885955810546875
    scale: 0.3238584101200104
    zero_point: 194
  '@Reshape_/wav2vec2/encoder/layers.5/attention/Reshape_7_269:out0':
    qtype: u8
    quantizer: asymmetric_affine
    rounding: rtne
    max_value: 3.3341760635375977
    min_value: -3.336455821990967
    scale: 0.026159340515732765
    zero_point: 128
  '@Transpose_/wav2vec2/encoder/layers.5/attention/Transpose_4_272:out0':
    qtype: u8
    quantizer: asymmetric_affine
    rounding: rtne
    max_value: 3.3341760635375977
    min_value: -3.336455821990967
    scale: 0.026159340515732765
    zero_point: 128
  '@Transpose_/wav2vec2/encoder/layers.6/attention/Transpose_1_275:out0':
    qtype: u8
    quantizer: asymmetric_affine
    rounding: rtne
    max_value: 2.819174289703369
    min_value: -2.742400646209717
    scale: 0.021810097619891167
    zero_point: 126
  '@Mul_/wav2vec2/encoder/layers.7/attention/Mul_276:out0':
    qtype: u8
    quantizer: asymmetric_affine
    rounding: rtne
    max_value: 0.6273309588432312
    min_value: -0.6039899587631226
    scale: 0.004828709177672863
    zero_point: 125
  '@Reshape_/wav2vec2/encoder/layers.7/attention/Reshape_277:out0':
    qtype: u8
    quantizer: asymmetric_affine
    rounding: rtne
    max_value: 5.016225337982178
    min_value: -5.101493835449219
    scale: 0.03967733308672905
    zero_point: 129
  '@Add_/wav2vec2/encoder/layers.4/layer_norm/Add_1_279:out0':
    qtype: u8
    quantizer: asymmetric_affine
    rounding: rtne
    max_value: 5.911116123199463
    min_value: -43.460330963134766
    scale: 0.19361352920532227
    zero_point: 224
  '@Reshape_/wav2vec2/encoder/layers.5/attention/Reshape_6_282:out0':
    qtype: u8
    quantizer: asymmetric_affine
    rounding: rtne
    max_value: 3.3341760635375977
    min_value: -3.336455821990967
    scale: 0.026159340515732765
    zero_point: 128
  '@Reshape_/wav2vec2/encoder/layers.6/attention/Reshape_3_283:out0':
    qtype: u8
    quantizer: asymmetric_affine
    rounding: rtne
    max_value: 0.6233677864074707
    min_value: -0.5689050555229187
    scale: 0.004675580188632011
    zero_point: 122
  '@Transpose_/wav2vec2/encoder/layers.6/attention/Transpose_3_284:out0':
    qtype: u8
    quantizer: asymmetric_affine
    rounding: rtne
    max_value: 6.212379455566406
    min_value: -5.793005466461182
    scale: 0.047079939395189285
    zero_point: 123
  '@Reshape_/wav2vec2/encoder/layers.6/attention/Reshape_1_285:out0':
    qtype: u8
    quantizer: asymmetric_affine
    rounding: rtne
    max_value: 2.819174289703369
    min_value: -2.742400646209717
    scale: 0.021810097619891167
    zero_point: 126
  '@Constant_/wav2vec2/encoder/layers.7/attention/Constant_287:out0':
    qtype: u8
    quantizer: asymmetric_affine
    rounding: rtne
    max_value: 0.125
    min_value: 0.0
    scale: 0.0004901961074210703
    zero_point: 0
  '@Add_/wav2vec2/encoder/layers.4/Add_290:out0':
    qtype: u8
    quantizer: asymmetric_affine
    rounding: rtne
    max_value: 4.88965368270874
    min_value: -9.928888320922852
    scale: 0.05811193212866783
    zero_point: 171
  '@Mul_/wav2vec2/encoder/layers.4/feed_forward/intermediate_act_fn/Mul_1_292:out0':
    qtype: u8
    quantizer: asymmetric_affine
    rounding: rtne
    max_value: 5.6046295166015625
    min_value: -0.16997122764587402
    scale: 0.02264549396932125
    zero_point: 8
  '@MatMul_/wav2vec2/encoder/layers.5/attention/MatMul_1_294:out0':
    qtype: u8
    quantizer: asymmetric_affine
    rounding: rtne
    max_value: 3.3341760635375977
    min_value: -3.336455821990967
    scale: 0.026159340515732765
    zero_point: 128
  '@Transpose_/wav2vec2/encoder/layers.6/attention/Transpose_2_295:out0':
    qtype: u8
    quantizer: asymmetric_affine
    rounding: rtne
    max_value: 0.6233677864074707
    min_value: -0.5689050555229187
    scale: 0.004675580188632011
    zero_point: 122
  '@Reshape_/wav2vec2/encoder/layers.6/attention/Reshape_4_296:out0':
    qtype: u8
    quantizer: asymmetric_affine
    rounding: rtne
    max_value: 6.212379455566406
    min_value: -5.793005466461182
    scale: 0.047079939395189285
    zero_point: 123
  '@Add_/wav2vec2/encoder/layers.3/final_layer_norm/Add_1_302:out0':
    qtype: u8
    quantizer: asymmetric_affine
    rounding: rtne
    max_value: 3.854003429412842
    min_value: -2.9807393550872803
    scale: 0.0268029123544693
    zero_point: 111
  '@Softmax_/wav2vec2/encoder/layers.5/attention/Softmax_307:out0':
    qtype: u8
    quantizer: asymmetric_affine
    rounding: rtne
    max_value: 0.8134555816650391
    min_value: 0.0
    scale: 0.003190021961927414
    zero_point: 0
  '@Reshape_/wav2vec2/encoder/layers.5/attention/Reshape_5_308:out0':
    qtype: u8
    quantizer: asymmetric_affine
    rounding: rtne
    max_value: 3.3603529930114746
    min_value: -3.377784013748169
    scale: 0.026424067094922066
    zero_point: 128
  '@Reshape_/wav2vec2/encoder/layers.6/attention/Reshape_2_309:out0':
    qtype: u8
    quantizer: asymmetric_affine
    rounding: rtne
    max_value: 0.6233677864074707
    min_value: -0.5689050555229187
    scale: 0.004675580188632011
    zero_point: 122
  '@Transpose_/wav2vec2/encoder/layers.6/attention/Transpose_310:out0':
    qtype: u8
    quantizer: asymmetric_affine
    rounding: rtne
    max_value: 6.212379455566406
    min_value: -5.793005466461182
    scale: 0.047079939395189285
    zero_point: 123
  '@Add_/wav2vec2/encoder/layers.3/Add_1_314:out0':
    qtype: u8
    quantizer: asymmetric_affine
    rounding: rtne
    max_value: 107.45323181152344
    min_value: -71.52668762207031
    scale: 0.7018820643424988
    zero_point: 102
  '@Reshape_/wav2vec2/encoder/layers.4/attention/Reshape_7_316:out0':
    qtype: u8
    quantizer: asymmetric_affine
    rounding: rtne
    max_value: 3.2098548412323
    min_value: -1.7794936895370483
    scale: 0.019566072151064873
    zero_point: 91
  '@Transpose_/wav2vec2/encoder/layers.4/attention/Transpose_4_319:out0':
    qtype: u8
    quantizer: asymmetric_affine
    rounding: rtne
    max_value: 3.2098548412323
    min_value: -1.7794936895370483
    scale: 0.019566072151064873
    zero_point: 91
  '@Transpose_/wav2vec2/encoder/layers.5/attention/Transpose_1_322:out0':
    qtype: u8
    quantizer: asymmetric_affine
    rounding: rtne
    max_value: 3.3603529930114746
    min_value: -3.377784013748169
    scale: 0.026424067094922066
    zero_point: 128
  '@Mul_/wav2vec2/encoder/layers.6/attention/Mul_323:out0':
    qtype: u8
    quantizer: asymmetric_affine
    rounding: rtne
    max_value: 0.6233677864074707
    min_value: -0.5689050555229187
    scale: 0.004675580188632011
    zero_point: 122
  '@Reshape_/wav2vec2/encoder/layers.6/attention/Reshape_324:out0':
    qtype: u8
    quantizer: asymmetric_affine
    rounding: rtne
    max_value: 6.212379455566406
    min_value: -5.793005466461182
    scale: 0.047079939395189285
    zero_point: 123
  '@Add_/wav2vec2/encoder/layers.3/layer_norm/Add_1_326:out0':
    qtype: u8
    quantizer: asymmetric_affine
    rounding: rtne
    max_value: 6.222045421600342
    min_value: -18.842147827148438
    scale: 0.09829095751047134
    zero_point: 192
  '@Reshape_/wav2vec2/encoder/layers.4/attention/Reshape_6_329:out0':
    qtype: u8
    quantizer: asymmetric_affine
    rounding: rtne
    max_value: 3.2098548412323
    min_value: -1.7794936895370483
    scale: 0.019566072151064873
    zero_point: 91
  '@Reshape_/wav2vec2/encoder/layers.5/attention/Reshape_3_330:out0':
    qtype: u8
    quantizer: asymmetric_affine
    rounding: rtne
    max_value: 0.6298355460166931
    min_value: -0.6387449502944946
    scale: 0.00497482530772686
    zero_point: 128
  '@Transpose_/wav2vec2/encoder/layers.5/attention/Transpose_3_331:out0':
    qtype: u8
    quantizer: asymmetric_affine
    rounding: rtne
    max_value: 5.192781448364258
    min_value: -5.209723472595215
    scale: 0.04079413786530495
    zero_point: 128
  '@Reshape_/wav2vec2/encoder/layers.5/attention/Reshape_1_332:out0':
    qtype: u8
    quantizer: asymmetric_affine
    rounding: rtne
    max_value: 3.3603529930114746
    min_value: -3.377784013748169
    scale: 0.026424067094922066
    zero_point: 128
  '@Constant_/wav2vec2/encoder/layers.6/attention/Constant_334:out0':
    qtype: u8
    quantizer: asymmetric_affine
    rounding: rtne
    max_value: 0.125
    min_value: 0.0
    scale: 0.0004901961074210703
    zero_point: 0
  '@Add_/wav2vec2/encoder/layers.3/Add_337:out0':
    qtype: u8
    quantizer: asymmetric_affine
    rounding: rtne
    max_value: 4.054541110992432
    min_value: -3.5679571628570557
    scale: 0.029892150312662125
    zero_point: 119
  '@Mul_/wav2vec2/encoder/layers.3/feed_forward/intermediate_act_fn/Mul_1_339:out0':
    qtype: u8
    quantizer: asymmetric_affine
    rounding: rtne
    max_value: 6.6766037940979
    min_value: -0.16997122764587402
    scale: 0.02684931270778179
    zero_point: 6
  '@MatMul_/wav2vec2/encoder/layers.4/attention/MatMul_1_341:out0':
    qtype: u8
    quantizer: asymmetric_affine
    rounding: rtne
    max_value: 3.2098548412323
    min_value: -1.7794936895370483
    scale: 0.019566072151064873
    zero_point: 91
  '@Transpose_/wav2vec2/encoder/layers.5/attention/Transpose_2_342:out0':
    qtype: u8
    quantizer: asymmetric_affine
    rounding: rtne
    max_value: 0.6298355460166931
    min_value: -0.6387449502944946
    scale: 0.00497482530772686
    zero_point: 128
  '@Reshape_/wav2vec2/encoder/layers.5/attention/Reshape_4_343:out0':
    qtype: u8
    quantizer: asymmetric_affine
    rounding: rtne
    max_value: 5.192781448364258
    min_value: -5.209723472595215
    scale: 0.04079413786530495
    zero_point: 128
  '@Add_/wav2vec2/encoder/layers.2/final_layer_norm/Add_1_349:out0':
    qtype: u8
    quantizer: asymmetric_affine
    rounding: rtne
    max_value: 3.4975738525390625
    min_value: -3.423466205596924
    scale: 0.027141334488987923
    zero_point: 126
  '@Softmax_/wav2vec2/encoder/layers.4/attention/Softmax_354:out0':
    qtype: u8
    quantizer: asymmetric_affine
    rounding: rtne
    max_value: 0.7644151449203491
    min_value: 0.0
    scale: 0.002997706411406398
    zero_point: 0
  '@Reshape_/wav2vec2/encoder/layers.4/attention/Reshape_5_355:out0':
    qtype: u8
    quantizer: asymmetric_affine
    rounding: rtne
    max_value: 3.329176902770996
    min_value: -2.818270683288574
    scale: 0.024107636883854866
    zero_point: 117
  '@Reshape_/wav2vec2/encoder/layers.5/attention/Reshape_2_356:out0':
    qtype: u8
    quantizer: asymmetric_affine
    rounding: rtne
    max_value: 0.6298355460166931
    min_value: -0.6387449502944946
    scale: 0.00497482530772686
    zero_point: 128
  '@Transpose_/wav2vec2/encoder/layers.5/attention/Transpose_357:out0':
    qtype: u8
    quantizer: asymmetric_affine
    rounding: rtne
    max_value: 5.192781448364258
    min_value: -5.209723472595215
    scale: 0.04079413786530495
    zero_point: 128
  '@Add_/wav2vec2/encoder/layers.2/Add_1_361:out0':
    qtype: u8
    quantizer: asymmetric_affine
    rounding: rtne
    max_value: 29.10752296447754
    min_value: -33.69979476928711
    scale: 0.24630321562290192
    zero_point: 137
  '@Reshape_/wav2vec2/encoder/layers.3/attention/Reshape_7_363:out0':
    qtype: u8
    quantizer: asymmetric_affine
    rounding: rtne
    max_value: 1.5827463865280151
    min_value: -1.8926738500595093
    scale: 0.013629099354147911
    zero_point: 139
  '@Transpose_/wav2vec2/encoder/layers.3/attention/Transpose_4_366:out0':
    qtype: u8
    quantizer: asymmetric_affine
    rounding: rtne
    max_value: 1.5827463865280151
    min_value: -1.8926738500595093
    scale: 0.013629099354147911
    zero_point: 139
  '@Transpose_/wav2vec2/encoder/layers.4/attention/Transpose_1_369:out0':
    qtype: u8
    quantizer: asymmetric_affine
    rounding: rtne
    max_value: 3.329176902770996
    min_value: -2.818270683288574
    scale: 0.024107636883854866
    zero_point: 117
  '@Mul_/wav2vec2/encoder/layers.5/attention/Mul_370:out0':
    qtype: u8
    quantizer: asymmetric_affine
    rounding: rtne
    max_value: 0.6298355460166931
    min_value: -0.6387449502944946
    scale: 0.00497482530772686
    zero_point: 128
  '@Reshape_/wav2vec2/encoder/layers.5/attention/Reshape_371:out0':
    qtype: u8
    quantizer: asymmetric_affine
    rounding: rtne
    max_value: 5.192781448364258
    min_value: -5.209723472595215
    scale: 0.04079413786530495
    zero_point: 128
  '@Add_/wav2vec2/encoder/layers.2/layer_norm/Add_1_373:out0':
    qtype: u8
    quantizer: asymmetric_affine
    rounding: rtne
    max_value: 6.241628646850586
    min_value: -14.080632209777832
    scale: 0.07969514280557632
    zero_point: 177
  '@Reshape_/wav2vec2/encoder/layers.3/attention/Reshape_6_376:out0':
    qtype: u8
    quantizer: asymmetric_affine
    rounding: rtne
    max_value: 1.5827463865280151
    min_value: -1.8926738500595093
    scale: 0.013629099354147911
    zero_point: 139
  '@Reshape_/wav2vec2/encoder/layers.4/attention/Reshape_3_377:out0':
    qtype: u8
    quantizer: asymmetric_affine
    rounding: rtne
    max_value: 0.6697816848754883
    min_value: -0.6697816848754883
    scale: 0.005253189709037542
    zero_point: 128
  '@Transpose_/wav2vec2/encoder/layers.4/attention/Transpose_3_378:out0':
    qtype: u8
    quantizer: asymmetric_affine
    rounding: rtne
    max_value: 6.341794490814209
    min_value: -6.361410140991211
    scale: 0.04981648921966553
    zero_point: 128
  '@Reshape_/wav2vec2/encoder/layers.4/attention/Reshape_1_379:out0':
    qtype: u8
    quantizer: asymmetric_affine
    rounding: rtne
    max_value: 3.329176902770996
    min_value: -2.818270683288574
    scale: 0.024107636883854866
    zero_point: 117
  '@Constant_/wav2vec2/encoder/layers.5/attention/Constant_381:out0':
    qtype: u8
    quantizer: asymmetric_affine
    rounding: rtne
    max_value: 0.125
    min_value: 0.0
    scale: 0.0004901961074210703
    zero_point: 0
  '@Add_/wav2vec2/encoder/layers.2/Add_384:out0':
    qtype: u8
    quantizer: asymmetric_affine
    rounding: rtne
    max_value: 3.515101671218872
    min_value: -2.942638874053955
    scale: 0.025324473157525063
    zero_point: 116
  '@Mul_/wav2vec2/encoder/layers.2/feed_forward/intermediate_act_fn/Mul_1_386:out0':
    qtype: u8
    quantizer: asymmetric_affine
    rounding: rtne
    max_value: 6.918517589569092
    min_value: -0.16997124254703522
    scale: 0.027797996997833252
    zero_point: 6
  '@MatMul_/wav2vec2/encoder/layers.3/attention/MatMul_1_388:out0':
    qtype: u8
    quantizer: asymmetric_affine
    rounding: rtne
    max_value: 1.5827463865280151
    min_value: -1.8926738500595093
    scale: 0.013629099354147911
    zero_point: 139
  '@Transpose_/wav2vec2/encoder/layers.4/attention/Transpose_2_389:out0':
    qtype: u8
    quantizer: asymmetric_affine
    rounding: rtne
    max_value: 0.6697816848754883
    min_value: -0.6697816848754883
    scale: 0.005253189709037542
    zero_point: 128
  '@Reshape_/wav2vec2/encoder/layers.4/attention/Reshape_4_390:out0':
    qtype: u8
    quantizer: asymmetric_affine
    rounding: rtne
    max_value: 6.341794490814209
    min_value: -6.361410140991211
    scale: 0.04981648921966553
    zero_point: 128
  '@Add_/wav2vec2/encoder/layers.1/final_layer_norm/Add_1_396:out0':
    qtype: u8
    quantizer: asymmetric_affine
    rounding: rtne
    max_value: 3.175839900970459
    min_value: -3.0034878253936768
    scale: 0.024232659488916397
    zero_point: 124
  '@Softmax_/wav2vec2/encoder/layers.3/attention/Softmax_401:out0':
    qtype: u8
    quantizer: asymmetric_affine
    rounding: rtne
    max_value: 0.8622856736183167
    min_value: 0.0
    scale: 0.0033815123606473207
    zero_point: 0
  '@Reshape_/wav2vec2/encoder/layers.3/attention/Reshape_5_402:out0':
    qtype: u8
    quantizer: asymmetric_affine
    rounding: rtne
    max_value: 3.019134998321533
    min_value: -2.648435115814209
    scale: 0.022225765511393547
    zero_point: 119
  '@Reshape_/wav2vec2/encoder/layers.4/attention/Reshape_2_403:out0':
    qtype: u8
    quantizer: asymmetric_affine
    rounding: rtne
    max_value: 0.6697816848754883
    min_value: -0.6697816848754883
    scale: 0.005253189709037542
    zero_point: 128
  '@Transpose_/wav2vec2/encoder/layers.4/attention/Transpose_404:out0':
    qtype: u8
    quantizer: asymmetric_affine
    rounding: rtne
    max_value: 6.341794490814209
    min_value: -6.361410140991211
    scale: 0.04981648921966553
    zero_point: 128
  '@Add_/wav2vec2/encoder/layers.1/Add_1_408:out0':
    qtype: u8
    quantizer: asymmetric_affine
    rounding: rtne
    max_value: 8.578983306884766
    min_value: -47.96132278442383
    scale: 0.2217266857624054
    zero_point: 216
  '@Reshape_/wav2vec2/encoder/layers.2/attention/Reshape_7_410:out0':
    qtype: u8
    quantizer: asymmetric_affine
    rounding: rtne
    max_value: 1.7217979431152344
    min_value: -1.1019209623336792
    scale: 0.011073407717049122
    zero_point: 100
  '@Transpose_/wav2vec2/encoder/layers.2/attention/Transpose_4_413:out0':
    qtype: u8
    quantizer: asymmetric_affine
    rounding: rtne
    max_value: 1.7217979431152344
    min_value: -1.1019209623336792
    scale: 0.011073407717049122
    zero_point: 100
  '@Transpose_/wav2vec2/encoder/layers.3/attention/Transpose_1_416:out0':
    qtype: u8
    quantizer: asymmetric_affine
    rounding: rtne
    max_value: 3.019134998321533
    min_value: -2.648435115814209
    scale: 0.022225765511393547
    zero_point: 119
  '@Mul_/wav2vec2/encoder/layers.4/attention/Mul_417:out0':
    qtype: u8
    quantizer: asymmetric_affine
    rounding: rtne
    max_value: 0.6697816848754883
    min_value: -0.6697816848754883
    scale: 0.005253189709037542
    zero_point: 128
  '@Reshape_/wav2vec2/encoder/layers.4/attention/Reshape_418:out0':
    qtype: u8
    quantizer: asymmetric_affine
    rounding: rtne
    max_value: 6.341794490814209
    min_value: -6.361410140991211
    scale: 0.04981648921966553
    zero_point: 128
  '@Add_/wav2vec2/encoder/layers.1/layer_norm/Add_1_420:out0':
    qtype: u8
    quantizer: asymmetric_affine
    rounding: rtne
    max_value: 5.023482322692871
    min_value: -9.253381729125977
    scale: 0.05598770081996918
    zero_point: 165
  '@Reshape_/wav2vec2/encoder/layers.2/attention/Reshape_6_423:out0':
    qtype: u8
    quantizer: asymmetric_affine
    rounding: rtne
    max_value: 1.7217979431152344
    min_value: -1.1019209623336792
    scale: 0.011073407717049122
    zero_point: 100
  '@Reshape_/wav2vec2/encoder/layers.3/attention/Reshape_3_424:out0':
    qtype: u8
    quantizer: asymmetric_affine
    rounding: rtne
    max_value: 0.702996551990509
    min_value: -0.703526496887207
    scale: 0.005515776574611664
    zero_point: 128
  '@Transpose_/wav2vec2/encoder/layers.3/attention/Transpose_3_425:out0':
    qtype: u8
    quantizer: asymmetric_affine
    rounding: rtne
    max_value: 6.456931114196777
    min_value: -6.550623416900635
    scale: 0.051010020077228546
    zero_point: 128
  '@Reshape_/wav2vec2/encoder/layers.3/attention/Reshape_1_426:out0':
    qtype: u8
    quantizer: asymmetric_affine
    rounding: rtne
    max_value: 3.019134998321533
    min_value: -2.648435115814209
    scale: 0.022225765511393547
    zero_point: 119
  '@Constant_/wav2vec2/encoder/layers.4/attention/Constant_428:out0':
    qtype: u8
    quantizer: asymmetric_affine
    rounding: rtne
    max_value: 0.125
    min_value: 0.0
    scale: 0.0004901961074210703
    zero_point: 0
  '@Add_/wav2vec2/encoder/layers.1/Add_431:out0':
    qtype: u8
    quantizer: asymmetric_affine
    rounding: rtne
    max_value: 3.1314213275909424
    min_value: -3.071937084197998
    scale: 0.02432689629495144
    zero_point: 126
  '@Mul_/wav2vec2/encoder/layers.1/feed_forward/intermediate_act_fn/Mul_1_433:out0':
    qtype: u8
    quantizer: asymmetric_affine
    rounding: rtne
    max_value: 4.682456970214844
    min_value: -0.16997124254703522
    scale: 0.019029131159186363
    zero_point: 9
  '@MatMul_/wav2vec2/encoder/layers.2/attention/MatMul_1_435:out0':
    qtype: u8
    quantizer: asymmetric_affine
    rounding: rtne
    max_value: 1.7217979431152344
    min_value: -1.1019209623336792
    scale: 0.011073407717049122
    zero_point: 100
  '@Transpose_/wav2vec2/encoder/layers.3/attention/Transpose_2_436:out0':
    qtype: u8
    quantizer: asymmetric_affine
    rounding: rtne
    max_value: 0.702996551990509
    min_value: -0.703526496887207
    scale: 0.005515776574611664
    zero_point: 128
  '@Reshape_/wav2vec2/encoder/layers.3/attention/Reshape_4_437:out0':
    qtype: u8
    quantizer: asymmetric_affine
    rounding: rtne
    max_value: 6.456931114196777
    min_value: -6.550623416900635
    scale: 0.051010020077228546
    zero_point: 128
  '@Add_/wav2vec2/encoder/layers.0/final_layer_norm/Add_1_443:out0':
    qtype: u8
    quantizer: asymmetric_affine
    rounding: rtne
    max_value: 2.918113946914673
    min_value: -3.1391079425811768
    scale: 0.023753810673952103
    zero_point: 132
  '@Softmax_/wav2vec2/encoder/layers.2/attention/Softmax_448:out0':
    qtype: u8
    quantizer: asymmetric_affine
    rounding: rtne
    max_value: 0.7318837642669678
    min_value: 0.0
    scale: 0.0028701324481517076
    zero_point: 0
  '@Reshape_/wav2vec2/encoder/layers.2/attention/Reshape_5_449:out0':
    qtype: u8
    quantizer: asymmetric_affine
    rounding: rtne
    max_value: 3.0711629390716553
    min_value: -3.09243106842041
    scale: 0.024170957505702972
    zero_point: 128
  '@Reshape_/wav2vec2/encoder/layers.3/attention/Reshape_2_450:out0':
    qtype: u8
    quantizer: asymmetric_affine
    rounding: rtne
    max_value: 0.702996551990509
    min_value: -0.703526496887207
    scale: 0.005515776574611664
    zero_point: 128
  '@Transpose_/wav2vec2/encoder/layers.3/attention/Transpose_451:out0':
    qtype: u8
    quantizer: asymmetric_affine
    rounding: rtne
    max_value: 6.456931114196777
    min_value: -6.550623416900635
    scale: 0.051010020077228546
    zero_point: 128
  '@Add_/wav2vec2/encoder/layers.0/Add_1_455:out0':
    qtype: u8
    quantizer: asymmetric_affine
    rounding: rtne
    max_value: 18.36013412475586
    min_value: -18.856740951538086
    scale: 0.14594852924346924
    zero_point: 129
  '@Reshape_/wav2vec2/encoder/layers.1/attention/Reshape_7_457:out0':
    qtype: u8
    quantizer: asymmetric_affine
    rounding: rtne
    max_value: 1.465430498123169
    min_value: -1.3192670345306396
    scale: 0.010920382104814053
    zero_point: 121
  '@Transpose_/wav2vec2/encoder/layers.1/attention/Transpose_4_460:out0':
    qtype: u8
    quantizer: asymmetric_affine
    rounding: rtne
    max_value: 1.465430498123169
    min_value: -1.3192670345306396
    scale: 0.010920382104814053
    zero_point: 121
  '@Transpose_/wav2vec2/encoder/layers.2/attention/Transpose_1_463:out0':
    qtype: u8
    quantizer: asymmetric_affine
    rounding: rtne
    max_value: 3.0711629390716553
    min_value: -3.09243106842041
    scale: 0.024170957505702972
    zero_point: 128
  '@Mul_/wav2vec2/encoder/layers.3/attention/Mul_464:out0':
    qtype: u8
    quantizer: asymmetric_affine
    rounding: rtne
    max_value: 0.702996551990509
    min_value: -0.703526496887207
    scale: 0.005515776574611664
    zero_point: 128
  '@Reshape_/wav2vec2/encoder/layers.3/attention/Reshape_465:out0':
    qtype: u8
    quantizer: asymmetric_affine
    rounding: rtne
    max_value: 6.456931114196777
    min_value: -6.550623416900635
    scale: 0.051010020077228546
    zero_point: 128
  '@Add_/wav2vec2/encoder/layers.0/layer_norm/Add_1_467:out0':
    qtype: u8
    quantizer: asymmetric_affine
    rounding: rtne
    max_value: 5.170017719268799
    min_value: -4.3819146156311035
    scale: 0.03745855763554573
    zero_point: 117
  '@Reshape_/wav2vec2/encoder/layers.1/attention/Reshape_6_470:out0':
    qtype: u8
    quantizer: asymmetric_affine
    rounding: rtne
    max_value: 1.465430498123169
    min_value: -1.3192670345306396
    scale: 0.010920382104814053
    zero_point: 121
  '@Reshape_/wav2vec2/encoder/layers.2/attention/Reshape_3_471:out0':
    qtype: u8
    quantizer: asymmetric_affine
    rounding: rtne
    max_value: 0.6584599018096924
    min_value: -0.6032028794288635
    scale: 0.004947696812450886
    zero_point: 122
  '@Transpose_/wav2vec2/encoder/layers.2/attention/Transpose_3_472:out0':
    qtype: u8
    quantizer: asymmetric_affine
    rounding: rtne
    max_value: 5.216405868530273
    min_value: -5.954112529754639
    scale: 0.04380595684051514
    zero_point: 136
  '@Reshape_/wav2vec2/encoder/layers.2/attention/Reshape_1_473:out0':
    qtype: u8
    quantizer: asymmetric_affine
    rounding: rtne
    max_value: 3.0711629390716553
    min_value: -3.09243106842041
    scale: 0.024170957505702972
    zero_point: 128
  '@Constant_/wav2vec2/encoder/layers.3/attention/Constant_475:out0':
    qtype: u8
    quantizer: asymmetric_affine
    rounding: rtne
    max_value: 0.125
    min_value: 0.0
    scale: 0.0004901961074210703
    zero_point: 0
  '@Add_/wav2vec2/encoder/layers.0/Add_478:out0':
    qtype: u8
    quantizer: asymmetric_affine
    rounding: rtne
    max_value: 2.3991189002990723
    min_value: -2.1007676124572754
    scale: 0.017646614462137222
    zero_point: 119
  '@Mul_/wav2vec2/encoder/layers.0/feed_forward/intermediate_act_fn/Mul_1_480:out0':
    qtype: u8
    quantizer: asymmetric_affine
    rounding: rtne
    max_value: 3.0021281242370605
    min_value: -0.16997124254703522
    scale: 0.012439604848623276
    zero_point: 14
  '@MatMul_/wav2vec2/encoder/layers.1/attention/MatMul_1_482:out0':
    qtype: u8
    quantizer: asymmetric_affine
    rounding: rtne
    max_value: 1.465430498123169
    min_value: -1.3192670345306396
    scale: 0.010920382104814053
    zero_point: 121
  '@Transpose_/wav2vec2/encoder/layers.2/attention/Transpose_2_483:out0':
    qtype: u8
    quantizer: asymmetric_affine
    rounding: rtne
    max_value: 0.6584599018096924
    min_value: -0.6032028794288635
    scale: 0.004947696812450886
    zero_point: 122
  '@Reshape_/wav2vec2/encoder/layers.2/attention/Reshape_4_484:out0':
    qtype: u8
    quantizer: asymmetric_affine
    rounding: rtne
    max_value: 5.216405868530273
    min_value: -5.954112529754639
    scale: 0.04380595684051514
    zero_point: 136
  '@Add_/wav2vec2/encoder/layer_norm/Add_1_490:out0':
    qtype: u8
    quantizer: asymmetric_affine
    rounding: rtne
    max_value: 2.3257269859313965
    min_value: -1.7939534187316895
    scale: 0.016155609861016273
    zero_point: 111
  '@Softmax_/wav2vec2/encoder/layers.1/attention/Softmax_495:out0':
    qtype: u8
    quantizer: asymmetric_affine
    rounding: rtne
    max_value: 0.8248761892318726
    min_value: 0.0
    scale: 0.0032348085660487413
    zero_point: 0
  '@Reshape_/wav2vec2/encoder/layers.1/attention/Reshape_5_496:out0':
    qtype: u8
    quantizer: asymmetric_affine
    rounding: rtne
    max_value: 2.5330662727355957
    min_value: -2.3861405849456787
    scale: 0.01929100602865219
    zero_point: 124
  '@Reshape_/wav2vec2/encoder/layers.2/attention/Reshape_2_497:out0':
    qtype: u8
    quantizer: asymmetric_affine
    rounding: rtne
    max_value: 0.6584599018096924
    min_value: -0.6032028794288635
    scale: 0.004947696812450886
    zero_point: 122
  '@Transpose_/wav2vec2/encoder/layers.2/attention/Transpose_498:out0':
    qtype: u8
    quantizer: asymmetric_affine
    rounding: rtne
    max_value: 5.216405868530273
    min_value: -5.954112529754639
    scale: 0.04380595684051514
    zero_point: 136
  '@Add_/wav2vec2/encoder/Add_502:out0':
    qtype: u8
    quantizer: asymmetric_affine
    rounding: rtne
    max_value: 16.582653045654297
    min_value: -8.266737937927246
    scale: 0.09744859486818314
    zero_point: 85
  '@Reshape_/wav2vec2/encoder/layers.0/attention/Reshape_7_504:out0':
    qtype: u8
    quantizer: asymmetric_affine
    rounding: rtne
    max_value: 0.8650469779968262
    min_value: -0.8008406758308411
    scale: 0.00653289258480072
    zero_point: 123
  '@Transpose_/wav2vec2/encoder/layers.0/attention/Transpose_4_507:out0':
    qtype: u8
    quantizer: asymmetric_affine
    rounding: rtne
    max_value: 0.8650469779968262
    min_value: -0.8008406758308411
    scale: 0.00653289258480072
    zero_point: 123
  '@Transpose_/wav2vec2/encoder/layers.1/attention/Transpose_1_510:out0':
    qtype: u8
    quantizer: asymmetric_affine
    rounding: rtne
    max_value: 2.5330662727355957
    min_value: -2.3861405849456787
    scale: 0.01929100602865219
    zero_point: 124
  '@Mul_/wav2vec2/encoder/layers.2/attention/Mul_511:out0':
    qtype: u8
    quantizer: asymmetric_affine
    rounding: rtne
    max_value: 0.6584599018096924
    min_value: -0.6032028794288635
    scale: 0.004947696812450886
    zero_point: 122
  '@Reshape_/wav2vec2/encoder/layers.2/attention/Reshape_512:out0':
    qtype: u8
    quantizer: asymmetric_affine
    rounding: rtne
    max_value: 5.216405868530273
    min_value: -5.954112529754639
    scale: 0.04380595684051514
    zero_point: 136
  '@Mul_/wav2vec2/encoder/pos_conv_embed/activation/Mul_1_515:out0':
    qtype: u8
    quantizer: asymmetric_affine
    rounding: rtne
    max_value: 14.504714012145996
    min_value: -0.16997124254703522
    scale: 0.057547785341739655
    zero_point: 3
  '@Reshape_/wav2vec2/encoder/layers.0/attention/Reshape_6_516:out0':
    qtype: u8
    quantizer: asymmetric_affine
    rounding: rtne
    max_value: 0.8650469779968262
    min_value: -0.8008406758308411
    scale: 0.00653289258480072
    zero_point: 123
  '@Reshape_/wav2vec2/encoder/layers.1/attention/Reshape_3_517:out0':
    qtype: u8
    quantizer: asymmetric_affine
    rounding: rtne
    max_value: 0.636620044708252
    min_value: -0.7502518892288208
    scale: 0.005438713356852531
    zero_point: 138
  '@Transpose_/wav2vec2/encoder/layers.1/attention/Transpose_3_518:out0':
    qtype: u8
    quantizer: asymmetric_affine
    rounding: rtne
    max_value: 5.196139335632324
    min_value: -6.345607757568359
    scale: 0.04526175186038017
    zero_point: 140
  '@Reshape_/wav2vec2/encoder/layers.1/attention/Reshape_1_519:out0':
    qtype: u8
    quantizer: asymmetric_affine
    rounding: rtne
    max_value: 2.5330662727355957
    min_value: -2.3861405849456787
    scale: 0.01929100602865219
    zero_point: 124
  '@Constant_/wav2vec2/encoder/layers.2/attention/Constant_521:out0':
    qtype: u8
    quantizer: asymmetric_affine
    rounding: rtne
    max_value: 0.125
    min_value: 0.0
    scale: 0.0004901961074210703
    zero_point: 0
  '@Slice_/wav2vec2/encoder/pos_conv_embed/padding/Slice_526:out0':
    qtype: u8
    quantizer: asymmetric_affine
    rounding: rtne
    max_value: 14.504714012145996
    min_value: -14.015823364257812
    scale: 0.11184524744749069
    zero_point: 125
  '@Conv_/wav2vec2/encoder/pos_conv_embed/conv/Conv_527:out0':
    qtype: u8
    quantizer: asymmetric_affine
    rounding: rtne
    max_value: 14.504714012145996
    min_value: -14.015823364257812
    scale: 0.11184524744749069
    zero_point: 125
  '@MatMul_/wav2vec2/encoder/layers.0/attention/MatMul_1_528:out0':
    qtype: u8
    quantizer: asymmetric_affine
    rounding: rtne
    max_value: 0.8650469779968262
    min_value: -0.8008406758308411
    scale: 0.00653289258480072
    zero_point: 123
  '@Transpose_/wav2vec2/encoder/layers.1/attention/Transpose_2_529:out0':
    qtype: u8
    quantizer: asymmetric_affine
    rounding: rtne
    max_value: 0.636620044708252
    min_value: -0.7502518892288208
    scale: 0.005438713356852531
    zero_point: 138
  '@Reshape_/wav2vec2/encoder/layers.1/attention/Reshape_4_530:out0':
    qtype: u8
    quantizer: asymmetric_affine
    rounding: rtne
    max_value: 5.196139335632324
    min_value: -6.345607757568359
    scale: 0.04526175186038017
    zero_point: 140
  '@Add_/wav2vec2/feature_projection/layer_norm/Add_1_536:out0':
    qtype: u8
    quantizer: asymmetric_affine
    rounding: rtne
    max_value: 2.0614054203033447
    min_value: -2.845914125442505
    scale: 0.019244389608502388
    zero_point: 148
  '@Softmax_/wav2vec2/encoder/layers.0/attention/Softmax_539:out0':
    qtype: u8
    quantizer: asymmetric_affine
    rounding: rtne
    max_value: 0.19944056868553162
    min_value: 0.0
    scale: 0.000782119866926223
    zero_point: 0
  '@Reshape_/wav2vec2/encoder/layers.0/attention/Reshape_5_540:out0':
    qtype: u8
    quantizer: asymmetric_affine
    rounding: rtne
    max_value: 2.4900295734405518
    min_value: -2.61391544342041
    scale: 0.020015468820929527
    zero_point: 131
  '@Reshape_/wav2vec2/encoder/layers.1/attention/Reshape_2_541:out0':
    qtype: u8
    quantizer: asymmetric_affine
    rounding: rtne
    max_value: 0.636620044708252
    min_value: -0.7502518892288208
    scale: 0.005438713356852531
    zero_point: 138
  '@Transpose_/wav2vec2/encoder/layers.1/attention/Transpose_542:out0':
    qtype: u8
    quantizer: asymmetric_affine
    rounding: rtne
    max_value: 5.196139335632324
    min_value: -6.345607757568359
    scale: 0.04526175186038017
    zero_point: 140
  '@Mul_/wav2vec2/feature_extractor/conv_layers.6/activation/Mul_1_547:out0':
    qtype: u8
    quantizer: asymmetric_affine
    rounding: rtne
    max_value: 0.11359332501888275
    min_value: -0.11736547201871872
    scale: 0.0009057207498699427
    zero_point: 130
  '@Conv_/wav2vec2/feature_extractor/conv_layers.6/conv/Conv_548:out0':
    qtype: u8
    quantizer: asymmetric_affine
    rounding: rtne
    max_value: 0.19655777513980865
    min_value: -0.2910556495189667
    scale: 0.0019122095545753837
    zero_point: 152
  '@Transpose_/wav2vec2/encoder/layers.0/attention/Transpose_1_550:out0':
    qtype: u8
    quantizer: asymmetric_affine
    rounding: rtne
    max_value: 2.4900295734405518
    min_value: -2.61391544342041
    scale: 0.020015468820929527
    zero_point: 131
  '@Mul_/wav2vec2/encoder/layers.1/attention/Mul_551:out0':
    qtype: u8
    quantizer: asymmetric_affine
    rounding: rtne
    max_value: 0.636620044708252
    min_value: -0.7502518892288208
    scale: 0.005438713356852531
    zero_point: 138
  '@Reshape_/wav2vec2/encoder/layers.1/attention/Reshape_552:out0':
    qtype: u8
    quantizer: asymmetric_affine
    rounding: rtne
    max_value: 5.196139335632324
    min_value: -6.345607757568359
    scale: 0.04526175186038017
    zero_point: 140
  '@Mul_/wav2vec2/feature_extractor/conv_layers.5/activation/Mul_1_555:out0':
    qtype: u8
    quantizer: asymmetric_affine
    rounding: rtne
    max_value: 1.0388550758361816
    min_value: -0.16997121274471283
    scale: 0.0047404952347278595
    zero_point: 36
  '@Reshape_/wav2vec2/encoder/layers.0/attention/Reshape_3_556:out0':
    qtype: u8
    quantizer: asymmetric_affine
    rounding: rtne
    max_value: 0.6704766750335693
    min_value: -0.816688597202301
    scale: 0.0058320206589996815
    zero_point: 140
  '@Transpose_/wav2vec2/encoder/layers.0/attention/Transpose_3_557:out0':
    qtype: u8
    quantizer: asymmetric_affine
    rounding: rtne
    max_value: 5.08118200302124
    min_value: -4.718196868896484
    scale: 0.03842893987894058
    zero_point: 123
  '@Reshape_/wav2vec2/encoder/layers.0/attention/Reshape_1_558:out0':
    qtype: u8
    quantizer: asymmetric_affine
    rounding: rtne
    max_value: 2.4900295734405518
    min_value: -2.61391544342041
    scale: 0.020015468820929527
    zero_point: 131
  '@Constant_/wav2vec2/encoder/layers.1/attention/Constant_560:out0':
    qtype: u8
    quantizer: asymmetric_affine
    rounding: rtne
    max_value: 0.125
    min_value: 0.0
    scale: 0.0004901961074210703
    zero_point: 0
  '@Conv_/wav2vec2/feature_extractor/conv_layers.5/conv/Conv_564:out0':
    qtype: u8
    quantizer: asymmetric_affine
    rounding: rtne
    max_value: 1.598400592803955
    min_value: -4.303405284881592
    scale: 0.02314433641731739
    zero_point: 186
  '@Mul_/wav2vec2/feature_extractor/conv_layers.4/activation/Mul_1_565:out0':
    qtype: u8
    quantizer: asymmetric_affine
    rounding: rtne
    max_value: 2.8649508953094482
    min_value: -0.16997124254703522
    scale: 0.011901655234396458
    zero_point: 14
  '@Transpose_/wav2vec2/encoder/layers.0/attention/Transpose_2_566:out0':
    qtype: u8
    quantizer: asymmetric_affine
    rounding: rtne
    max_value: 0.6704766750335693
    min_value: -0.816688597202301
    scale: 0.0058320206589996815
    zero_point: 140
  '@Reshape_/wav2vec2/encoder/layers.0/attention/Reshape_4_567:out0':
    qtype: u8
    quantizer: asymmetric_affine
    rounding: rtne
    max_value: 5.08118200302124
    min_value: -4.718196868896484
    scale: 0.03842893987894058
    zero_point: 123
  '@Conv_/wav2vec2/feature_extractor/conv_layers.4/conv/Conv_572:out0':
    qtype: u8
    quantizer: asymmetric_affine
    rounding: rtne
    max_value: 3.2750463485717773
    min_value: -7.7266340255737305
    scale: 0.04314384609460831
    zero_point: 179
  '@Mul_/wav2vec2/feature_extractor/conv_layers.3/activation/Mul_1_573:out0':
    qtype: u8
    quantizer: asymmetric_affine
    rounding: rtne
    max_value: 7.790073871612549
    min_value: -0.16997124254703522
    scale: 0.031215863302350044
    zero_point: 5
  '@Reshape_/wav2vec2/encoder/layers.0/attention/Reshape_2_574:out0':
    qtype: u8
    quantizer: asymmetric_affine
    rounding: rtne
    max_value: 0.6704766750335693
    min_value: -0.816688597202301
    scale: 0.0058320206589996815
    zero_point: 140
  '@Transpose_/wav2vec2/encoder/layers.0/attention/Transpose_575:out0':
    qtype: u8
    quantizer: asymmetric_affine
    rounding: rtne
    max_value: 5.08118200302124
    min_value: -4.718196868896484
    scale: 0.03842893987894058
    zero_point: 123
  '@Reshape_/wav2vec2/encoder/layers.0/attention/Reshape_577:out0':
    qtype: u8
    quantizer: asymmetric_affine
    rounding: rtne
    max_value: 5.08118200302124
    min_value: -4.718196868896484
    scale: 0.03842893987894058
    zero_point: 123
  '@Conv_/wav2vec2/feature_extractor/conv_layers.3/conv/Conv_579:out0':
    qtype: u8
    quantizer: asymmetric_affine
    rounding: rtne
    max_value: 8.900458335876465
    min_value: -53.353981018066406
    scale: 0.2441350668668747
    zero_point: 219
  '@Mul_/wav2vec2/feature_extractor/conv_layers.2/activation/Mul_1_580:out0':
    qtype: u8
    quantizer: asymmetric_affine
    rounding: rtne
    max_value: 10.98153305053711
    min_value: -0.16997124254703522
    scale: 0.04373139142990112
    zero_point: 4
  '@Mul_/wav2vec2/encoder/layers.0/attention/Mul_581:out0':
    qtype: u8
    quantizer: asymmetric_affine
    rounding: rtne
    max_value: 0.6704766750335693
    min_value: -0.816688597202301
    scale: 0.0058320206589996815
    zero_point: 140
  '@Conv_/wav2vec2/feature_extractor/conv_layers.2/conv/Conv_583:out0':
    qtype: u8
    quantizer: asymmetric_affine
    rounding: rtne
    max_value: 15.96746826171875
    min_value: -585.8392333984375
    scale: 2.3600263595581055
    zero_point: 248
  '@Mul_/wav2vec2/feature_extractor/conv_layers.1/activation/Mul_1_584:out0':
    qtype: u8
    quantizer: asymmetric_affine
    rounding: rtne
    max_value: 101.59171295166016
    min_value: -0.16997124254703522
    scale: 0.39906540513038635
    zero_point: 0
  '@Constant_/wav2vec2/encoder/layers.0/attention/Constant_586:out0':
    qtype: u8
    quantizer: asymmetric_affine
    rounding: rtne
    max_value: 0.125
    min_value: 0.0
    scale: 0.0004901961074210703
    zero_point: 0
  '@Conv_/wav2vec2/feature_extractor/conv_layers.1/conv/Conv_589:out0':
    qtype: u8
    quantizer: asymmetric_affine
    rounding: rtne
    max_value: 232.0801239013672
    min_value: -440.7354736328125
    scale: 2.6384925842285156
    zero_point: 167
  '@Mul_/wav2vec2/feature_extractor/conv_layers.0/activation/Mul_1_590:out0':
    qtype: u8
    quantizer: asymmetric_affine
    rounding: rtne
    max_value: 33.145259857177734
    min_value: -0.16997124254703522
    scale: 0.13064797222614288
    zero_point: 1
  '@Reshape_/wav2vec2/feature_extractor/conv_layers.0/layer_norm/Reshape_1_598:out0':
    qtype: u8
    quantizer: asymmetric_affine
    rounding: rtne
    max_value: 15.220534324645996
    min_value: -15.220534324645996
    scale: 0.11937674134969711
    zero_point: 128
  '@InstanceNormalization_/wav2vec2/feature_extractor/conv_layers.0/layer_norm/InstanceNormalization_600:out0':
    qtype: u8
    quantizer: asymmetric_affine
    rounding: rtne
    max_value: 15.220534324645996
    min_value: -15.220534324645996
    scale: 0.11937674134969711
    zero_point: 128
  '@Reshape_/wav2vec2/feature_extractor/conv_layers.0/layer_norm/Reshape_601:out0':
    qtype: u8
    quantizer: asymmetric_affine
    rounding: rtne
    max_value: 0.5111762881278992
    min_value: -0.5111762881278992
    scale: 0.004009225871413946
    zero_point: 128
  '@Conv_/wav2vec2/feature_extractor/conv_layers.0/conv/Conv_602:out0':
    qtype: u8
    quantizer: asymmetric_affine
    rounding: rtne
    max_value: 0.5111762881278992
    min_value: -0.5111762881278992
    scale: 0.004009225871413946
    zero_point: 128
  '@Unsqueeze_/wav2vec2/feature_extractor/Unsqueeze_603:out0':
    qtype: u8
    quantizer: asymmetric_affine
    rounding: rtne
    max_value: 0.387939453125
    min_value: -0.339111328125
    scale: 0.0028511795680969954
    zero_point: 119
  '@input_values_604:out0':
    qtype: u8
    quantizer: asymmetric_affine
    rounding: rtne
    max_value: 0.387939453125
    min_value: -0.339111328125
    scale: 0.0028511795680969954
    zero_point: 119
  '@Mul_/wav2vec2/feature_extractor/conv_layers.0/layer_norm/Mul_597_acuity_mark_perm_608:out0':
    qtype: u8
    quantizer: asymmetric_affine
    rounding: rtne
    max_value: 15.220534324645996
    min_value: -15.220534324645996
    scale: 0.11937674134969711
    zero_point: 128
  '@Reshape_/wav2vec2/feature_extractor/conv_layers.0/layer_norm/Reshape_1_598_acuity_mark_perm_609:out0':
    qtype: u8
    quantizer: asymmetric_affine
    rounding: rtne
    max_value: 15.220534324645996
    min_value: -15.220534324645996
    scale: 0.11937674134969711
    zero_point: 128
  '@InstanceNormalization_/wav2vec2/feature_extractor/conv_layers.0/layer_norm/InstanceNormalization_600_acuity_mark_perm_610:out0':
    qtype: u8
    quantizer: asymmetric_affine
    rounding: rtne
    max_value: 0.5111762881278992
    min_value: -0.5111762881278992
    scale: 0.004009225871413946
    zero_point: 128
  '@Reshape_/wav2vec2/feature_extractor/conv_layers.0/layer_norm/Reshape_601_acuity_mark_perm_611:out0':
    qtype: u8
    quantizer: asymmetric_affine
    rounding: rtne
    max_value: 0.5111762881278992
    min_value: -0.5111762881278992
    scale: 0.004009225871413946
    zero_point: 128
  '@Conv_/wav2vec2/feature_extractor/conv_layers.0/conv/Conv_602_acuity_mark_perm_612:out0':
    qtype: u8
    quantizer: asymmetric_affine
    rounding: rtne
    max_value: 0.387939453125
    min_value: -0.339111328125
    scale: 0.0028511795680969954
    zero_point: 119
  '@reshape_613:out0':
    qtype: u8
    quantizer: asymmetric_affine
    rounding: rtne
    max_value: 1.8364628553390503
    min_value: -1.8359836339950562
    scale: 0.014401750639081001
    zero_point: 127
  '@fullconnect_614:out0':
    qtype: u8
    quantizer: asymmetric_affine
    rounding: rtne
    max_value: 11.506993293762207
    min_value: -27.109127044677734
    scale: 0.1514357626438141
    zero_point: 179
  '@reshape_615:out0':
    qtype: u8
    quantizer: asymmetric_affine
    rounding: rtne
    max_value: 11.506993293762207
    min_value: -27.109127044677734
    scale: 0.1514357626438141
    zero_point: 179
  '@reshape_616:out0':
    qtype: u8
    quantizer: asymmetric_affine
    rounding: rtne
    max_value: 5.516469955444336
    min_value: -0.16997124254703522
    scale: 0.022299770265817642
    zero_point: 8
  '@fullconnect_617:out0':
    qtype: u8
    quantizer: asymmetric_affine
    rounding: rtne
    max_value: 30.077573776245117
    min_value: -32.7520637512207
    scale: 0.24639073014259338
    zero_point: 133
  '@reshape_618:out0':
    qtype: u8
    quantizer: asymmetric_affine
    rounding: rtne
    max_value: 30.077573776245117
    min_value: -32.7520637512207
    scale: 0.24639073014259338
    zero_point: 133
  '@reshape_619:out0':
    qtype: u8
    quantizer: asymmetric_affine
    rounding: rtne
    max_value: 3.536486864089966
    min_value: -3.3315837383270264
    scale: 0.026933610439300537
    zero_point: 124
  '@fullconnect_620:out0':
    qtype: u8
    quantizer: asymmetric_affine
    rounding: rtne
    max_value: 12.828119277954102
    min_value: -10.60792064666748
    scale: 0.09190603345632553
    zero_point: 115
  '@reshape_621:out0':
    qtype: u8
    quantizer: asymmetric_affine
    rounding: rtne
    max_value: 12.828119277954102
    min_value: -10.60792064666748
    scale: 0.09190603345632553
    zero_point: 115
  '@reshape_622:out0':
    qtype: u8
    quantizer: asymmetric_affine
    rounding: rtne
    max_value: 2.949404716491699
    min_value: -7.355704307556152
    scale: 0.040412191301584244
    zero_point: 182
  '@fullconnect_623:out0':
    qtype: u8
    quantizer: asymmetric_affine
    rounding: rtne
    max_value: 5.882702827453613
    min_value: -9.604920387268066
    scale: 0.06073577702045441
    zero_point: 158
  '@reshape_624:out0':
    qtype: u8
    quantizer: asymmetric_affine
    rounding: rtne
    max_value: 5.882702827453613
    min_value: -9.604920387268066
    scale: 0.06073577702045441
    zero_point: 158
  '@reshape_625:out0':
    qtype: u8
    quantizer: asymmetric_affine
    rounding: rtne
    max_value: 5.258763790130615
    min_value: -0.16997124254703522
    scale: 0.0212891586124897
    zero_point: 8
  '@fullconnect_626:out0':
    qtype: u8
    quantizer: asymmetric_affine
    rounding: rtne
    max_value: 26.784543991088867
    min_value: -15.607522010803223
    scale: 0.16624340415000916
    zero_point: 94
  '@reshape_627:out0':
    qtype: u8
    quantizer: asymmetric_affine
    rounding: rtne
    max_value: 26.784543991088867
    min_value: -15.607522010803223
    scale: 0.16624340415000916
    zero_point: 94
  '@reshape_628:out0':
    qtype: u8
    quantizer: asymmetric_affine
    rounding: rtne
    max_value: 2.3437652587890625
    min_value: -2.350630760192871
    scale: 0.018409395590424538
    zero_point: 128
  '@fullconnect_629:out0':
    qtype: u8
    quantizer: asymmetric_affine
    rounding: rtne
    max_value: 6.953468322753906
    min_value: -6.967660903930664
    scale: 0.054592665284872055
    zero_point: 128
  '@reshape_630:out0':
    qtype: u8
    quantizer: asymmetric_affine
    rounding: rtne
    max_value: 6.953468322753906
    min_value: -6.967660903930664
    scale: 0.054592665284872055
    zero_point: 128
  '@reshape_631:out0':
    qtype: u8
    quantizer: asymmetric_affine
    rounding: rtne
    max_value: 7.352800369262695
    min_value: -13.542450904846191
    scale: 0.08194216340780258
    zero_point: 165
  '@fullconnect_632:out0':
    qtype: u8
    quantizer: asymmetric_affine
    rounding: rtne
    max_value: 5.607888221740723
    min_value: -31.6026611328125
    scale: 0.14592371881008148
    zero_point: 217
  '@reshape_633:out0':
    qtype: u8
    quantizer: asymmetric_affine
    rounding: rtne
    max_value: 5.607888221740723
    min_value: -31.6026611328125
    scale: 0.14592371881008148
    zero_point: 217
  '@reshape_634:out0':
    qtype: u8
    quantizer: asymmetric_affine
    rounding: rtne
    max_value: 35.629539489746094
    min_value: -0.16997122764587402
    scale: 0.14039023220539093
    zero_point: 1
  '@fullconnect_635:out0':
    qtype: u8
    quantizer: asymmetric_affine
    rounding: rtne
    max_value: 183.47792053222656
    min_value: -82.1891098022461
    scale: 1.0418314933776855
    zero_point: 79
  '@reshape_636:out0':
    qtype: u8
    quantizer: asymmetric_affine
    rounding: rtne
    max_value: 183.47792053222656
    min_value: -82.1891098022461
    scale: 1.0418314933776855
    zero_point: 79
  '@reshape_637:out0':
    qtype: u8
    quantizer: asymmetric_affine
    rounding: rtne
    max_value: 2.1382412910461426
    min_value: -1.9350199699401855
    scale: 0.015973573550581932
    zero_point: 121
  '@fullconnect_638:out0':
    qtype: u8
    quantizer: asymmetric_affine
    rounding: rtne
    max_value: 1.762593388557434
    min_value: -1.9016858339309692
    scale: 0.014369722455739975
    zero_point: 132
  '@reshape_639:out0':
    qtype: u8
    quantizer: asymmetric_affine
    rounding: rtne
    max_value: 1.762593388557434
    min_value: -1.9016858339309692
    scale: 0.014369722455739975
    zero_point: 132
  '@reshape_640:out0':
    qtype: u8
    quantizer: asymmetric_affine
    rounding: rtne
    max_value: 5.888742446899414
    min_value: -12.495783805847168
    scale: 0.07209617644548416
    zero_point: 173
  '@fullconnect_641:out0':
    qtype: u8
    quantizer: asymmetric_affine
    rounding: rtne
    max_value: 35.629539489746094
    min_value: -29.79486846923828
    scale: 0.2565663158893585
    zero_point: 116
  '@reshape_642:out0':
    qtype: u8
    quantizer: asymmetric_affine
    rounding: rtne
    max_value: 35.629539489746094
    min_value: -29.79486846923828
    scale: 0.2565663158893585
    zero_point: 116
  '@reshape_643:out0':
    qtype: u8
    quantizer: asymmetric_affine
    rounding: rtne
    max_value: 13.994834899902344
    min_value: -12.088314056396484
    scale: 0.10228686034679413
    zero_point: 118
  '@fullconnect_644:out0':
    qtype: u8
    quantizer: asymmetric_affine
    rounding: rtne
    max_value: 3.566725254058838
    min_value: -3.4339070320129395
    scale: 0.027453459799289703
    zero_point: 125
  '@reshape_645:out0':
    qtype: u8
    quantizer: asymmetric_affine
    rounding: rtne
    max_value: 3.566725254058838
    min_value: -3.4339070320129395
    scale: 0.027453459799289703
    zero_point: 125
  '@reshape_646:out0':
    qtype: u8
    quantizer: asymmetric_affine
    rounding: rtne
    max_value: 30.457775115966797
    min_value: -0.16997124254703522
    scale: 0.12010881304740906
    zero_point: 1
  '@fullconnect_647:out0':
    qtype: u8
    quantizer: asymmetric_affine
    rounding: rtne
    max_value: 210.48072814941406
    min_value: -181.92698669433594
    scale: 1.5388537645339966
    zero_point: 118
  '@reshape_648:out0':
    qtype: u8
    quantizer: asymmetric_affine
    rounding: rtne
    max_value: 210.48072814941406
    min_value: -181.92698669433594
    scale: 1.5388537645339966
    zero_point: 118
  '@reshape_649:out0':
    qtype: u8
    quantizer: asymmetric_affine
    rounding: rtne
    max_value: 13.994834899902344
    min_value: -12.088314056396484
    scale: 0.10228686034679413
    zero_point: 118
  '@fullconnect_650:out0':
    qtype: u8
    quantizer: asymmetric_affine
    rounding: rtne
    max_value: 30.500930786132812
    min_value: -30.604816436767578
    scale: 0.23963038623332977
    zero_point: 128
  '@reshape_651:out0':
    qtype: u8
    quantizer: asymmetric_affine
    rounding: rtne
    max_value: 30.500930786132812
    min_value: -30.604816436767578
    scale: 0.23963038623332977
    zero_point: 128
  '@reshape_652:out0':
    qtype: u8
    quantizer: asymmetric_affine
    rounding: rtne
    max_value: 13.994834899902344
    min_value: -12.088314056396484
    scale: 0.10228686034679413
    zero_point: 118
  '@fullconnect_653:out0':
    qtype: u8
    quantizer: asymmetric_affine
    rounding: rtne
    max_value: 180.70835876464844
    min_value: -189.64390563964844
    scale: 1.452361822128296
    zero_point: 131
  '@reshape_654:out0':
    qtype: u8
    quantizer: asymmetric_affine
    rounding: rtne
    max_value: 180.70835876464844
    min_value: -189.64390563964844
    scale: 1.452361822128296
    zero_point: 131
  '@reshape_655:out0':
    qtype: u8
    quantizer: asymmetric_affine
    rounding: rtne
    max_value: 1.3435038328170776
    min_value: -1.4930998086929321
    scale: 0.01112393569201231
    zero_point: 134
  '@fullconnect_656:out0':
    qtype: u8
    quantizer: asymmetric_affine
    rounding: rtne
    max_value: 5.376061916351318
    min_value: -4.368577003479004
    scale: 0.038214270025491714
    zero_point: 114
  '@reshape_657:out0':
    qtype: u8
    quantizer: asymmetric_affine
    rounding: rtne
    max_value: 5.376061916351318
    min_value: -4.368577003479004
    scale: 0.038214270025491714
    zero_point: 114
  '@reshape_658:out0':
    qtype: u8
    quantizer: asymmetric_affine
    rounding: rtne
    max_value: 7.661256313323975
    min_value: -12.621505737304688
    scale: 0.07954024523496628
    zero_point: 159
  '@fullconnect_659:out0':
    qtype: u8
    quantizer: asymmetric_affine
    rounding: rtne
    max_value: 30.457775115966797
    min_value: -13.814384460449219
    scale: 0.17361630499362946
    zero_point: 80
  '@reshape_660:out0':
    qtype: u8
    quantizer: asymmetric_affine
    rounding: rtne
    max_value: 30.457775115966797
    min_value: -13.814384460449219
    scale: 0.17361630499362946
    zero_point: 80
  '@reshape_661:out0':
    qtype: u8
    quantizer: asymmetric_affine
    rounding: rtne
    max_value: 3.693873882293701
    min_value: -3.4745216369628906
    scale: 0.028111355379223824
    zero_point: 124
  '@fullconnect_662:out0':
    qtype: u8
    quantizer: asymmetric_affine
    rounding: rtne
    max_value: 3.5304925441741943
    min_value: -2.933505058288574
    scale: 0.02534901164472103
    zero_point: 116
  '@reshape_663:out0':
    qtype: u8
    quantizer: asymmetric_affine
    rounding: rtne
    max_value: 3.5304925441741943
    min_value: -2.933505058288574
    scale: 0.02534901164472103
    zero_point: 116
  '@reshape_664:out0':
    qtype: u8
    quantizer: asymmetric_affine
    rounding: rtne
    max_value: 9.370491027832031
    min_value: -0.16997124254703522
    scale: 0.0374135784804821
    zero_point: 5
  '@fullconnect_665:out0':
    qtype: u8
    quantizer: asymmetric_affine
    rounding: rtne
    max_value: 310.89703369140625
    min_value: -33.78316879272461
    scale: 1.3516870737075806
    zero_point: 25
  '@reshape_666:out0':
    qtype: u8
    quantizer: asymmetric_affine
    rounding: rtne
    max_value: 310.89703369140625
    min_value: -33.78316879272461
    scale: 1.3516870737075806
    zero_point: 25
  '@reshape_667:out0':
    qtype: u8
    quantizer: asymmetric_affine
    rounding: rtne
    max_value: 3.693873882293701
    min_value: -3.4745216369628906
    scale: 0.028111355379223824
    zero_point: 124
  '@fullconnect_668:out0':
    qtype: u8
    quantizer: asymmetric_affine
    rounding: rtne
    max_value: 18.97290802001953
    min_value: -21.746410369873047
    scale: 0.15968360006809235
    zero_point: 136
  '@reshape_669:out0':
    qtype: u8
    quantizer: asymmetric_affine
    rounding: rtne
    max_value: 18.97290802001953
    min_value: -21.746410369873047
    scale: 0.15968360006809235
    zero_point: 136
  '@reshape_670:out0':
    qtype: u8
    quantizer: asymmetric_affine
    rounding: rtne
    max_value: 3.693873882293701
    min_value: -3.4745216369628906
    scale: 0.028111355379223824
    zero_point: 124
  '@fullconnect_671:out0':
    qtype: u8
    quantizer: asymmetric_affine
    rounding: rtne
    max_value: 7.986999988555908
    min_value: -7.604486465454102
    scale: 0.06114308163523674
    zero_point: 124
  '@reshape_672:out0':
    qtype: u8
    quantizer: asymmetric_affine
    rounding: rtne
    max_value: 7.986999988555908
    min_value: -7.604486465454102
    scale: 0.06114308163523674
    zero_point: 124
  '@reshape_673:out0':
    qtype: u8
    quantizer: asymmetric_affine
    rounding: rtne
    max_value: 1.375687837600708
    min_value: -1.5910186767578125
    scale: 0.011634143069386482
    zero_point: 137
  '@fullconnect_674:out0':
    qtype: u8
    quantizer: asymmetric_affine
    rounding: rtne
    max_value: 4.314083099365234
    min_value: -4.314083099365234
    scale: 0.03383594751358032
    zero_point: 127
  '@reshape_675:out0':
    qtype: u8
    quantizer: asymmetric_affine
    rounding: rtne
    max_value: 4.314083099365234
    min_value: -4.314083099365234
    scale: 0.03383594751358032
    zero_point: 127
  '@reshape_676:out0':
    qtype: u8
    quantizer: asymmetric_affine
    rounding: rtne
    max_value: 9.620734214782715
    min_value: -33.64462661743164
    scale: 0.1696680784225464
    zero_point: 198
  '@fullconnect_677:out0':
    qtype: u8
    quantizer: asymmetric_affine
    rounding: rtne
    max_value: 15.60936164855957
    min_value: -15.60936164855957
    scale: 0.12242636829614639
    zero_point: 128
  '@reshape_678:out0':
    qtype: u8
    quantizer: asymmetric_affine
    rounding: rtne
    max_value: 15.60936164855957
    min_value: -15.60936164855957
    scale: 0.12242636829614639
    zero_point: 128
  '@reshape_679:out0':
    qtype: u8
    quantizer: asymmetric_affine
    rounding: rtne
    max_value: 4.080666542053223
    min_value: -3.177856206893921
    scale: 0.028464796021580696
    zero_point: 112
  '@fullconnect_680:out0':
    qtype: u8
    quantizer: asymmetric_affine
    rounding: rtne
    max_value: 2.3225905895233154
    min_value: -2.3225905895233154
    scale: 0.018216397613286972
    zero_point: 127
  '@reshape_681:out0':
    qtype: u8
    quantizer: asymmetric_affine
    rounding: rtne
    max_value: 2.3225905895233154
    min_value: -2.3225905895233154
    scale: 0.018216397613286972
    zero_point: 127
  '@reshape_682:out0':
    qtype: u8
    quantizer: asymmetric_affine
    rounding: rtne
    max_value: 4.724124908447266
    min_value: -0.16997122764587402
    scale: 0.019192535430192947
    zero_point: 9
  '@fullconnect_683:out0':
    qtype: u8
    quantizer: asymmetric_affine
    rounding: rtne
    max_value: 6.142488956451416
    min_value: -11.44460391998291
    scale: 0.0689689964056015
    zero_point: 166
  '@reshape_684:out0':
    qtype: u8
    quantizer: asymmetric_affine
    rounding: rtne
    max_value: 6.142488956451416
    min_value: -11.44460391998291
    scale: 0.0689689964056015
    zero_point: 166
  '@reshape_685:out0':
    qtype: u8
    quantizer: asymmetric_affine
    rounding: rtne
    max_value: 4.080666542053223
    min_value: -3.177856206893921
    scale: 0.028464796021580696
    zero_point: 112
  '@fullconnect_686:out0':
    qtype: u8
    quantizer: asymmetric_affine
    rounding: rtne
    max_value: 8.595927238464355
    min_value: -7.505475997924805
    scale: 0.06314275413751602
    zero_point: 119
  '@reshape_687:out0':
    qtype: u8
    quantizer: asymmetric_affine
    rounding: rtne
    max_value: 8.595927238464355
    min_value: -7.505475997924805
    scale: 0.06314275413751602
    zero_point: 119
  '@reshape_688:out0':
    qtype: u8
    quantizer: asymmetric_affine
    rounding: rtne
    max_value: 4.080666542053223
    min_value: -3.177856206893921
    scale: 0.028464796021580696
    zero_point: 112
  '@fullconnect_689:out0':
    qtype: u8
    quantizer: asymmetric_affine
    rounding: rtne
    max_value: 5.535898208618164
    min_value: -4.7220659255981445
    scale: 0.04022730886936188
    zero_point: 117
  '@reshape_690:out0':
    qtype: u8
    quantizer: asymmetric_affine
    rounding: rtne
    max_value: 5.535898208618164
    min_value: -4.7220659255981445
    scale: 0.04022730886936188
    zero_point: 117
  '@reshape_691:out0':
    qtype: u8
    quantizer: asymmetric_affine
    rounding: rtne
    max_value: 1.2906949520111084
    min_value: -2.1735427379608154
    scale: 0.013585246168076992
    zero_point: 160
  '@fullconnect_692:out0':
    qtype: u8
    quantizer: asymmetric_affine
    rounding: rtne
    max_value: 3.726076126098633
    min_value: -4.882944107055664
    scale: 0.03376086428761482
    zero_point: 145
  '@reshape_693:out0':
    qtype: u8
    quantizer: asymmetric_affine
    rounding: rtne
    max_value: 3.726076126098633
    min_value: -4.882944107055664
    scale: 0.03376086428761482
    zero_point: 145
  '@reshape_694:out0':
    qtype: u8
    quantizer: asymmetric_affine
    rounding: rtne
    max_value: 7.03165340423584
    min_value: -58.358821868896484
    scale: 0.2564332187175751
    zero_point: 228
  '@fullconnect_695:out0':
    qtype: u8
    quantizer: asymmetric_affine
    rounding: rtne
    max_value: 5.037755966186523
    min_value: -20.841609954833984
    scale: 0.10148771107196808
    zero_point: 205
  '@reshape_696:out0':
    qtype: u8
    quantizer: asymmetric_affine
    rounding: rtne
    max_value: 5.037755966186523
    min_value: -20.841609954833984
    scale: 0.10148771107196808
    zero_point: 205
  '@reshape_697:out0':
    qtype: u8
    quantizer: asymmetric_affine
    rounding: rtne
    max_value: 3.552886962890625
    min_value: -3.0302398204803467
    scale: 0.025816183537244797
    zero_point: 117
  '@fullconnect_698:out0':
    qtype: u8
    quantizer: asymmetric_affine
    rounding: rtne
    max_value: 2.3869667053222656
    min_value: -2.4951367378234863
    scale: 0.019145503640174866
    zero_point: 130
  '@reshape_699:out0':
    qtype: u8
    quantizer: asymmetric_affine
    rounding: rtne
    max_value: 2.3869667053222656
    min_value: -2.4951367378234863
    scale: 0.019145503640174866
    zero_point: 130
  '@reshape_700:out0':
    qtype: u8
    quantizer: asymmetric_affine
    rounding: rtne
    max_value: 4.9372406005859375
    min_value: -0.16997124254703522
    scale: 0.020028281956911087
    zero_point: 8
  '@fullconnect_701:out0':
    qtype: u8
    quantizer: asymmetric_affine
    rounding: rtne
    max_value: 4.153005123138428
    min_value: -14.273091316223145
    scale: 0.07225920259952545
    zero_point: 198
  '@reshape_702:out0':
    qtype: u8
    quantizer: asymmetric_affine
    rounding: rtne
    max_value: 4.153005123138428
    min_value: -14.273091316223145
    scale: 0.07225920259952545
    zero_point: 198
  '@reshape_703:out0':
    qtype: u8
    quantizer: asymmetric_affine
    rounding: rtne
    max_value: 3.552886962890625
    min_value: -3.0302398204803467
    scale: 0.025816183537244797
    zero_point: 117
  '@fullconnect_704:out0':
    qtype: u8
    quantizer: asymmetric_affine
    rounding: rtne
    max_value: 8.685783386230469
    min_value: -9.563340187072754
    scale: 0.0715651884675026
    zero_point: 134
  '@reshape_705:out0':
    qtype: u8
    quantizer: asymmetric_affine
    rounding: rtne
    max_value: 8.685783386230469
    min_value: -9.563340187072754
    scale: 0.0715651884675026
    zero_point: 134
  '@reshape_706:out0':
    qtype: u8
    quantizer: asymmetric_affine
    rounding: rtne
    max_value: 3.552886962890625
    min_value: -3.0302398204803467
    scale: 0.025816183537244797
    zero_point: 117
  '@fullconnect_707:out0':
    qtype: u8
    quantizer: asymmetric_affine
    rounding: rtne
    max_value: 5.401688098907471
    min_value: -5.823086738586426
    scale: 0.04401872679591179
    zero_point: 132
  '@reshape_708:out0':
    qtype: u8
    quantizer: asymmetric_affine
    rounding: rtne
    max_value: 5.401688098907471
    min_value: -5.823086738586426
    scale: 0.04401872679591179
    zero_point: 132
  '@reshape_709:out0':
    qtype: u8
    quantizer: asymmetric_affine
    rounding: rtne
    max_value: 3.3341760635375977
    min_value: -3.336455821990967
    scale: 0.026159340515732765
    zero_point: 128
  '@fullconnect_710:out0':
    qtype: u8
    quantizer: asymmetric_affine
    rounding: rtne
    max_value: 1.889414668083191
    min_value: -9.54887580871582
    scale: 0.04485604166984558
    zero_point: 213
  '@reshape_711:out0':
    qtype: u8
    quantizer: asymmetric_affine
    rounding: rtne
    max_value: 1.889414668083191
    min_value: -9.54887580871582
    scale: 0.04485604166984558
    zero_point: 213
  '@reshape_712:out0':
    qtype: u8
    quantizer: asymmetric_affine
    rounding: rtne
    max_value: 5.688444137573242
    min_value: -45.10539627075195
    scale: 0.19919152557849884
    zero_point: 226
  '@fullconnect_713:out0':
    qtype: u8
    quantizer: asymmetric_affine
    rounding: rtne
    max_value: 5.640987396240234
    min_value: -17.35704803466797
    scale: 0.09018837660551071
    zero_point: 192
  '@reshape_714:out0':
    qtype: u8
    quantizer: asymmetric_affine
    rounding: rtne
    max_value: 5.640987396240234
    min_value: -17.35704803466797
    scale: 0.09018837660551071
    zero_point: 192
  '@reshape_715:out0':
    qtype: u8
    quantizer: asymmetric_affine
    rounding: rtne
    max_value: 3.4101245403289795
    min_value: -2.837524890899658
    scale: 0.024500584229826927
    zero_point: 116
  '@fullconnect_716:out0':
    qtype: u8
    quantizer: asymmetric_affine
    rounding: rtne
    max_value: 2.5608274936676025
    min_value: -2.389432668685913
    scale: 0.01941278576850891
    zero_point: 123
  '@reshape_717:out0':
    qtype: u8
    quantizer: asymmetric_affine
    rounding: rtne
    max_value: 2.5608274936676025
    min_value: -2.389432668685913
    scale: 0.01941278576850891
    zero_point: 123
  '@reshape_718:out0':
    qtype: u8
    quantizer: asymmetric_affine
    rounding: rtne
    max_value: 5.6046295166015625
    min_value: -0.16997122764587402
    scale: 0.02264549396932125
    zero_point: 8
  '@fullconnect_719:out0':
    qtype: u8
    quantizer: asymmetric_affine
    rounding: rtne
    max_value: 19.300844192504883
    min_value: -38.69483947753906
    scale: 0.22743403911590576
    zero_point: 170
  '@reshape_720:out0':
    qtype: u8
    quantizer: asymmetric_affine
    rounding: rtne
    max_value: 19.300844192504883
    min_value: -38.69483947753906
    scale: 0.22743403911590576
    zero_point: 170
  '@reshape_721:out0':
    qtype: u8
    quantizer: asymmetric_affine
    rounding: rtne
    max_value: 3.4101245403289795
    min_value: -2.837524890899658
    scale: 0.024500584229826927
    zero_point: 116
  '@fullconnect_722:out0':
    qtype: u8
    quantizer: asymmetric_affine
    rounding: rtne
    max_value: 5.016225337982178
    min_value: -5.101493835449219
    scale: 0.03967733308672905
    zero_point: 129
  '@reshape_723:out0':
    qtype: u8
    quantizer: asymmetric_affine
    rounding: rtne
    max_value: 5.016225337982178
    min_value: -5.101493835449219
    scale: 0.03967733308672905
    zero_point: 129
  '@reshape_724:out0':
    qtype: u8
    quantizer: asymmetric_affine
    rounding: rtne
    max_value: 3.4101245403289795
    min_value: -2.837524890899658
    scale: 0.024500584229826927
    zero_point: 116
  '@fullconnect_725:out0':
    qtype: u8
    quantizer: asymmetric_affine
    rounding: rtne
    max_value: 5.01864767074585
    min_value: -4.8319196701049805
    scale: 0.038629673421382904
    zero_point: 125
  '@reshape_726:out0':
    qtype: u8
    quantizer: asymmetric_affine
    rounding: rtne
    max_value: 5.01864767074585
    min_value: -4.8319196701049805
    scale: 0.038629673421382904
    zero_point: 125
  '@reshape_727:out0':
    qtype: u8
    quantizer: asymmetric_affine
    rounding: rtne
    max_value: 3.2098548412323
    min_value: -1.7794936895370483
    scale: 0.019566072151064873
    zero_point: 91
  '@fullconnect_728:out0':
    qtype: u8
    quantizer: asymmetric_affine
    rounding: rtne
    max_value: 4.374322891235352
    min_value: -9.250531196594238
    scale: 0.05343079939484596
    zero_point: 173
  '@reshape_729:out0':
    qtype: u8
    quantizer: asymmetric_affine
    rounding: rtne
    max_value: 4.374322891235352
    min_value: -9.250531196594238
    scale: 0.05343079939484596
    zero_point: 173
  '@reshape_730:out0':
    qtype: u8
    quantizer: asymmetric_affine
    rounding: rtne
    max_value: 5.911116123199463
    min_value: -43.460330963134766
    scale: 0.19361352920532227
    zero_point: 224
  '@fullconnect_731:out0':
    qtype: u8
    quantizer: asymmetric_affine
    rounding: rtne
    max_value: 6.895933628082275
    min_value: -15.031633377075195
    scale: 0.08599045872688293
    zero_point: 175
  '@reshape_732:out0':
    qtype: u8
    quantizer: asymmetric_affine
    rounding: rtne
    max_value: 6.895933628082275
    min_value: -15.031633377075195
    scale: 0.08599045872688293
    zero_point: 175
  '@reshape_733:out0':
    qtype: u8
    quantizer: asymmetric_affine
    rounding: rtne
    max_value: 3.4041576385498047
    min_value: -2.8421781063079834
    scale: 0.024495435878634453
