# !!!This file disallow TABs!!!
version: 2
quantize_parameters:
  '@attach_Add_/encoder_proj/Add/out0_0:out0':
    qtype: u8
    quantizer: asymmetric_affine
    rounding: rtne
    max_value: 1.458914041519165
    min_value: -1.2197932004928589
    scale: 0.01050473377108574
    zero_point: 116
  '@Transpose_/Transpose_181_4:out0':
    qtype: u8
    quantizer: asymmetric_affine
    rounding: rtne
    max_value: 0.12637169659137726
    min_value: -0.14842809736728668
    scale: 0.001077646273188293
    zero_point: 138
  '@ReduceSum_/downsample_output/ReduceSum_1_6:out0':
    qtype: u8
    quantizer: asymmetric_affine
    rounding: rtne
    max_value: 0.12637169659137726
    min_value: -0.14842809736728668
    scale: 0.001077646273188293
    zero_point: 138
  '@Mul_/downsample_output/Mul_1_7:out0':
    qtype: u8
    quantizer: asymmetric_affine
    rounding: rtne
    max_value: 0.12622113525867462
    min_value: -0.1482369750738144
    scale: 0.001076306332834065
    zero_point: 138
  '@Reshape_/downsample_output/Reshape_8:out0':
    qtype: u8
    quantizer: asymmetric_affine
    rounding: rtne
    max_value: 0.1486859917640686
    min_value: -0.1566576361656189
    scale: 0.0011974259978160262
    zero_point: 131
  '@Softmax_/downsample_output/Softmax_9:out0':
    qtype: u8
    quantizer: asymmetric_affine
    rounding: rtne
    max_value: 0.9987800717353821
    min_value: 0.0
    scale: 0.003916784655302763
    zero_point: 0
  '@Add_/out_combiner_3/Add_10:out0':
    qtype: u8
    quantizer: asymmetric_affine
    rounding: rtne
    max_value: 0.1486859917640686
    min_value: -0.1566576361656189
    scale: 0.0011974259978160262
    zero_point: 131
  '@Mul_/out_combiner_3/Mul_12:out0':
    qtype: u8
    quantizer: asymmetric_affine
    rounding: rtne
    max_value: 0.00020591334032360464
    min_value: -0.00025187525898218155
    scale: 1.7952493180928286e-06
    zero_point: 140
  '@Mul_/out_combiner_3/Mul_1_13:out0':
    qtype: u8
    quantizer: asymmetric_affine
    rounding: rtne
    max_value: 0.1487312614917755
    min_value: -0.15662378072738647
    scale: 0.0011974707012996078
    zero_point: 131
  '@Mul_/downsample_output/Mul_14:out0':
    qtype: u8
    quantizer: asymmetric_affine
    rounding: rtne
    max_value: 0.27101531624794006
    min_value: -0.350423663854599
    scale: 0.0024370155297219753
    zero_point: 144
  '@Add_/skip_modules.4/Add_15:out0':
    qtype: u8
    quantizer: asymmetric_affine
    rounding: rtne
    max_value: 0.12011904269456863
    min_value: -0.09819984436035156
    scale: 0.0008561524446122348
    zero_point: 115
  '@Initializer_encoder.encoders.4.out_combiner.weight1_16:out0':
    qtype: u8
    quantizer: asymmetric_affine
    rounding: rtne
    max_value: 0.0
    min_value: -0.0020968804601579905
    scale: 8.223060831369366e-06
    zero_point: 255
  '@Slice_/Slice_138_17:out0':
    qtype: u8
    quantizer: asymmetric_affine
    rounding: rtne
    max_value: 0.1484200358390808
    min_value: -0.156296044588089
    scale: 0.0011949649779126048
    zero_point: 131
  '@Initializer_onnx//Mul_7490_18:out0':
    qtype: u8
    quantizer: asymmetric_affine
    rounding: rtne
    max_value: 1.0020968914031982
    min_value: 0.0
    scale: 0.003929791506379843
    zero_point: 0
  '@Reshape_/upsample_3/Reshape_1_19:out0':
    qtype: u8
    quantizer: asymmetric_affine
    rounding: rtne
    max_value: 0.1484200358390808
    min_value: -0.156296044588089
    scale: 0.0011949649779126048
    zero_point: 131
  '@Initializer_encoder.downsample_output.query_20:out0':
    qtype: u8
    quantizer: asymmetric_affine
    rounding: rtne
    max_value: 3.319545269012451
    min_value: -3.951833724975586
    scale: 0.02851521223783493
    zero_point: 139
  '@Mul_/skip_modules.4/Mul_21:out0':
    qtype: u8
    quantizer: asymmetric_affine
    rounding: rtne
    max_value: 0.0003528926754370332
    min_value: -0.00033959432039409876
    scale: 2.7156352189194876e-06
    zero_point: 125
  '@Mul_/skip_modules.4/Mul_1_22:out0':
    qtype: u8
    quantizer: asymmetric_affine
    rounding: rtne
    max_value: 0.11977852880954742
    min_value: -0.09786024689674377
    scale: 0.0008534853695891798
    zero_point: 115
  '@Add_/upsample_3/Add_23:out0':
    qtype: u8
    quantizer: asymmetric_affine
    rounding: rtne
    max_value: 0.1484200358390808
    min_value: -0.156296044588089
    scale: 0.0011949649779126048
    zero_point: 131
  '@Add_/out_combiner/Add_24:out0':
    qtype: u8
    quantizer: asymmetric_affine
    rounding: rtne
    max_value: 0.15731555223464966
    min_value: -0.1513872891664505
    scale: 0.0012105993228033185
    zero_point: 125
  '@Initializer_encoder.skip_modules.4.weight1_25:out0':
    qtype: u8
    quantizer: asymmetric_affine
    rounding: rtne
    max_value: 0.002243215451017022
    min_value: 0.0
    scale: 8.796922884357627e-06
    zero_point: 0
  '@Add_/out_combiner_2/Add_26:out0':
    qtype: u8
    quantizer: asymmetric_affine
    rounding: rtne
    max_value: 0.12004782259464264
    min_value: -0.09808026254177094
    scale: 0.0008554042433388531
    zero_point: 115
  '@Initializer_onnx//Mul_7343_27:out0':
    qtype: u8
    quantizer: asymmetric_affine
    rounding: rtne
    max_value: 0.9977567791938782
    min_value: 0.0
    scale: 0.003912771586328745
    zero_point: 0
  '@Expand_/upsample_3/Expand_28:out0':
    qtype: u8
    quantizer: asymmetric_affine
    rounding: rtne
    max_value: 0.13717208802700043
    min_value: -0.10955483466386795
    scale: 0.0009675566107034683
    zero_point: 113
  '@Mul_/out_combiner/Mul_30:out0':
    qtype: u8
    quantizer: asymmetric_affine
    rounding: rtne
    max_value: 0.004993738140910864
    min_value: -0.006666046567261219
    scale: 4.572464240482077e-05
    zero_point: 146
  '@Mul_/out_combiner/Mul_1_31:out0':
    qtype: u8
    quantizer: asymmetric_affine
    rounding: rtne
    max_value: 0.1587885171175003
    min_value: -0.15100108087062836
    scale: 0.0012148611713200808
    zero_point: 124
  '@Mul_/out_combiner_2/Mul_32:out0':
    qtype: u8
    quantizer: asymmetric_affine
    rounding: rtne
    max_value: 0.0725456103682518
    min_value: -0.06772417575120926
    scale: 0.0005500775878317654
    zero_point: 123
  '@Mul_/out_combiner_2/Mul_1_33:out0':
    qtype: u8
    quantizer: asymmetric_affine
    rounding: rtne
    max_value: 0.05952465161681175
    min_value: -0.0537288598716259
    scale: 0.0004441314085852355
    zero_point: 121
  '@Unsqueeze_/upsample_3/Unsqueeze_34:out0':
    qtype: u8
    quantizer: asymmetric_affine
    rounding: rtne
    max_value: 0.13717208802700043
    min_value: -0.10955483466386795
    scale: 0.0009675566107034683
    zero_point: 113
  '@Add_/Add_35_35:out0':
    qtype: u8
    quantizer: asymmetric_affine
    rounding: rtne
    max_value: 0.706839919090271
    min_value: -0.529515266418457
    scale: 0.004848451819270849
    zero_point: 109
  '@Initializer_encoder.encoders.1.out_combiner.weight1_36:out0':
    qtype: u8
    quantizer: asymmetric_affine
    rounding: rtne
    max_value: 0.0
    min_value: -0.009430772624909878
    scale: 3.698342334246262e-05
    zero_point: 255
  '@Slice_/Slice_54_37:out0':
    qtype: u8
    quantizer: asymmetric_affine
    rounding: rtne
    max_value: 0.1573050171136856
    min_value: -0.14959032833576202
    scale: 0.001203511143103242
    zero_point: 124
  '@Initializer_onnx//Mul_7153_38:out0':
    qtype: u8
    quantizer: asymmetric_affine
    rounding: rtne
    max_value: 1.0094307661056519
    min_value: 0.0
    scale: 0.003958552144467831
    zero_point: 0
  '@Add_/out_combiner_1/Add_39:out0':
    qtype: u8
    quantizer: asymmetric_affine
    rounding: rtne
    max_value: 0.10931852459907532
    min_value: -0.10205314308404922
    scale: 0.0008289084653370082
    zero_point: 123
  '@Initializer_encoder.encoders.3.out_combiner.weight1_40:out0':
    qtype: u8
    quantizer: asymmetric_affine
    rounding: rtne
    max_value: 0.6636167764663696
    min_value: 0.0
    scale: 0.002602418651804328
    zero_point: 0
  '@Slice_/Slice_101_41:out0':
    qtype: u8
    quantizer: asymmetric_affine
    rounding: rtne
    max_value: 0.17695488035678864
    min_value: -0.1597251445055008
    scale: 0.001320313778705895
    zero_point: 121
  '@Initializer_onnx//Mul_7342_42:out0':
    qtype: u8
    quantizer: asymmetric_affine
    rounding: rtne
    max_value: 0.33638322353363037
    min_value: 0.0
    scale: 0.0013191498583182693
    zero_point: 0
  '@Add_/Add_269_43:out0':
    qtype: u8
    quantizer: asymmetric_affine
    rounding: rtne
    max_value: 0.13717208802700043
    min_value: -0.10955483466386795
    scale: 0.0009675566107034683
    zero_point: 113
  '@Add_/Add_17_44:out0':
    qtype: u8
    quantizer: asymmetric_affine
    rounding: rtne
    max_value: 0.6663579940795898
    min_value: -0.6493826508522034
    scale: 0.0051597668789327145
    zero_point: 126
  '@Mul_/Mul_21_45:out0':
    qtype: u8
    quantizer: asymmetric_affine
    rounding: rtne
    max_value: 0.27523869276046753
    min_value: -0.2595234513282776
    scale: 0.0020971065387129784
    zero_point: 124
  '@Reshape_/upsample/Reshape_1_46:out0':
    qtype: u8
    quantizer: asymmetric_affine
    rounding: rtne
    max_value: 0.1573050171136856
    min_value: -0.14959032833576202
    scale: 0.001203511143103242
    zero_point: 124
  '@Mul_/out_combiner_1/Mul_47:out0':
    qtype: u8
    quantizer: asymmetric_affine
    rounding: rtne
    max_value: 0.06217220053076744
    min_value: -0.059829309582710266
    scale: 0.0004784373159054667
    zero_point: 125
  '@Mul_/out_combiner_1/Mul_1_48:out0':
    qtype: u8
    quantizer: asymmetric_affine
    rounding: rtne
    max_value: 0.04714632406830788
    min_value: -0.04941564053297043
    scale: 0.0003786743909586221
    zero_point: 130
  '@Reshape_/upsample_2/Reshape_1_49:out0':
    qtype: u8
    quantizer: asymmetric_affine
    rounding: rtne
    max_value: 0.17695488035678864
    min_value: -0.1597251445055008
    scale: 0.001320313778705895
    zero_point: 121
  '@Add_/Add_251_50:out0':
    qtype: u8
    quantizer: asymmetric_affine
    rounding: rtne
    max_value: 0.15192103385925293
    min_value: -0.11162803322076797
    scale: 0.0010335256811231375
    zero_point: 108
  '@Mul_/Mul_164_51:out0':
    qtype: u8
    quantizer: asymmetric_affine
    rounding: rtne
    max_value: 0.08323423564434052
    min_value: -0.09519097208976746
    scale: 0.000699706724844873
    zero_point: 136
  '@Transpose_/Transpose_52:out0':
    qtype: u8
    quantizer: asymmetric_affine
    rounding: rtne
    max_value: 0.533036470413208
    min_value: -0.67621910572052
    scale: 0.004742178600281477
    zero_point: 143
  '@Mul_/Mul_10_53:out0':
    qtype: u8
    quantizer: asymmetric_affine
    rounding: rtne
    max_value: 0.4142284095287323
    min_value: -0.4075651466846466
    scale: 0.0032227197661995888
    zero_point: 126
  '@Sub_/Sub_5_54:out0':
    qtype: u8
    quantizer: asymmetric_affine
    rounding: rtne
    max_value: 0.3435240089893341
    min_value: -0.3239098787307739
    scale: 0.002617387566715479
    zero_point: 124
  '@Initializer_encoder.encoders.0.layers.1.bypass_scale_55:out0':
    qtype: u8
    quantizer: asymmetric_affine
    rounding: rtne
    max_value: 0.8012211322784424
    min_value: 0.0
    scale: 0.0031420437153428793
    zero_point: 0
  '@Add_/upsample/Add_56:out0':
    qtype: u8
    quantizer: asymmetric_affine
    rounding: rtne
    max_value: 0.1573050171136856
    min_value: -0.14959032833576202
    scale: 0.001203511143103242
    zero_point: 124
  '@Initializer_encoder.encoders.2.out_combiner.weight1_58:out0':
    qtype: u8
    quantizer: asymmetric_affine
    rounding: rtne
    max_value: 0.3952069580554962
    min_value: 0.0
    scale: 0.00154983124230057
    zero_point: 0
  '@Slice_/Slice_82_59:out0':
    qtype: u8
    quantizer: asymmetric_affine
    rounding: rtne
    max_value: 0.07795447111129761
    min_value: -0.0817066878080368
    scale: 0.0006261221715249121
    zero_point: 130
  '@Initializer_onnx//Mul_7265_60:out0':
    qtype: u8
    quantizer: asymmetric_affine
    rounding: rtne
    max_value: 0.6047930717468262
    min_value: 0.0
    scale: 0.002371737500652671
    zero_point: 0
  '@Add_/upsample_2/Add_61:out0':
    qtype: u8
    quantizer: asymmetric_affine
    rounding: rtne
    max_value: 0.17695488035678864
    min_value: -0.1597251445055008
    scale: 0.001320313778705895
    zero_point: 121
  '@Add_/Add_233_62:out0':
    qtype: u8
    quantizer: asymmetric_affine
    rounding: rtne
    max_value: 0.14564073085784912
    min_value: -0.10270951688289642
    scale: 0.0009739225497469306
    zero_point: 105
  '@Mul_/Mul_153_63:out0':
    qtype: u8
    quantizer: asymmetric_affine
    rounding: rtne
    max_value: 0.0693875327706337
    min_value: -0.07235866785049438
    scale: 0.0005558674456551671
    zero_point: 130
  '@Sub_/Sub_44_64:out0':
    qtype: u8
    quantizer: asymmetric_affine
    rounding: rtne
    max_value: 0.1987847536802292
    min_value: -0.22734051942825317
    scale: 0.00167107954621315
    zero_point: 136
  '@Initializer_encoder.encoders.4.encoder.layers.3.bypass_scale_65:out0':
    qtype: u8
    quantizer: asymmetric_affine
    rounding: rtne
    max_value: 0.41871538758277893
    min_value: 0.0
    scale: 0.0016420211177319288
    zero_point: 0
  '@Sub_/Sub_2_67:out0':
    qtype: u8
    quantizer: asymmetric_affine
    rounding: rtne
    max_value: 0.690608024597168
    min_value: -0.6794989109039307
    scale: 0.005372968502342701
    zero_point: 126
  '@Initializer_encoder.encoders.0.layers.0.bypass_scale_68:out0':
    qtype: u8
    quantizer: asymmetric_affine
    rounding: rtne
    max_value: 0.5998024940490723
    min_value: 0.0
    scale: 0.002352166688069701
    zero_point: 0
  '@Mul_/norm_final_1/Mul_1_69:out0':
    qtype: u8
    quantizer: asymmetric_affine
    rounding: rtne
    max_value: 0.7299884557723999
    min_value: -0.4997767508029938
    scale: 0.004822608549147844
    zero_point: 104
  '@Pow_/norm_final_1/Pow_70:out0':
    qtype: u8
    quantizer: asymmetric_affine
    rounding: rtne
    max_value: 0.3660682141780853
    min_value: 0.0
    scale: 0.0014355615712702274
    zero_point: 0
  '@Expand_/upsample/Expand_71:out0':
    qtype: u8
    quantizer: asymmetric_affine
    rounding: rtne
    max_value: 0.14301128685474396
    min_value: -0.15846551954746246
    scale: 0.0011822619708254933
    zero_point: 134
  '@Reshape_/upsample_1/Reshape_1_72:out0':
    qtype: u8
    quantizer: asymmetric_affine
    rounding: rtne
    max_value: 0.07795447111129761
    min_value: -0.0817066878080368
    scale: 0.0006261221715249121
    zero_point: 130
  '@Expand_/upsample_2/Expand_73:out0':
    qtype: u8
    quantizer: asymmetric_affine
    rounding: rtne
    max_value: 0.0898997038602829
    min_value: -0.07565507292747498
    scale: 0.0006492343964055181
    zero_point: 117
  '@Add_/Add_215_75:out0':
    qtype: u8
    quantizer: asymmetric_affine
    rounding: rtne
    max_value: 0.12495537102222443
    min_value: -0.10242827981710434
    scale: 0.0008917005616240203
    zero_point: 115
  '@Mul_/Mul_142_76:out0':
    qtype: u8
    quantizer: asymmetric_affine
    rounding: rtne
    max_value: 0.05493595078587532
    min_value: -0.0559089221060276
    scale: 0.000434685789514333
    zero_point: 129
  '@Sub_/Sub_41_77:out0':
    qtype: u8
    quantizer: asymmetric_affine
    rounding: rtne
    max_value: 0.17937476933002472
    min_value: -0.18705549836158752
    scale: 0.0014369814889505506
    zero_point: 130
  '@Initializer_encoder.encoders.4.encoder.layers.2.bypass_scale_78:out0':
    qtype: u8
    quantizer: asymmetric_affine
    rounding: rtne
    max_value: 0.3868299424648285
    min_value: 0.0
    scale: 0.001516980119049549
    zero_point: 0
  '@Mul_/norm_final_14/Mul_1_79:out0':
    qtype: u8
    quantizer: asymmetric_affine
    rounding: rtne
    max_value: 0.18173512816429138
    min_value: -0.2031911462545395
    scale: 0.0015095147537067533
    zero_point: 135
  '@Pow_/norm_final_14/Pow_80:out0':
    qtype: u8
    quantizer: asymmetric_affine
    rounding: rtne
    max_value: 0.4178275763988495
    min_value: 0.0
    scale: 0.0016385394847020507
    zero_point: 0
  '@Mul_/norm_final/Mul_1_83:out0':
    qtype: u8
    quantizer: asymmetric_affine
    rounding: rtne
    max_value: 0.7683734893798828
    min_value: -0.6314769983291626
    scale: 0.00548960966989398
    zero_point: 115
  '@Pow_/norm_final/Pow_84:out0':
    qtype: u8
    quantizer: asymmetric_affine
    rounding: rtne
    max_value: 0.527569591999054
    min_value: 0.0
    scale: 0.0020689002703875303
    zero_point: 0
  '@Add_/Add_34_85:out0':
    qtype: u8
    quantizer: asymmetric_affine
    rounding: rtne
    max_value: 2.0040926933288574
    min_value: -1.372075080871582
    scale: 0.013239873573184013
    zero_point: 104
  '@Add_/norm_final_1/Add_86:out0':
    qtype: u8
    quantizer: asymmetric_affine
    rounding: rtne
    max_value: 7.537088394165039
    min_value: 0.0
    scale: 0.029557209461927414
    zero_point: 0
  '@Unsqueeze_/upsample/Unsqueeze_88:out0':
    qtype: u8
    quantizer: asymmetric_affine
    rounding: rtne
    max_value: 0.14301128685474396
    min_value: -0.15846551954746246
    scale: 0.0011822619708254933
    zero_point: 134
  '@Add_/upsample_1/Add_89:out0':
    qtype: u8
    quantizer: asymmetric_affine
    rounding: rtne
    max_value: 0.07795447111129761
    min_value: -0.0817066878080368
    scale: 0.0006261221715249121
    zero_point: 130
  '@Unsqueeze_/upsample_2/Unsqueeze_90:out0':
    qtype: u8
    quantizer: asymmetric_affine
    rounding: rtne
    max_value: 0.0898997038602829
    min_value: -0.07565507292747498
    scale: 0.0006492343964055181
    zero_point: 117
  '@ReduceSum_/downsample_3/ReduceSum_1_91:out0':
    qtype: u8
    quantizer: asymmetric_affine
    rounding: rtne
    max_value: 0.0960487574338913
    min_value: -0.09819444268941879
    scale: 0.0007617379887960851
    zero_point: 129
  '@Mul_/Mul_131_92:out0':
    qtype: u8
    quantizer: asymmetric_affine
    rounding: rtne
    max_value: 0.1033821702003479
    min_value: -0.08723626285791397
    scale: 0.0007475232123397291
    zero_point: 117
  '@Sub_/Sub_38_93:out0':
    qtype: u8
    quantizer: asymmetric_affine
    rounding: rtne
    max_value: 0.19481150805950165
    min_value: -0.1982618123292923
    scale: 0.001541464007459581
    zero_point: 129
  '@Initializer_encoder.encoders.4.encoder.layers.1.bypass_scale_94:out0':
    qtype: u8
    quantizer: asymmetric_affine
    rounding: rtne
    max_value: 0.28199541568756104
    min_value: 0.0
    scale: 0.0011058644158765674
    zero_point: 0
  '@Mul_/norm_final_13/Mul_1_95:out0':
    qtype: u8
    quantizer: asymmetric_affine
    rounding: rtne
    max_value: 0.207683265209198
    min_value: -0.16594751179218292
    scale: 0.0014652187237516046
    zero_point: 113
  '@Pow_/norm_final_13/Pow_96:out0':
    qtype: u8
    quantizer: asymmetric_affine
    rounding: rtne
    max_value: 0.4850563704967499
    min_value: 0.0
    scale: 0.001902181887999177
    zero_point: 0
  '@Add_/Add_268_97:out0':
    qtype: u8
    quantizer: asymmetric_affine
    rounding: rtne
    max_value: 0.4350847601890564
    min_value: -0.48686695098876953
    scale: 0.003615496912971139
    zero_point: 135
  '@Add_/norm_final_14/Add_98:out0':
    qtype: u8
    quantizer: asymmetric_affine
    rounding: rtne
    max_value: 5.741310119628906
    min_value: 0.0
    scale: 0.022514941170811653
    zero_point: 0
  '@Reshape_/encoder_embed/Reshape_100:out0':
    qtype: u8
    quantizer: asymmetric_affine
    rounding: rtne
    max_value: 11.302330017089844
    min_value: -0.12002825736999512
    scale: 0.04479356110095978
    zero_point: 3
  '@Add_/Add_16_102:out0':
    qtype: u8
    quantizer: asymmetric_affine
    rounding: rtne
    max_value: 1.4686415195465088
    min_value: -1.207565188407898
    scale: 0.010494927875697613
    zero_point: 115
  '@Add_/norm_final/Add_103:out0':
    qtype: u8
    quantizer: asymmetric_affine
    rounding: rtne
    max_value: 3.6568410396575928
    min_value: 0.0
    scale: 0.014340553432703018
    zero_point: 0
  '@Add_/Add_33_105:out0':
    qtype: u8
    quantizer: asymmetric_affine
    rounding: rtne
    max_value: 1.7684454917907715
    min_value: -1.3299524784088135
    scale: 0.012150580063462257
    zero_point: 109
  '@Add_/Add_107_109:out0':
    qtype: u8
    quantizer: asymmetric_affine
    rounding: rtne
    max_value: 0.14301128685474396
    min_value: -0.15846551954746246
    scale: 0.0011822619708254933
    zero_point: 134
  '@Expand_/upsample_1/Expand_110:out0':
    qtype: u8
    quantizer: asymmetric_affine
    rounding: rtne
    max_value: 0.07065645605325699
    min_value: -0.07372590899467468
    scale: 0.0005662053008563817
    zero_point: 130
  '@Add_/Add_197_112:out0':
    qtype: u8
    quantizer: asymmetric_affine
    rounding: rtne
    max_value: 0.0898997038602829
    min_value: -0.07565507292747498
    scale: 0.0006492343964055181
    zero_point: 117
  '@Mul_/downsample_3/Mul_1_113:out0':
    qtype: u8
    quantizer: asymmetric_affine
    rounding: rtne
    max_value: 0.09567835927009583
    min_value: -0.0978623554110527
    scale: 0.0007589832530356944
    zero_point: 129
  '@Sub_/Sub_35_114:out0':
    qtype: u8
    quantizer: asymmetric_affine
    rounding: rtne
    max_value: 0.37306609749794006
    min_value: -0.31480178236961365
    scale: 0.002697521122172475
    zero_point: 117
  '@Initializer_encoder.encoders.4.encoder.layers.0.bypass_scale_115:out0':
    qtype: u8
    quantizer: asymmetric_affine
    rounding: rtne
    max_value: 0.2771148979663849
    min_value: 0.0
    scale: 0.0010867250384762883
    zero_point: 0
  '@Mul_/norm_final_12/Mul_1_116:out0':
    qtype: u8
    quantizer: asymmetric_affine
    rounding: rtne
    max_value: 0.19830888509750366
    min_value: -0.1811748445034027
    scale: 0.0014881715178489685
    zero_point: 122
  '@Pow_/norm_final_12/Pow_117:out0':
    qtype: u8
    quantizer: asymmetric_affine
    rounding: rtne
    max_value: 0.48489874601364136
    min_value: 0.0
    scale: 0.001901563722640276
    zero_point: 0
  '@Add_/Add_250_118:out0':
    qtype: u8
    quantizer: asymmetric_affine
    rounding: rtne
    max_value: 0.4284244179725647
    min_value: -0.34229543805122375
    scale: 0.003022430930286646
    zero_point: 113
  '@Add_/norm_final_13/Add_119:out0':
    qtype: u8
    quantizer: asymmetric_affine
    rounding: rtne
    max_value: 4.262146472930908
    min_value: 0.0
    scale: 0.016714299097657204
    zero_point: 0
  '@Add_/Add_267_121:out0':
    qtype: u8
    quantizer: asymmetric_affine
    rounding: rtne
    max_value: 0.20372015237808228
    min_value: -0.19570618867874146
    scale: 0.0015663778176531196
    zero_point: 125
  '@Transpose_/encoder_embed/Transpose_125:out0':
    qtype: u8
    quantizer: asymmetric_affine
    rounding: rtne
    max_value: 11.302330017089844
    min_value: -0.12002825736999512
    scale: 0.04479356110095978
    zero_point: 3
  '@Add_/Add_15_126:out0':
    qtype: u8
    quantizer: asymmetric_affine
    rounding: rtne
    max_value: 1.2531802654266357
    min_value: -1.1451448202133179
    scale: 0.009405195713043213
    zero_point: 122
  '@Add_/Add_32_130:out0':
    qtype: u8
    quantizer: asymmetric_affine
    rounding: rtne
    max_value: 1.3094531297683716
    min_value: -1.156736135482788
    scale: 0.009671331383287907
    zero_point: 120
  '@Transpose_/Transpose_24_131:out0':
    qtype: u8
    quantizer: asymmetric_affine
    rounding: rtne
    max_value: 0.4759606420993805
    min_value: -0.35020628571510315
    scale: 0.0032398703042417765
    zero_point: 108
  '@Mul_/norm_final_1/Mul_134:out0':
    qtype: u8
    quantizer: asymmetric_affine
    rounding: rtne
    max_value: 4.016387462615967
    min_value: 0.0
    scale: 0.015750538557767868
    zero_point: 0
  '@Add_/Add_89_135:out0':
    qtype: u8
    quantizer: asymmetric_affine
    rounding: rtne
    max_value: 0.23424313962459564
    min_value: -0.179846853017807
    scale: 0.0016238822136074305
    zero_point: 111
  '@Mul_/Mul_65_136:out0':
    qtype: u8
    quantizer: asymmetric_affine
    rounding: rtne
    max_value: 0.10458066314458847
    min_value: -0.10577181726694107
    scale: 0.0008249116945080459
    zero_point: 128
  '@Unsqueeze_/upsample_1/Unsqueeze_137:out0':
    qtype: u8
    quantizer: asymmetric_affine
    rounding: rtne
    max_value: 0.07065645605325699
    min_value: -0.07372590899467468
    scale: 0.0005662053008563817
    zero_point: 130
  '@Add_/Add_179_138:out0':
    qtype: u8
    quantizer: asymmetric_affine
    rounding: rtne
    max_value: 0.07700981199741364
    min_value: -0.07203817367553711
    scale: 0.0005845018895342946
    zero_point: 123
  '@Mul_/Mul_120_139:out0':
    qtype: u8
    quantizer: asymmetric_affine
    rounding: rtne
    max_value: 0.0647604689002037
    min_value: -0.055156998336315155
    scale: 0.0004702645819634199
    zero_point: 117
  '@Reshape_/downsample_3/Reshape_140:out0':
    qtype: u8
    quantizer: asymmetric_affine
    rounding: rtne
    max_value: 0.12011904269456863
    min_value: -0.09819984436035156
    scale: 0.0008561524446122348
    zero_point: 115
  '@Softmax_/downsample_3/Softmax_141:out0':
    qtype: u8
    quantizer: asymmetric_affine
    rounding: rtne
    max_value: 0.9965678453445435
    min_value: 0.0
    scale: 0.00390810938552022
    zero_point: 0
  '@Mul_/norm_final_11/Mul_1_142:out0':
    qtype: u8
    quantizer: asymmetric_affine
    rounding: rtne
    max_value: 0.3496454358100891
    min_value: -0.3040511906147003
    scale: 0.002563516376540065
    zero_point: 119
  '@Pow_/norm_final_11/Pow_143:out0':
    qtype: u8
    quantizer: asymmetric_affine
    rounding: rtne
    max_value: 0.5125959515571594
    min_value: 0.0
    scale: 0.0020101801492273808
    zero_point: 0
  '@Add_/Add_232_144:out0':
    qtype: u8
    quantizer: asymmetric_affine
    rounding: rtne
    max_value: 0.4096766710281372
    min_value: -0.37428027391433716
    scale: 0.0030743409879505634
    zero_point: 122
  '@Add_/norm_final_12/Add_145:out0':
    qtype: u8
    quantizer: asymmetric_affine
    rounding: rtne
    max_value: 4.2677412033081055
    min_value: 0.0
    scale: 0.016736239194869995
    zero_point: 0
  '@Add_/Add_249_147:out0':
    qtype: u8
    quantizer: asymmetric_affine
    rounding: rtne
    max_value: 0.22522111237049103
    min_value: -0.2768688201904297
    scale: 0.0019689800683408976
    zero_point: 141
  '@Add_/Add_266_151:out0':
    qtype: u8
    quantizer: asymmetric_affine
    rounding: rtne
    max_value: 0.1707780659198761
    min_value: -0.18608954548835754
    scale: 0.0013994808541610837
    zero_point: 133
  '@Transpose_/Transpose_180_152:out0':
    qtype: u8
    quantizer: asymmetric_affine
    rounding: rtne
    max_value: 0.14392206072807312
    min_value: -0.14404430985450745
    scale: 0.0011292798444628716
    zero_point: 128
  '@Mul_/norm_final_14/Mul_155:out0':
    qtype: u8
    quantizer: asymmetric_affine
    rounding: rtne
    max_value: 0.23703943192958832
    min_value: 0.0
    scale: 0.0009295663912780583
    zero_point: 0
  '@Mul_/encoder_embed/conv/conv.8/Mul_156:out0':
    qtype: u8
    quantizer: asymmetric_affine
    rounding: rtne
    max_value: 11.302330017089844
    min_value: -0.12002825736999512
    scale: 0.04479356110095978
    zero_point: 3
  '@Add_/Add_14_157:out0':
    qtype: u8
    quantizer: asymmetric_affine
    rounding: rtne
    max_value: 1.1749262809753418
    min_value: -1.1784414052963257
    scale: 0.009228893555700779
    zero_point: 128
  '@Transpose_/Transpose_12_158:out0':
    qtype: u8
    quantizer: asymmetric_affine
    rounding: rtne
    max_value: 0.4786774814128876
    min_value: -0.39293724298477173
    scale: 0.0034180968068540096
    zero_point: 115
  '@Mul_/norm_final/Mul_161:out0':
    qtype: u8
    quantizer: asymmetric_affine
    rounding: rtne
    max_value: 2.156907796859741
    min_value: 0.0
    scale: 0.008458461612462997
    zero_point: 0
  '@Add_/Add_30_162:out0':
    qtype: u8
    quantizer: asymmetric_affine
    rounding: rtne
    max_value: 1.1404824256896973
    min_value: -0.8294349908828735
    scale: 0.007725166156888008
    zero_point: 107
  '@Conv_/pointwise_conv2_3/Conv_164:out0':
    qtype: u8
    quantizer: asymmetric_affine
    rounding: rtne
    max_value: 0.4759606420993805
    min_value: -0.35020628571510315
    scale: 0.0032398703042417765
    zero_point: 108
  '@Mul_/feed_forward3/activation_1/Mul_165:out0':
    qtype: u8
    quantizer: asymmetric_affine
    rounding: rtne
    max_value: 5.1313557624816895
    min_value: -0.12002824246883392
    scale: 0.020593661814928055
    zero_point: 6
  '@Sigmoid_/feed_forward3/activation_1/Sigmoid_167:out0':
    qtype: u8
    quantizer: asymmetric_affine
    rounding: rtne
    max_value: 0.9853377342224121
    min_value: 0.0
    scale: 0.0038640694692730904
    zero_point: 0
  '@Sub_/feed_forward3/activation_1/Sub_168:out0':
    qtype: u8
    quantizer: asymmetric_affine
    rounding: rtne
    max_value: 4.207712650299072
    min_value: -6.300000190734863
    scale: 0.0412067174911499
    zero_point: 153
  '@Add_/Add_71_169:out0':
    qtype: u8
    quantizer: asymmetric_affine
    rounding: rtne
    max_value: 0.35979118943214417
    min_value: -0.2129845768213272
    scale: 0.0022461796179413795
    zero_point: 95
  '@Mul_/Mul_54_170:out0':
    qtype: u8
    quantizer: asymmetric_affine
    rounding: rtne
    max_value: 0.12319065630435944
    min_value: -0.12554804980754852
    scale: 0.000975445902440697
    zero_point: 129
  '@Sub_/Sub_17_171:out0':
    qtype: u8
    quantizer: asymmetric_affine
    rounding: rtne
    max_value: 0.16591434180736542
    min_value: -0.1678040772676468
    scale: 0.0013086997205391526
    zero_point: 128
  '@Initializer_encoder.encoders.1.encoder.layers.3.bypass_scale_172:out0':
    qtype: u8
    quantizer: asymmetric_affine
    rounding: rtne
    max_value: 0.6303292512893677
    min_value: 0.0
    scale: 0.002471879357472062
    zero_point: 0
  '@Add_/Add_161_173:out0':
    qtype: u8
    quantizer: asymmetric_affine
    rounding: rtne
    max_value: 0.07065645605325699
    min_value: -0.07372590899467468
    scale: 0.0005662053008563817
    zero_point: 130
  '@ReduceSum_/downsample_2/ReduceSum_1_174:out0':
    qtype: u8
    quantizer: asymmetric_affine
    rounding: rtne
    max_value: 0.09524040669202805
    min_value: -0.07059109210968018
    scale: 0.0006503196200355887
    zero_point: 109
  '@Mul_/Mul_109_175:out0':
    qtype: u8
    quantizer: asymmetric_affine
    rounding: rtne
    max_value: 0.037190958857536316
    min_value: -0.04414818063378334
    scale: 0.00031897699227556586
    zero_point: 138
  '@Sub_/Sub_32_176:out0':
    qtype: u8
    quantizer: asymmetric_affine
    rounding: rtne
    max_value: 0.22393830120563507
    min_value: -0.1907300055027008
    scale: 0.0016261503333225846
    zero_point: 117
  '@Initializer_encoder.encoders.3.encoder.layers.1.bypass_scale_177:out0':
    qtype: u8
    quantizer: asymmetric_affine
    rounding: rtne
    max_value: 0.2891888916492462
    min_value: 0.0
    scale: 0.0011340740602463484
    zero_point: 0
  '@Mul_/norm_final_10/Mul_1_178:out0':
    qtype: u8
    quantizer: asymmetric_affine
    rounding: rtne
    max_value: 0.2390417605638504
    min_value: -0.19824320077896118
    scale: 0.0017148429760709405
    zero_point: 116
  '@Add_/Add_214_180:out0':
    qtype: u8
    quantizer: asymmetric_affine
    rounding: rtne
    max_value: 0.686325192451477
    min_value: -0.5968274474143982
    scale: 0.0050319707952439785
    zero_point: 119
  '@Add_/norm_final_11/Add_181:out0':
    qtype: u8
    quantizer: asymmetric_affine
    rounding: rtne
    max_value: 3.8530452251434326
    min_value: 0.0
    scale: 0.015109981410205364
    zero_point: 0
  '@Add_/Add_231_183:out0':
    qtype: u8
    quantizer: asymmetric_affine
    rounding: rtne
    max_value: 0.28702160716056824
    min_value: -0.2079005092382431
    scale: 0.001940871006809175
    zero_point: 107
  '@Add_/Add_248_187:out0':
    qtype: u8
    quantizer: asymmetric_affine
    rounding: rtne
    max_value: 0.2183706909418106
    min_value: -0.3424527645111084
    scale: 0.0021993075497448444
    zero_point: 156
  '@Transpose_/Transpose_168_188:out0':
    qtype: u8
    quantizer: asymmetric_affine
    rounding: rtne
    max_value: 0.08913964033126831
    min_value: -0.08390980213880539
    scale: 0.000678625307045877
    zero_point: 124
  '@Mul_/norm_final_13/Mul_191:out0':
    qtype: u8
    quantizer: asymmetric_affine
    rounding: rtne
    max_value: 0.1835474818944931
    min_value: 0.0
    scale: 0.0007197940722107887
    zero_point: 0
  '@Add_/Add_264_192:out0':
    qtype: u8
    quantizer: asymmetric_affine
    rounding: rtne
    max_value: 0.150885209441185
    min_value: -0.22232386469841003
    scale: 0.0014635649276897311
    zero_point: 152
  '@Conv_/pointwise_conv2_29/Conv_194:out0':
    qtype: u8
    quantizer: asymmetric_affine
    rounding: rtne
    max_value: 0.14392206072807312
    min_value: -0.14404430985450745
    scale: 0.0011292798444628716
    zero_point: 128
  '@Mul_/feed_forward3/activation_14/Mul_195:out0':
    qtype: u8
    quantizer: asymmetric_affine
    rounding: rtne
    max_value: 12.434326171875
    min_value: -0.12002817541360855
    scale: 0.049232762306928635
    zero_point: 2
  '@Sigmoid_/feed_forward3/activation_14/Sigmoid_197:out0':
    qtype: u8
    quantizer: asymmetric_affine
    rounding: rtne
    max_value: 0.9999891519546509
    min_value: 0.0
    scale: 0.00392152601853013
    zero_point: 0
  '@Sub_/feed_forward3/activation_14/Sub_198:out0':
    qtype: u8
    quantizer: asymmetric_affine
    rounding: rtne
    max_value: 6.300000190734863
    min_value: -6.300000190734863
    scale: 0.04941176623106003
    zero_point: 128
  '@Conv_/encoder_embed/conv/conv.6/Conv_199:out0':
    qtype: u8
    quantizer: asymmetric_affine
    rounding: rtne
    max_value: 11.302709579467773
    min_value: -14.852211952209473
    scale: 0.10256832093000412
    zero_point: 145
  '@Sigmoid_/encoder_embed/conv/conv.8/Sigmoid_200:out0':
    qtype: u8
    quantizer: asymmetric_affine
    rounding: rtne
    max_value: 0.9999663829803467
    min_value: 0.0
    scale: 0.003921436611562967
    zero_point: 0
  '@Add_/Add_12_201:out0':
    qtype: u8
    quantizer: asymmetric_affine
    rounding: rtne
    max_value: 1.1877871751785278
    min_value: -1.154212236404419
    scale: 0.00918431207537651
    zero_point: 126
  '@Conv_/pointwise_conv2_1/Conv_203:out0':
    qtype: u8
    quantizer: asymmetric_affine
    rounding: rtne
    max_value: 0.4786774814128876
    min_value: -0.39293724298477173
    scale: 0.0034180968068540096
    zero_point: 115
  '@Mul_/feed_forward3/activation/Mul_204:out0':
    qtype: u8
    quantizer: asymmetric_affine
    rounding: rtne
    max_value: 4.0502400398254395
    min_value: -0.12002826482057571
    scale: 0.016353994607925415
    zero_point: 7
  '@Sigmoid_/feed_forward3/activation/Sigmoid_206:out0':
    qtype: u8
    quantizer: asymmetric_affine
    rounding: rtne
    max_value: 0.961327075958252
    min_value: 0.0
    scale: 0.0037699101958423853
    zero_point: 0
  '@Sub_/feed_forward3/activation/Sub_207:out0':
    qtype: u8
    quantizer: asymmetric_affine
    rounding: rtne
    max_value: 3.2131757736206055
    min_value: -6.300000190734863
    scale: 0.03730657324194908
    zero_point: 169
  '@Add_/Add_29_208:out0':
    qtype: u8
    quantizer: asymmetric_affine
    rounding: rtne
    max_value: 0.9570967555046082
    min_value: -0.9095978140830994
    scale: 0.007320370990782976
    zero_point: 124
  '@Mul_/activation_3/Mul_212:out0':
    qtype: u8
    quantizer: asymmetric_affine
    rounding: rtne
    max_value: 4.8679986000061035
    min_value: -0.12002820521593094
    scale: 0.019560888409614563
    zero_point: 6
  '@Add_/Add_53_216:out0':
    qtype: u8
    quantizer: asymmetric_affine
    rounding: rtne
    max_value: 0.5164403915405273
    min_value: -0.35263827443122864
    scale: 0.0034081514459103346
    zero_point: 103
  '@Mul_/Mul_43_217:out0':
    qtype: u8
    quantizer: asymmetric_affine
    rounding: rtne
    max_value: 0.13965369760990143
    min_value: -0.15664920210838318
    scale: 0.0011619721772149205
    zero_point: 135
  '@Sub_/Sub_14_218:out0':
    qtype: u8
    quantizer: asymmetric_affine
    rounding: rtne
    max_value: 0.2144775539636612
    min_value: -0.21858184039592743
    scale: 0.001698272186331451
    zero_point: 129
  '@Initializer_encoder.encoders.1.encoder.layers.2.bypass_scale_219:out0':
    qtype: u8
    quantizer: asymmetric_affine
    rounding: rtne
    max_value: 0.5743755102157593
    min_value: 0.0
    scale: 0.0022524530068039894
    zero_point: 0
  '@Mul_/norm_final_5/Mul_1_220:out0':
    qtype: u8
    quantizer: asymmetric_affine
    rounding: rtne
    max_value: 0.1484859436750412
    min_value: -0.16763831675052643
    scale: 0.0012397030368447304
    zero_point: 135
  '@Pow_/norm_final_5/Pow_221:out0':
    qtype: u8
    quantizer: asymmetric_affine
    rounding: rtne
    max_value: 0.30950504541397095
    min_value: 0.0
    scale: 0.0012137453304603696
    zero_point: 0
  '@Add_/Add_143_222:out0':
    qtype: u8
    quantizer: asymmetric_affine
    rounding: rtne
    max_value: 0.09647466242313385
    min_value: -0.10194479674100876
    scale: 0.000778115470893681
    zero_point: 131
  '@Mul_/Mul_98_223:out0':
    qtype: u8
    quantizer: asymmetric_affine
    rounding: rtne
    max_value: 0.05240146815776825
    min_value: -0.05673625320196152
    scale: 0.000427991064498201
    zero_point: 133
  '@Mul_/downsample_2/Mul_1_224:out0':
    qtype: u8
    quantizer: asymmetric_affine
    rounding: rtne
    max_value: 0.016573771834373474
    min_value: -0.01607743836939335
    scale: 0.00012804396101273596
    zero_point: 126
  '@Sub_/Sub_29_225:out0':
    qtype: u8
    quantizer: asymmetric_affine
    rounding: rtne
    max_value: 0.09329671412706375
    min_value: -0.1107494980096817
    scale: 0.0008001812384463847
    zero_point: 138
  '@Initializer_encoder.encoders.3.encoder.layers.0.bypass_scale_226:out0':
    qtype: u8
    quantizer: asymmetric_affine
    rounding: rtne
    max_value: 0.3986309766769409
    min_value: 0.0
    scale: 0.0015632587019354105
    zero_point: 0
  '@Add_/Add_196_227:out0':
    qtype: u8
    quantizer: asymmetric_affine
    rounding: rtne
    max_value: 0.9758851528167725
    min_value: -0.809185266494751
    scale: 0.007000276353210211
    zero_point: 116
  '@Pow_/norm_final_10/Pow_228:out0':
    qtype: u8
    quantizer: asymmetric_affine
    rounding: rtne
    max_value: 0.24499110877513885
    min_value: 0.0
    scale: 0.000960749457590282
    zero_point: 0
  '@Mul_/downsample_3/Mul_229:out0':
    qtype: u8
    quantizer: asymmetric_affine
    rounding: rtne
    max_value: 0.37896618247032166
    min_value: -0.33145880699157715
    scale: 0.0027859804686158895
    zero_point: 119
  '@Add_/Add_213_230:out0':
    qtype: u8
    quantizer: asymmetric_affine
    rounding: rtne
    max_value: 0.24030914902687073
    min_value: -0.21689730882644653
    scale: 0.0017929665045812726
    zero_point: 121
  '@Add_/Add_230_234:out0':
    qtype: u8
    quantizer: asymmetric_affine
    rounding: rtne
    max_value: 0.3026682436466217
    min_value: -0.22528406977653503
    scale: 0.002070401329547167
    zero_point: 109
  '@Transpose_/Transpose_156_235:out0':
    qtype: u8
    quantizer: asymmetric_affine
    rounding: rtne
    max_value: 0.10819502174854279
    min_value: -0.12331700325012207
    scale: 0.0009078902658075094
    zero_point: 136
  '@Mul_/norm_final_12/Mul_238:out0':
    qtype: u8
    quantizer: asymmetric_affine
    rounding: rtne
    max_value: 0.16783496737480164
    min_value: 0.0
    scale: 0.0006581763154827058
    zero_point: 0
  '@Add_/Add_246_239:out0':
    qtype: u8
    quantizer: asymmetric_affine
    rounding: rtne
    max_value: 0.246241956949234
    min_value: -0.38754549622535706
    scale: 0.002485441043972969
    zero_point: 156
  '@Conv_/pointwise_conv2_27/Conv_241:out0':
    qtype: u8
    quantizer: asymmetric_affine
    rounding: rtne
    max_value: 0.08913964033126831
    min_value: -0.08390980213880539
    scale: 0.000678625307045877
    zero_point: 124
  '@Mul_/feed_forward3/activation_13/Mul_242:out0':
    qtype: u8
    quantizer: asymmetric_affine
    rounding: rtne
    max_value: 8.230572700500488
    min_value: -0.12002822011709213
    scale: 0.032747454941272736
    zero_point: 4
  '@Sigmoid_/feed_forward3/activation_13/Sigmoid_244:out0':
    qtype: u8
    quantizer: asymmetric_affine
    rounding: rtne
    max_value: 0.9992806911468506
    min_value: 0.0
    scale: 0.003918747883290052
    zero_point: 0
  '@Sub_/feed_forward3/activation_13/Sub_245:out0':
    qtype: u8
    quantizer: asymmetric_affine
    rounding: rtne
    max_value: 6.300000190734863
    min_value: -6.300000190734863
    scale: 0.04941176623106003
    zero_point: 128
  '@Add_/Add_263_246:out0':
    qtype: u8
    quantizer: asymmetric_affine
    rounding: rtne
    max_value: 0.14403852820396423
    min_value: -0.21025800704956055
    scale: 0.0013893981231376529
    zero_point: 151
  '@Mul_/activation_29/Mul_250:out0':
    qtype: u8
    quantizer: asymmetric_affine
    rounding: rtne
    max_value: 11.98788833618164
    min_value: -0.12002793699502945
    scale: 0.047482024878263474
    zero_point: 3
  '@Mul_/encoder_embed/conv/conv.5/Mul_254:out0':
    qtype: u8
    quantizer: asymmetric_affine
    rounding: rtne
    max_value: 2.6135528087615967
    min_value: -0.12002820521593094
    scale: 0.010719926096498966
    zero_point: 11
  '@Sub_/encoder_embed/conv/conv.8/Sub_255:out0':
    qtype: u8
    quantizer: asymmetric_affine
    rounding: rtne
    max_value: 6.300000190734863
    min_value: -6.300000190734863
    scale: 0.04941176623106003
    zero_point: 128
  '@Add_/Add_11_256:out0':
    qtype: u8
    quantizer: asymmetric_affine
    rounding: rtne
    max_value: 0.9537991285324097
    min_value: -1.1362073421478271
    scale: 0.008196103386580944
    zero_point: 139
  '@Mul_/activation_1/Mul_260:out0':
    qtype: u8
    quantizer: asymmetric_affine
    rounding: rtne
    max_value: 8.603367805480957
    min_value: -0.12002827972173691
    scale: 0.034209396690130234
    zero_point: 4
  '@Add_/Add_28_264:out0':
    qtype: u8
    quantizer: asymmetric_affine
    rounding: rtne
    max_value: 0.7614580988883972
    min_value: -0.777280330657959
    scale: 0.006034268531948328
    zero_point: 129
  '@Transpose_/Transpose_20_265:out0':
    qtype: u8
    quantizer: asymmetric_affine
    rounding: rtne
    max_value: 0.2778337001800537
    min_value: -0.23303261399269104
    scale: 0.0020033970940858126
    zero_point: 116
  '@Reshape_/Reshape_21_268:out0':
    qtype: u8
    quantizer: asymmetric_affine
    rounding: rtne
    max_value: 1.844872236251831
    min_value: -1.9264618158340454
    scale: 0.01478954590857029
    zero_point: 130
  '@Conv_/depthwise_conv_3/Conv_270:out0':
    qtype: u8
    quantizer: asymmetric_affine
    rounding: rtne
    max_value: 4.960730075836182
    min_value: -5.5512776374816895
    scale: 0.04122355952858925
    zero_point: 135
  '@Sigmoid_/activation_3/Sigmoid_271:out0':
    qtype: u8
    quantizer: asymmetric_affine
    rounding: rtne
    max_value: 0.9813069105148315
    min_value: 0.0
    scale: 0.0038482623640447855
    zero_point: 0
  '@Sub_/activation_3/Sub_273:out0':
    qtype: u8
    quantizer: asymmetric_affine
    rounding: rtne
    max_value: 3.9607300758361816
    min_value: -6.300000190734863
    scale: 0.0402381606400013
    zero_point: 157
  '@ReduceSum_/downsample/ReduceSum_1_275:out0':
    qtype: u8
    quantizer: asymmetric_affine
    rounding: rtne
    max_value: 0.6451846361160278
    min_value: -0.5202488303184509
    scale: 0.00457032723352313
    zero_point: 114
  '@Mul_/Mul_32_276:out0':
    qtype: u8
    quantizer: asymmetric_affine
    rounding: rtne
    max_value: 0.1676105558872223
    min_value: -0.12943540513515472
    scale: 0.0011648860527202487
    zero_point: 111
  '@Sub_/Sub_11_277:out0':
    qtype: u8
    quantizer: asymmetric_affine
    rounding: rtne
    max_value: 0.28623753786087036
    min_value: -0.32107192277908325
    scale: 0.0023816057946532965
    zero_point: 135
  '@Initializer_encoder.encoders.1.encoder.layers.1.bypass_scale_278:out0':
    qtype: u8
    quantizer: asymmetric_affine
    rounding: rtne
    max_value: 0.4878944158554077
    min_value: 0.0
    scale: 0.0019133114255964756
    zero_point: 0
  '@Mul_/norm_final_4/Mul_1_279:out0':
    qtype: u8
    quantizer: asymmetric_affine
    rounding: rtne
    max_value: 0.2726230025291443
    min_value: -0.18522299826145172
    scale: 0.0017954744398593903
    zero_point: 103
  '@Pow_/norm_final_4/Pow_280:out0':
    qtype: u8
    quantizer: asymmetric_affine
    rounding: rtne
    max_value: 0.3499014973640442
    min_value: 0.0
    scale: 0.0013721627183258533
    zero_point: 0
  '@Add_/Add_106_281:out0':
    qtype: u8
    quantizer: asymmetric_affine
    rounding: rtne
    max_value: 0.4802733063697815
    min_value: -0.5422210693359375
    scale: 0.004009781405329704
    zero_point: 135
  '@Add_/norm_final_5/Add_282:out0':
    qtype: u8
    quantizer: asymmetric_affine
    rounding: rtne
    max_value: 10.461795806884766
    min_value: 0.0
    scale: 0.04102665185928345
    zero_point: 0
  '@Add_/Add_125_284:out0':
    qtype: u8
    quantizer: asymmetric_affine
    rounding: rtne
    max_value: 0.13491977751255035
    min_value: -0.11711695045232773
    scale: 0.0009883793536573648
    zero_point: 118
  '@Mul_/Mul_87_285:out0':
    qtype: u8
    quantizer: asymmetric_affine
    rounding: rtne
    max_value: 0.05030714347958565
    min_value: -0.04817335680127144
    scale: 0.0003861980512738228
    zero_point: 125
  '@Sub_/Sub_26_286:out0':
    qtype: u8
    quantizer: asymmetric_affine
    rounding: rtne
    max_value: 0.10908821225166321
    min_value: -0.11811227351427078
    scale: 0.0008909822790883482
    zero_point: 133
  '@Initializer_encoder.encoders.2.encoder.layers.2.bypass_scale_287:out0':
    qtype: u8
    quantizer: asymmetric_affine
    rounding: rtne
    max_value: 0.48035866022109985
    min_value: 0.0
    scale: 0.0018837593961507082
    zero_point: 0
  '@Reshape_/downsample_2/Reshape_288:out0':
    qtype: u8
    quantizer: asymmetric_affine
    rounding: rtne
    max_value: 0.10931852459907532
    min_value: -0.10205314308404922
    scale: 0.0008289084653370082
    zero_point: 123
  '@Softmax_/downsample_2/Softmax_289:out0':
    qtype: u8
    quantizer: asymmetric_affine
    rounding: rtne
    max_value: 0.15861625969409943
    min_value: 0.0
    scale: 0.0006220245268195868
    zero_point: 0
  '@Mul_/norm_final_9/Mul_1_290:out0':
    qtype: u8
    quantizer: asymmetric_affine
    rounding: rtne
    max_value: 0.08199644088745117
    min_value: -0.08052394539117813
    scale: 0.0006373348296619952
    zero_point: 126
  '@Pow_/norm_final_9/Pow_291:out0':
    qtype: u8
    quantizer: asymmetric_affine
    rounding: rtne
    max_value: 0.27183935046195984
    min_value: 0.0
    scale: 0.00106603663880378
    zero_point: 0
  '@Add_/Add_195_292:out0':
    qtype: u8
    quantizer: asymmetric_affine
    rounding: rtne
    max_value: 0.08961889892816544
    min_value: -0.09902147203683853
    scale: 0.0007397661684080958
    zero_point: 134
  '@Add_/norm_final_10/Add_294:out0':
    qtype: u8
    quantizer: asymmetric_affine
    rounding: rtne
    max_value: 16.666709899902344
    min_value: 0.0
    scale: 0.06535964459180832
    zero_point: 0
  '@Initializer_encoder.encoders.4.downsample.query_297:out0':
    qtype: u8
    quantizer: asymmetric_affine
    rounding: rtne
    max_value: 6.025351047515869
    min_value: -7.2789835929870605
    scale: 0.052173860371112823
    zero_point: 140
  '@Add_/Add_212_298:out0':
    qtype: u8
    quantizer: asymmetric_affine
    rounding: rtne
    max_value: 0.22206008434295654
    min_value: -0.18412309885025024
    scale: 0.00159287522546947
    zero_point: 116
  '@Transpose_/Transpose_144_299:out0':
    qtype: u8
    quantizer: asymmetric_affine
    rounding: rtne
    max_value: 0.12493300437927246
    min_value: -0.109787218272686
    scale: 0.0009204715024679899
    zero_point: 119
  '@Mul_/norm_final_11/Mul_302:out0':
    qtype: u8
    quantizer: asymmetric_affine
    rounding: rtne
    max_value: 0.471042275428772
    min_value: 0.0
    scale: 0.0018472246592864394
    zero_point: 0
  '@Add_/Add_228_303:out0':
    qtype: u8
    quantizer: asymmetric_affine
    rounding: rtne
    max_value: 0.3543318808078766
    min_value: -0.21096378564834595
    scale: 0.0022168459836393595
    zero_point: 95
  '@Conv_/pointwise_conv2_25/Conv_305:out0':
    qtype: u8
    quantizer: asymmetric_affine
    rounding: rtne
    max_value: 0.10819502174854279
    min_value: -0.12331700325012207
    scale: 0.0009078902658075094
    zero_point: 136
  '@Mul_/feed_forward3/activation_12/Mul_306:out0':
    qtype: u8
    quantizer: asymmetric_affine
    rounding: rtne
    max_value: 10.186963081359863
    min_value: -0.12002822011709213
    scale: 0.040419574826955795
    zero_point: 3
  '@Sigmoid_/feed_forward3/activation_12/Sigmoid_308:out0':
    qtype: u8
    quantizer: asymmetric_affine
    rounding: rtne
    max_value: 0.9998977184295654
    min_value: 0.0
    scale: 0.003921167459338903
    zero_point: 0
  '@Sub_/feed_forward3/activation_12/Sub_309:out0':
    qtype: u8
    quantizer: asymmetric_affine
    rounding: rtne
    max_value: 6.300000190734863
    min_value: -6.300000190734863
    scale: 0.04941176623106003
    zero_point: 128
  '@Add_/Add_245_310:out0':
    qtype: u8
    quantizer: asymmetric_affine
    rounding: rtne
    max_value: 0.1879550665616989
    min_value: -0.22273901104927063
    scale: 0.00161056499928236
    zero_point: 138
  '@Mul_/activation_27/Mul_314:out0':
    qtype: u8
    quantizer: asymmetric_affine
    rounding: rtne
    max_value: 5.085255146026611
    min_value: -0.12002816051244736
    scale: 0.020412875339388847
    zero_point: 6
  '@Add_/Add_262_318:out0':
    qtype: u8
    quantizer: asymmetric_affine
    rounding: rtne
    max_value: 0.1550869196653366
    min_value: -0.18749570846557617
    scale: 0.0013434613356366754
    zero_point: 140
  '@Transpose_/Transpose_176_319:out0':
    qtype: u8
    quantizer: asymmetric_affine
    rounding: rtne
    max_value: 0.07899154722690582
    min_value: -0.0965595617890358
    scale: 0.0006884357426315546
    zero_point: 140
  '@Reshape_/Reshape_164_322:out0':
    qtype: u8
    quantizer: asymmetric_affine
    rounding: rtne
    max_value: 0.87061607837677
    min_value: -0.24171224236488342
    scale: 0.004362071864306927
    zero_point: 55
  '@Conv_/depthwise_conv_29/Conv_324:out0':
    qtype: u8
    quantizer: asymmetric_affine
    rounding: rtne
    max_value: 11.988091468811035
    min_value: -11.864555358886719
    scale: 0.09353978931903839
    zero_point: 127
  '@Sigmoid_/activation_29/Sigmoid_325:out0':
    qtype: u8
    quantizer: asymmetric_affine
    rounding: rtne
    max_value: 0.9999830722808838
    min_value: 0.0
    scale: 0.003921502269804478
    zero_point: 0
  '@Sub_/activation_29/Sub_327:out0':
    qtype: u8
    quantizer: asymmetric_affine
    rounding: rtne
    max_value: 6.300000190734863
    min_value: -6.300000190734863
    scale: 0.04941176623106003
    zero_point: 128
  '@Conv_/encoder_embed/conv/conv.3/Conv_329:out0':
    qtype: u8
    quantizer: asymmetric_affine
    rounding: rtne
    max_value: 2.9758901596069336
    min_value: -12.417724609375
    scale: 0.06036711856722832
    zero_point: 206
  '@Sigmoid_/encoder_embed/conv/conv.5/Sigmoid_330:out0':
    qtype: u8
    quantizer: asymmetric_affine
    rounding: rtne
    max_value: 0.8782423734664917
    min_value: 0.0
    scale: 0.003444087691605091
    zero_point: 0
  '@Sub_/encoder_embed/conv/conv.5/Sub_331:out0':
    qtype: u8
    quantizer: asymmetric_affine
    rounding: rtne
    max_value: 1.9758901596069336
    min_value: -6.300000190734863
    scale: 0.0324544720351696
    zero_point: 194
  '@Add_/Add_10_333:out0':
    qtype: u8
    quantizer: asymmetric_affine
    rounding: rtne
    max_value: 0.6815178394317627
    min_value: -1.040770411491394
    scale: 0.006754071451723576
    zero_point: 154
  '@Transpose_/Transpose_8_334:out0':
    qtype: u8
    quantizer: asymmetric_affine
    rounding: rtne
    max_value: 0.38362517952919006
    min_value: -0.287905752658844
    scale: 0.002633454743772745
    zero_point: 109
  '@Reshape_/Reshape_10_337:out0':
    qtype: u8
    quantizer: asymmetric_affine
    rounding: rtne
    max_value: 2.026636838912964
    min_value: -1.763482928276062
    scale: 0.014863214455544949
    zero_point: 119
  '@Conv_/depthwise_conv_1/Conv_339:out0':
    qtype: u8
    quantizer: asymmetric_affine
    rounding: rtne
    max_value: 8.607640266418457
    min_value: -7.673464775085449
    scale: 0.06384746730327606
    zero_point: 120
  '@Sigmoid_/activation_1/Sigmoid_340:out0':
    qtype: u8
    quantizer: asymmetric_affine
    rounding: rtne
    max_value: 0.9995036125183105
    min_value: 0.0
    scale: 0.003919621929526329
    zero_point: 0
  '@Sub_/activation_1/Sub_342:out0':
    qtype: u8
    quantizer: asymmetric_affine
    rounding: rtne
    max_value: 6.300000190734863
    min_value: -6.300000190734863
    scale: 0.04941176623106003
    zero_point: 128
  '@Add_/Add_23_344:out0':
    qtype: u8
    quantizer: asymmetric_affine
    rounding: rtne
    max_value: 0.662194013595581
    min_value: -0.6928805708885193
    scale: 0.005314018111675978
    zero_point: 130
  '@Conv_/pointwise_conv2_2/Conv_346:out0':
    qtype: u8
    quantizer: asymmetric_affine
    rounding: rtne
    max_value: 0.2778337001800537
    min_value: -0.23303261399269104
    scale: 0.0020033970940858126
    zero_point: 116
  '@Mul_/feed_forward2/activation_1/Mul_347:out0':
    qtype: u8
    quantizer: asymmetric_affine
    rounding: rtne
    max_value: 3.267550230026245
    min_value: -0.12002827227115631
    scale: 0.013284621760249138
    zero_point: 9
  '@Transpose_/Transpose_22_349:out0':
    qtype: u8
    quantizer: asymmetric_affine
    rounding: rtne
    max_value: 1.844872236251831
    min_value: -1.9264618158340454
    scale: 0.01478954590857029
    zero_point: 130
  '@Concat_/Concat_35_350:out0':
    qtype: u8
    quantizer: asymmetric_affine
    rounding: rtne
    max_value: 14.202630043029785
    min_value: -12.797292709350586
    scale: 0.10588205605745316
    zero_point: 121
  '@Mul_/Mul_20_351:out0':
    qtype: u8
    quantizer: asymmetric_affine
    rounding: rtne
    max_value: 14.202630043029785
    min_value: -12.797292709350586
    scale: 0.10588205605745316
    zero_point: 121
  '@Mul_/downsample/Mul_1_353:out0':
    qtype: u8
    quantizer: asymmetric_affine
    rounding: rtne
    max_value: 0.3724834620952606
    min_value: -0.279038667678833
    scale: 0.002554988954216242
    zero_point: 109
  '@Sub_/Sub_8_354:out0':
    qtype: u8
    quantizer: asymmetric_affine
    rounding: rtne
    max_value: 0.38273388147354126
    min_value: -0.2955620288848877
    scale: 0.0026599839329719543
    zero_point: 111
  '@Initializer_encoder.encoders.1.encoder.layers.0.bypass_scale_355:out0':
    qtype: u8
    quantizer: asymmetric_affine
    rounding: rtne
    max_value: 0.43792974948883057
    min_value: 0.0
    scale: 0.0017173715168610215
    zero_point: 0
  '@Mul_/norm_final_3/Mul_1_356:out0':
    qtype: u8
    quantizer: asymmetric_affine
    rounding: rtne
    max_value: 0.20742686092853546
    min_value: -0.18364568054676056
    scale: 0.0015336178475990891
    zero_point: 120
  '@Pow_/norm_final_3/Pow_357:out0':
    qtype: u8
    quantizer: asymmetric_affine
    rounding: rtne
    max_value: 0.3806896209716797
    min_value: 0.0
    scale: 0.0014929004246369004
    zero_point: 0
  '@Add_/Add_88_358:out0':
    qtype: u8
    quantizer: asymmetric_affine
    rounding: rtne
    max_value: 0.780097246170044
    min_value: -0.530006468296051
    scale: 0.005137661471962929
    zero_point: 103
  '@Add_/norm_final_4/Add_359:out0':
    qtype: u8
    quantizer: asymmetric_affine
    rounding: rtne
    max_value: 8.18790054321289
    min_value: 0.0
    scale: 0.03210941329598427
    zero_point: 0
  '@Add_/Add_105_361:out0':
    qtype: u8
    quantizer: asymmetric_affine
    rounding: rtne
    max_value: 0.3444790840148926
    min_value: -0.4309689998626709
    scale: 0.003040972864255309
    zero_point: 142
  '@ReduceSum_/downsample_1/ReduceSum_1_365:out0':
    qtype: u8
    quantizer: asymmetric_affine
    rounding: rtne
    max_value: 0.1505199819803238
    min_value: -0.132601797580719
    scale: 0.001110281446017325
    zero_point: 119
  '@Mul_/Mul_76_366:out0':
    qtype: u8
    quantizer: asymmetric_affine
    rounding: rtne
    max_value: 0.05948702618479729
    min_value: -0.05541854351758957
    scale: 0.0004506100667640567
    zero_point: 123
  '@Sub_/Sub_23_367:out0':
    qtype: u8
    quantizer: asymmetric_affine
    rounding: rtne
    max_value: 0.11939433217048645
    min_value: -0.11433019489049911
    scale: 0.0009165668161585927
    zero_point: 125
  '@Initializer_encoder.encoders.2.encoder.layers.1.bypass_scale_368:out0':
    qtype: u8
    quantizer: asymmetric_affine
    rounding: rtne
    max_value: 0.4213528633117676
    min_value: 0.0
    scale: 0.0016523641534149647
    zero_point: 0
  '@Mul_/norm_final_8/Mul_1_369:out0':
    qtype: u8
    quantizer: asymmetric_affine
    rounding: rtne
    max_value: 0.07971341907978058
    min_value: -0.08700064569711685
    scale: 0.0006537806475535035
    zero_point: 133
  '@Pow_/norm_final_8/Pow_370:out0':
    qtype: u8
    quantizer: asymmetric_affine
    rounding: rtne
    max_value: 0.2864663004875183
    min_value: 0.0
    scale: 0.0011233972618356347
    zero_point: 0
  '@Add_/Add_178_373:out0':
    qtype: u8
    quantizer: asymmetric_affine
    rounding: rtne
    max_value: 0.30163565278053284
    min_value: -0.2962188720703125
    scale: 0.0023445275146514177
    zero_point: 126
  '@Add_/norm_final_9/Add_374:out0':
    qtype: u8
    quantizer: asymmetric_affine
    rounding: rtne
    max_value: 13.533791542053223
    min_value: 0.0
    scale: 0.0530736930668354
    zero_point: 0
  '@Add_/Add_194_376:out0':
    qtype: u8
    quantizer: asymmetric_affine
    rounding: rtne
    max_value: 0.09678036719560623
    min_value: -0.09349274635314941
    scale: 0.0007461690693162382
    zero_point: 125
  '@Transpose_/Transpose_132_377:out0':
    qtype: u8
    quantizer: asymmetric_affine
    rounding: rtne
    max_value: 0.015004911459982395
    min_value: -0.015678895637392998
    scale: 0.0001203286592499353
    zero_point: 130
  '@Add_/Add_210_381:out0':
    qtype: u8
    quantizer: asymmetric_affine
    rounding: rtne
    max_value: 0.22187045216560364
    min_value: -0.16667364537715912
    scale: 0.0015237022889778018
    zero_point: 109
  '@Conv_/pointwise_conv2_23/Conv_383:out0':
    qtype: u8
    quantizer: asymmetric_affine
    rounding: rtne
    max_value: 0.12493300437927246
    min_value: -0.109787218272686
    scale: 0.0009204715024679899
    zero_point: 119
  '@Mul_/feed_forward3/activation_11/Mul_384:out0':
    qtype: u8
    quantizer: asymmetric_affine
    rounding: rtne
    max_value: 4.087201118469238
    min_value: -0.12002822756767273
    scale: 0.01649893820285797
    zero_point: 7
  '@Sigmoid_/feed_forward3/activation_11/Sigmoid_386:out0':
    qtype: u8
    quantizer: asymmetric_affine
    rounding: rtne
    max_value: 0.9625388979911804
    min_value: 0.0
    scale: 0.0037746622692793608
    zero_point: 0
  '@Sub_/feed_forward3/activation_11/Sub_387:out0':
    qtype: u8
    quantizer: asymmetric_affine
    rounding: rtne
    max_value: 3.2462711334228516
    min_value: -6.27085018157959
    scale: 0.037322044372558594
    zero_point: 168
  '@Add_/Add_227_388:out0':
    qtype: u8
    quantizer: asymmetric_affine
    rounding: rtne
    max_value: 0.14577433466911316
    min_value: -0.15230292081832886
    scale: 0.0011689304374158382
    zero_point: 130
  '@Mul_/activation_25/Mul_392:out0':
    qtype: u8
    quantizer: asymmetric_affine
    rounding: rtne
    max_value: 2.720970630645752
    min_value: -0.12002819776535034
    scale: 0.011141171678900719
    zero_point: 11
  '@Add_/Add_244_396:out0':
    qtype: u8
    quantizer: asymmetric_affine
    rounding: rtne
    max_value: 0.1746954768896103
    min_value: -0.19542695581912994
    scale: 0.0014514605281874537
    zero_point: 135
  '@Transpose_/Transpose_164_397:out0':
    qtype: u8
    quantizer: asymmetric_affine
    rounding: rtne
    max_value: 0.03448135405778885
    min_value: -0.03502572327852249
    scale: 0.0002725767844822258
    zero_point: 128
  '@Reshape_/Reshape_153_400:out0':
    qtype: u8
    quantizer: asymmetric_affine
    rounding: rtne
    max_value: 0.5754114389419556
    min_value: -0.39513421058654785
    scale: 0.0038060613442212343
    zero_point: 104
  '@Conv_/depthwise_conv_27/Conv_402:out0':
    qtype: u8
    quantizer: asymmetric_affine
    rounding: rtne
    max_value: 5.1642842292785645
    min_value: -10.501768112182617
    scale: 0.06143549829721451
    zero_point: 171
  '@Sigmoid_/activation_27/Sigmoid_403:out0':
    qtype: u8
    quantizer: asymmetric_affine
    rounding: rtne
    max_value: 0.9846969842910767
    min_value: 0.0
    scale: 0.003861556760966778
    zero_point: 0
  '@Sub_/activation_27/Sub_405:out0':
    qtype: u8
    quantizer: asymmetric_affine
    rounding: rtne
    max_value: 4.1642842292785645
    min_value: -6.300000190734863
    scale: 0.04103641211986542
    zero_point: 154
  '@Add_/Add_257_407:out0':
    qtype: u8
    quantizer: asymmetric_affine
    rounding: rtne
    max_value: 0.15468202531337738
    min_value: -0.1704326868057251
    scale: 0.001274959766305983
    zero_point: 134
  '@Conv_/pointwise_conv2_28/Conv_409:out0':
    qtype: u8
    quantizer: asymmetric_affine
    rounding: rtne
    max_value: 0.07899154722690582
    min_value: -0.0965595617890358
    scale: 0.0006884357426315546
    zero_point: 140
  '@Mul_/feed_forward2/activation_14/Mul_410:out0':
    qtype: u8
    quantizer: asymmetric_affine
    rounding: rtne
    max_value: 6.537343502044678
    min_value: -0.12002796679735184
    scale: 0.026107339188456535
    zero_point: 5
  '@Transpose_/Transpose_178_412:out0':
    qtype: u8
    quantizer: asymmetric_affine
    rounding: rtne
    max_value: 0.87061607837677
    min_value: -0.24171224236488342
    scale: 0.004362071864306927
    zero_point: 55
  '@Concat_/Concat_297_413:out0':
    qtype: u8
    quantizer: asymmetric_affine
    rounding: rtne
    max_value: 8.998272895812988
    min_value: -5.831961154937744
    scale: 0.0581577830016613
    zero_point: 100
  '@Mul_/Mul_163_414:out0':
    qtype: u8
    quantizer: asymmetric_affine
    rounding: rtne
    max_value: 8.998272895812988
    min_value: -5.831961154937744
    scale: 0.0581577830016613
    zero_point: 100
  '@Mul_/encoder_embed/conv/conv.2/Mul_416:out0':
    qtype: u8
    quantizer: asymmetric_affine
    rounding: rtne
    max_value: 1.9441534280776978
    min_value: -0.12002822756767273
    scale: 0.008094829507172108
    zero_point: 15
  '@Sigmoid_/encoder_embed/conv/conv.2/Sigmoid_417:out0':
    qtype: u8
    quantizer: asymmetric_affine
    rounding: rtne
    max_value: 0.8047069311141968
    min_value: 0.0
    scale: 0.0031557134352624416
    zero_point: 0
  '@Add_/Add_5_419:out0':
    qtype: u8
    quantizer: asymmetric_affine
    rounding: rtne
    max_value: 0.6781033873558044
    min_value: -0.9375929832458496
    scale: 0.0063360645435750484
    zero_point: 148
  '@Conv_/pointwise_conv2/Conv_421:out0':
    qtype: u8
    quantizer: asymmetric_affine
    rounding: rtne
    max_value: 0.38362517952919006
    min_value: -0.287905752658844
    scale: 0.002633454743772745
    zero_point: 109
  '@Mul_/feed_forward2/activation/Mul_422:out0':
    qtype: u8
    quantizer: asymmetric_affine
    rounding: rtne
    max_value: 6.609920501708984
    min_value: -0.12002825736999512
    scale: 0.026391956955194473
    zero_point: 5
  '@Transpose_/Transpose_10_424:out0':
    qtype: u8
    quantizer: asymmetric_affine
    rounding: rtne
    max_value: 2.026636838912964
    min_value: -1.763482928276062
    scale: 0.014863214455544949
    zero_point: 119
  '@Concat_/Concat_17_425:out0':
    qtype: u8
    quantizer: asymmetric_affine
    rounding: rtne
    max_value: 17.86638641357422
    min_value: -16.522216796875
    scale: 0.13485726714134216
    zero_point: 123
  '@Mul_/Mul_9_426:out0':
    qtype: u8
    quantizer: asymmetric_affine
    rounding: rtne
    max_value: 17.86638641357422
    min_value: -16.522216796875
    scale: 0.13485726714134216
    zero_point: 123
  '@Add_/Add_18_428:out0':
    qtype: u8
    quantizer: asymmetric_affine
    rounding: rtne
    max_value: 0.6566444039344788
    min_value: -0.7011032104492188
    scale: 0.005324500147253275
    zero_point: 132
  '@Mul_/activation_2/Mul_432:out0':
    qtype: u8
    quantizer: asymmetric_affine
    rounding: rtne
    max_value: 2.968783378601074
    min_value: -0.12002811580896378
    scale: 0.012112986296415329
    zero_point: 10
  '@Sigmoid_/feed_forward2/activation_1/Sigmoid_434:out0':
    qtype: u8
    quantizer: asymmetric_affine
    rounding: rtne
    max_value: 0.9261012077331543
    min_value: 0.0
    scale: 0.003631769446656108
    zero_point: 0
  '@MatMul_/MatMul_9_435:out0':
    qtype: u8
    quantizer: asymmetric_affine
    rounding: rtne
    max_value: 1.844872236251831
    min_value: -1.9264618158340454
    scale: 0.01478954590857029
    zero_point: 130
  '@Gather_/Gather_28_436:out0':
    qtype: u8
    quantizer: asymmetric_affine
    rounding: rtne
    max_value: 14.202630043029785
    min_value: -12.797292709350586
    scale: 0.10588205605745316
    zero_point: 121
  '@Sigmoid_/Sigmoid_3_437:out0':
    qtype: u8
    quantizer: asymmetric_affine
    rounding: rtne
    max_value: 0.9999319314956665
    min_value: 0.0
    scale: 0.003921301569789648
    zero_point: 0
  '@Reshape_/downsample/Reshape_438:out0':
    qtype: u8
    quantizer: asymmetric_affine
    rounding: rtne
    max_value: 0.706839919090271
    min_value: -0.529515266418457
    scale: 0.004848451819270849
    zero_point: 109
  '@Softmax_/downsample/Softmax_439:out0':
    qtype: u8
    quantizer: asymmetric_affine
    rounding: rtne
    max_value: 0.6166156530380249
    min_value: 0.0
    scale: 0.0024181006010621786
    zero_point: 0
  '@Mul_/norm_final_2/Mul_1_440:out0':
    qtype: u8
    quantizer: asymmetric_affine
    rounding: rtne
    max_value: 0.35120078921318054
    min_value: -0.30997079610824585
    scale: 0.0025928295217454433
    zero_point: 120
  '@Pow_/norm_final_2/Pow_441:out0':
    qtype: u8
    quantizer: asymmetric_affine
    rounding: rtne
    max_value: 0.4306583106517792
    min_value: 0.0
    scale: 0.001688856165856123
    zero_point: 0
  '@Add_/Add_70_442:out0':
    qtype: u8
    quantizer: asymmetric_affine
    rounding: rtne
    max_value: 0.5453290343284607
    min_value: -0.4827473759651184
    scale: 0.004031672142446041
    zero_point: 120
  '@Add_/norm_final_3/Add_443:out0':
    qtype: u8
    quantizer: asymmetric_affine
    rounding: rtne
    max_value: 6.911737442016602
    min_value: 0.0
    scale: 0.027104852721095085
    zero_point: 0
  '@Add_/Add_87_445:out0':
    qtype: u8
    quantizer: asymmetric_affine
    rounding: rtne
    max_value: 0.6285702586174011
    min_value: -0.4869844317436218
    scale: 0.004374724347144365
    zero_point: 111
  '@Add_/Add_104_449:out0':
    qtype: u8
    quantizer: asymmetric_affine
    rounding: rtne
    max_value: 0.3121688663959503
    min_value: -0.3985214829444885
    scale: 0.0027870209887623787
    zero_point: 143
  '@Transpose_/Transpose_72_450:out0':
    qtype: u8
    quantizer: asymmetric_affine
    rounding: rtne
    max_value: 0.1472000628709793
    min_value: -0.1929207146167755
    scale: 0.0013338070129975677
    zero_point: 145
  '@Mul_/norm_final_5/Mul_453:out0':
    qtype: u8
    quantizer: asymmetric_affine
    rounding: rtne
    max_value: 0.2940036952495575
    min_value: 0.0
    scale: 0.0011529556941241026
    zero_point: 0
  '@Mul_/downsample_1/Mul_1_454:out0':
    qtype: u8
    quantizer: asymmetric_affine
    rounding: rtne
    max_value: 0.049150802195072174
    min_value: -0.047084640711545944
    scale: 0.00037739388062618673
    zero_point: 125
  '@Sub_/Sub_20_455:out0':
    qtype: u8
    quantizer: asymmetric_affine
    rounding: rtne
    max_value: 0.14045295119285583
    min_value: -0.13084697723388672
    scale: 0.0010639212559908628
    zero_point: 123
  '@Initializer_encoder.encoders.2.encoder.layers.0.bypass_scale_456:out0':
    qtype: u8
    quantizer: asymmetric_affine
    rounding: rtne
    max_value: 0.4235370457172394
    min_value: 0.0
    scale: 0.001660929643549025
    zero_point: 0
  '@Mul_/norm_final_7/Mul_1_457:out0':
    qtype: u8
    quantizer: asymmetric_affine
    rounding: rtne
    max_value: 0.09800995886325836
    min_value: -0.09929533302783966
    scale: 0.0007737462292425334
    zero_point: 128
  '@Pow_/norm_final_7/Pow_458:out0':
    qtype: u8
    quantizer: asymmetric_affine
    rounding: rtne
    max_value: 0.30983197689056396
    min_value: 0.0
    scale: 0.0012150274123996496
    zero_point: 0
  '@Add_/Add_160_459:out0':
    qtype: u8
    quantizer: asymmetric_affine
    rounding: rtne
    max_value: 0.2782898545265198
    min_value: -0.3037305176258087
    scale: 0.0022824329789727926
    zero_point: 133
  '@Add_/norm_final_8/Add_460:out0':
    qtype: u8
    quantizer: asymmetric_affine
    rounding: rtne
    max_value: 12.187984466552734
    min_value: 0.0
    scale: 0.04779601842164993
    zero_point: 0
  '@Mul_/downsample_2/Mul_461:out0':
    qtype: u8
    quantizer: asymmetric_affine
    rounding: rtne
    max_value: 0.10246054828166962
    min_value: -0.1368793249130249
    scale: 0.000938587763812393
    zero_point: 146
  '@Add_/Add_177_462:out0':
    qtype: u8
    quantizer: asymmetric_affine
    rounding: rtne
    max_value: 0.23142999410629272
    min_value: -0.2433348298072815
    scale: 0.0018618227913975716
    zero_point: 131
  '@Add_/Add_192_466:out0':
    qtype: u8
    quantizer: asymmetric_affine
    rounding: rtne
    max_value: 0.09717487543821335
    min_value: -0.09479456394910812
    scale: 0.0007528213318437338
    zero_point: 126
  '@Conv_/pointwise_conv2_21/Conv_468:out0':
    qtype: u8
    quantizer: asymmetric_affine
    rounding: rtne
    max_value: 0.015004911459982395
    min_value: -0.015678895637392998
    scale: 0.0001203286592499353
    zero_point: 130
  '@Mul_/feed_forward3/activation_10/Mul_469:out0':
    qtype: u8
    quantizer: asymmetric_affine
    rounding: rtne
    max_value: 0.902941107749939
    min_value: -0.12002825736999512
    scale: 0.0040116445161402225
    zero_point: 30
  '@Mul_/norm_final_10/Mul_471:out0':
    qtype: u8
    quantizer: asymmetric_affine
    rounding: rtne
    max_value: 0.9523518085479736
    min_value: 0.0
    scale: 0.003734712954610586
    zero_point: 0
  '@Add_/Add_209_472:out0':
    qtype: u8
    quantizer: asymmetric_affine
    rounding: rtne
    max_value: 0.14367355406284332
    min_value: -0.12376664578914642
    scale: 0.0010487850522622466
    zero_point: 118
  '@Mul_/activation_23/Mul_476:out0':
    qtype: u8
    quantizer: asymmetric_affine
    rounding: rtne
    max_value: 3.557147741317749
    min_value: -0.12002801895141602
    scale: 0.014420296996831894
    zero_point: 8
  '@Add_/Add_226_480:out0':
    qtype: u8
    quantizer: asymmetric_affine
    rounding: rtne
    max_value: 0.17019563913345337
    min_value: -0.14971710741519928
    scale: 0.0012545597273856401
    zero_point: 119
  '@Transpose_/Transpose_152_481:out0':
    qtype: u8
    quantizer: asymmetric_affine
    rounding: rtne
    max_value: 0.060499828308820724
    min_value: -0.06362336874008179
    scale: 0.00048675766447559
    zero_point: 131
  '@Reshape_/Reshape_142_484:out0':
    qtype: u8
    quantizer: asymmetric_affine
    rounding: rtne
    max_value: 0.7878163456916809
    min_value: -0.41996538639068604
    scale: 0.004736399278044701
    zero_point: 89
  '@Conv_/depthwise_conv_25/Conv_486:out0':
    qtype: u8
    quantizer: asymmetric_affine
    rounding: rtne
    max_value: 3.065772771835327
    min_value: -2.416125774383545
    scale: 0.021497640758752823
    zero_point: 112
  '@Sigmoid_/activation_25/Sigmoid_487:out0':
    qtype: u8
    quantizer: asymmetric_affine
    rounding: rtne
    max_value: 0.8875317573547363
    min_value: 0.0
    scale: 0.003480516606941819
    zero_point: 0
  '@Sub_/activation_25/Sub_489:out0':
    qtype: u8
    quantizer: asymmetric_affine
    rounding: rtne
    max_value: 2.065772771835327
    min_value: -3.416125774383545
    scale: 0.021497640758752823
    zero_point: 159
  '@Add_/Add_239_491:out0':
    qtype: u8
    quantizer: asymmetric_affine
    rounding: rtne
    max_value: 0.16937166452407837
    min_value: -0.17899081110954285
    scale: 0.0013661273987963796
    zero_point: 131
  '@Conv_/pointwise_conv2_26/Conv_493:out0':
    qtype: u8
    quantizer: asymmetric_affine
    rounding: rtne
    max_value: 0.03448135405778885
    min_value: -0.03502572327852249
    scale: 0.0002725767844822258
    zero_point: 128
  '@Mul_/feed_forward2/activation_13/Mul_494:out0':
    qtype: u8
    quantizer: asymmetric_affine
    rounding: rtne
    max_value: 0.7744832038879395
    min_value: -0.12002827227115631
    scale: 0.003507888177409768
    zero_point: 34
  '@Transpose_/Transpose_166_496:out0':
    qtype: u8
    quantizer: asymmetric_affine
    rounding: rtne
    max_value: 0.5754114389419556
    min_value: -0.39513421058654785
    scale: 0.0038060613442212343
    zero_point: 104
  '@Concat_/Concat_279_497:out0':
    qtype: u8
    quantizer: asymmetric_affine
    rounding: rtne
    max_value: 10.033247947692871
    min_value: -4.366854667663574
    scale: 0.05647099018096924
    zero_point: 77
  '@Mul_/Mul_152_498:out0':
    qtype: u8
    quantizer: asymmetric_affine
    rounding: rtne
    max_value: 10.033247947692871
    min_value: -4.366854667663574
    scale: 0.05647099018096924
    zero_point: 77
  '@Add_/Add_252_500:out0':
    qtype: u8
    quantizer: asymmetric_affine
    rounding: rtne
    max_value: 0.15744060277938843
    min_value: -0.1642777919769287
    scale: 0.0012616408057510853
    zero_point: 130
  '@Mul_/activation_28/Mul_504:out0':
    qtype: u8
    quantizer: asymmetric_affine
    rounding: rtne
    max_value: 1.9087905883789062
    min_value: -0.12002541869878769
    scale: 0.007956140674650669
    zero_point: 15
  '@Sigmoid_/feed_forward2/activation_14/Sigmoid_506:out0':
    qtype: u8
    quantizer: asymmetric_affine
    rounding: rtne
    max_value: 0.9961752891540527
    min_value: 0.0
    scale: 0.00390656990930438
    zero_point: 0
  '@MatMul_/MatMul_74_507:out0':
    qtype: u8
    quantizer: asymmetric_affine
    rounding: rtne
    max_value: 0.87061607837677
    min_value: -0.24171224236488342
    scale: 0.004362071864306927
    zero_point: 55
  '@Gather_/Gather_305_508:out0':
    qtype: u8
    quantizer: asymmetric_affine
    rounding: rtne
    max_value: 8.998272895812988
    min_value: -5.831961154937744
    scale: 0.0581577830016613
    zero_point: 100
  '@Sigmoid_/Sigmoid_29_509:out0':
    qtype: u8
    quantizer: asymmetric_affine
    rounding: rtne
    max_value: 0.9998855590820312
    min_value: 0.0
    scale: 0.003921119961887598
    zero_point: 0
  '@Conv_/encoder_embed/conv/conv.0/Conv_510:out0':
    qtype: u8
    quantizer: asymmetric_affine
    rounding: rtne
    max_value: 2.4159770011901855
    min_value: -3.3135433197021484
    scale: 0.022468706592917442
    zero_point: 147
  '@Sub_/encoder_embed/conv/conv.2/Sub_511:out0':
    qtype: u8
    quantizer: asymmetric_affine
    rounding: rtne
    max_value: 1.4159770011901855
    min_value: -4.313543319702148
    scale: 0.022468706592917442
    zero_point: 192
  '@Add_/Add_512:out0':
    qtype: u8
    quantizer: asymmetric_affine
    rounding: rtne
    max_value: 0.6683264970779419
    min_value: -0.976844310760498
    scale: 0.006451650056988001
    zero_point: 151
  '@Mul_/activation/Mul_516:out0':
    qtype: u8
    quantizer: asymmetric_affine
    rounding: rtne
    max_value: 7.581916809082031
    min_value: -0.12002813816070557
    scale: 0.03020370565354824
    zero_point: 4
  '@Sigmoid_/feed_forward2/activation/Sigmoid_518:out0':
    qtype: u8
    quantizer: asymmetric_affine
    rounding: rtne
    max_value: 0.9964369535446167
    min_value: 0.0
    scale: 0.003907595761120319
    zero_point: 0
  '@MatMul_/MatMul_4_519:out0':
    qtype: u8
    quantizer: asymmetric_affine
    rounding: rtne
    max_value: 2.026636838912964
    min_value: -1.763482928276062
    scale: 0.014863214455544949
    zero_point: 119
  '@Gather_/Gather_7_520:out0':
    qtype: u8
    quantizer: asymmetric_affine
    rounding: rtne
    max_value: 14.202630043029785
    min_value: -12.797292709350586
    scale: 0.10588205605745316
    zero_point: 121
  '@Sigmoid_/Sigmoid_1_521:out0':
    qtype: u8
    quantizer: asymmetric_affine
    rounding: rtne
    max_value: 0.999993085861206
    min_value: 0.0
    scale: 0.0039215413853526115
    zero_point: 0
  '@Split_/Split_1_522:out0':
    qtype: u8
    quantizer: asymmetric_affine
    rounding: rtne
    max_value: 18.010618209838867
    min_value: -17.370859146118164
    scale: 0.13875089585781097
    zero_point: 125
  '@Split_/Split_1_522:out1':
    qtype: u8
    quantizer: asymmetric_affine
    rounding: rtne
    max_value: 18.010618209838867
    min_value: -17.370859146118164
    scale: 0.13875089585781097
    zero_point: 125
  '@Mul_/Mul_13_524:out0':
    qtype: u8
    quantizer: asymmetric_affine
    rounding: rtne
    max_value: 0.06944072991609573
    min_value: -0.09305668622255325
    scale: 0.000637244782410562
    zero_point: 146
  '@Reshape_/Reshape_19_526:out0':
    qtype: u8
    quantizer: asymmetric_affine
    rounding: rtne
    max_value: 1.105989694595337
    min_value: -0.8663697242736816
    scale: 0.007734742946922779
    zero_point: 112
  '@Conv_/depthwise_conv_2/Conv_528:out0':
    qtype: u8
    quantizer: asymmetric_affine
    rounding: rtne
    max_value: 3.27420711517334
    min_value: -6.7823638916015625
    scale: 0.03943753242492676
    zero_point: 172
  '@Sigmoid_/activation_2/Sigmoid_529:out0':
    qtype: u8
    quantizer: asymmetric_affine
    rounding: rtne
    max_value: 0.9067182540893555
    min_value: 0.0
    scale: 0.00355575792491436
    zero_point: 0
  '@Sub_/feed_forward2/activation_1/Sub_532:out0':
    qtype: u8
    quantizer: asymmetric_affine
    rounding: rtne
    max_value: 2.5282864570617676
    min_value: -6.300000190734863
    scale: 0.0346207320690155
    zero_point: 182
  '@Softmax_/Softmax_1_533:out0':
    qtype: u8
    quantizer: asymmetric_affine
    rounding: rtne
    max_value: 0.9731068015098572
    min_value: 0.0
    scale: 0.003816105192527175
    zero_point: 0
  '@Transpose_/Transpose_21_534:out0':
    qtype: u8
    quantizer: asymmetric_affine
    rounding: rtne
    max_value: 1.9402775764465332
    min_value: -2.3416004180908203
    scale: 0.016791678965091705
    zero_point: 139
  '@Reshape_cached_conv2_0_reshaped_535:out0':
    qtype: u8
    quantizer: asymmetric_affine
    rounding: rtne
    max_value: 14.202630043029785
    min_value: -12.797292709350586
    scale: 0.10588205605745316
    zero_point: 121
  '@Split_/Split_3_537:out0':
    qtype: u8
    quantizer: asymmetric_affine
    rounding: rtne
    max_value: 15.064976692199707
    min_value: -12.875349044799805
    scale: 0.10956990718841553
    zero_point: 118
  '@Split_/Split_3_537:out1':
    qtype: u8
    quantizer: asymmetric_affine
    rounding: rtne
    max_value: 15.064976692199707
    min_value: -12.875349044799805
    scale: 0.10956990718841553
    zero_point: 118
  '@Conv_/pointwise_conv1_3/Conv_538:out0':
    qtype: u8
    quantizer: asymmetric_affine
    rounding: rtne
    max_value: 15.064976692199707
    min_value: -12.875349044799805
    scale: 0.10956990718841553
    zero_point: 118
  '@Add_/Add_52_540:out0':
    qtype: u8
    quantizer: asymmetric_affine
    rounding: rtne
    max_value: 0.8171932697296143
    min_value: -0.7243988513946533
    scale: 0.006045459304004908
    zero_point: 120
  '@Add_/norm_final_2/Add_541:out0':
    qtype: u8
    quantizer: asymmetric_affine
    rounding: rtne
    max_value: 5.4615254402160645
    min_value: 0.0
    scale: 0.02141774632036686
    zero_point: 0
  '@Add_/Add_69_543:out0':
    qtype: u8
    quantizer: asymmetric_affine
    rounding: rtne
    max_value: 0.5134771466255188
    min_value: -0.4281669855117798
    scale: 0.0036927221808582544
    zero_point: 116
  '@Add_/Add_86_547:out0':
    qtype: u8
    quantizer: asymmetric_affine
    rounding: rtne
    max_value: 0.5824644565582275
    min_value: -0.49898794293403625
    scale: 0.004240989685058594
    zero_point: 118
  '@Transpose_/Transpose_60_548:out0':
    qtype: u8
    quantizer: asymmetric_affine
    rounding: rtne
    max_value: 0.2823501229286194
    min_value: -0.2739042341709137
    scale: 0.0021813898347318172
    zero_point: 126
  '@Mul_/norm_final_4/Mul_551:out0':
    qtype: u8
    quantizer: asymmetric_affine
    rounding: rtne
    max_value: 0.6085517406463623
    min_value: 0.0
    scale: 0.0023864773102104664
    zero_point: 0
  '@Add_/Add_102_552:out0':
    qtype: u8
    quantizer: asymmetric_affine
    rounding: rtne
    max_value: 0.33120787143707275
    min_value: -0.399089515209198
    scale: 0.0028639112133532763
    zero_point: 139
  '@Conv_/pointwise_conv2_11/Conv_554:out0':
    qtype: u8
    quantizer: asymmetric_affine
    rounding: rtne
    max_value: 0.1472000628709793
    min_value: -0.1929207146167755
    scale: 0.0013338070129975677
    zero_point: 145
  '@Mul_/feed_forward3/activation_5/Mul_555:out0':
    qtype: u8
    quantizer: asymmetric_affine
    rounding: rtne
    max_value: 4.918543338775635
    min_value: -0.12002824991941452
    scale: 0.019759103655815125
    zero_point: 6
  '@Sigmoid_/feed_forward3/activation_5/Sigmoid_557:out0':
    qtype: u8
    quantizer: asymmetric_affine
    rounding: rtne
    max_value: 0.9821531176567078
    min_value: 0.0
    scale: 0.003851580899208784
    zero_point: 0
  '@Sub_/feed_forward3/activation_5/Sub_558:out0':
    qtype: u8
    quantizer: asymmetric_affine
    rounding: rtne
    max_value: 4.0079193115234375
    min_value: -6.300000190734863
    scale: 0.04042321443557739
    zero_point: 156
  '@Reshape_/downsample_1/Reshape_559:out0':
    qtype: u8
    quantizer: asymmetric_affine
    rounding: rtne
    max_value: 0.15731555223464966
    min_value: -0.1513872891664505
    scale: 0.0012105993228033185
    zero_point: 125
  '@Softmax_/downsample_1/Softmax_560:out0':
    qtype: u8
    quantizer: asymmetric_affine
    rounding: rtne
    max_value: 0.33898887038230896
    min_value: 0.0
    scale: 0.0013293680967763066
    zero_point: 0
  '@Mul_/norm_final_6/Mul_1_561:out0':
    qtype: u8
    quantizer: asymmetric_affine
    rounding: rtne
    max_value: 0.11673111468553543
    min_value: -0.10235871374607086
    scale: 0.0008591758087277412
    zero_point: 119
  '@Pow_/norm_final_6/Pow_562:out0':
    qtype: u8
    quantizer: asymmetric_affine
    rounding: rtne
    max_value: 0.3147923946380615
    min_value: 0.0
    scale: 0.0012344799470156431
    zero_point: 0
  '@Add_/Add_142_563:out0':
    qtype: u8
    quantizer: asymmetric_affine
    rounding: rtne
    max_value: 0.3163442611694336
    min_value: -0.32048702239990234
    scale: 0.002497377572581172
    zero_point: 128
  '@Add_/norm_final_7/Add_564:out0':
    qtype: u8
    quantizer: asymmetric_affine
    rounding: rtne
    max_value: 10.41788387298584
    min_value: 0.0
    scale: 0.04085444658994675
    zero_point: 0
  '@Add_/Add_159_566:out0':
    qtype: u8
    quantizer: asymmetric_affine
    rounding: rtne
    max_value: 0.17956794798374176
    min_value: -0.20899340510368347
    scale: 0.001523770042695105
    zero_point: 137
  '@Mul_/norm_final_8/Mul_570:out0':
    qtype: u8
    quantizer: asymmetric_affine
    rounding: rtne
    max_value: 0.0922522246837616
    min_value: 0.0
    scale: 0.0003617734182626009
    zero_point: 0
  '@Initializer_encoder.encoders.3.downsample.query_571:out0':
    qtype: u8
    quantizer: asymmetric_affine
    rounding: rtne
    max_value: 2.7070860862731934
    min_value: -1.3908401727676392
    scale: 0.016070298850536346
    zero_point: 87
  '@Add_/Add_176_572:out0':
    qtype: u8
    quantizer: asymmetric_affine
    rounding: rtne
    max_value: 0.22978663444519043
    min_value: -0.24686643481254578
    scale: 0.0018692277371883392
    zero_point: 132
  '@Transpose_/Transpose_120_573:out0':
    qtype: u8
    quantizer: asymmetric_affine
    rounding: rtne
    max_value: 0.05153892561793327
    min_value: -0.04950043186545372
    scale: 0.000396232760977
    zero_point: 125
  '@Mul_/norm_final_9/Mul_576:out0':
    qtype: u8
    quantizer: asymmetric_affine
    rounding: rtne
    max_value: 0.09098406881093979
    min_value: 0.0
    scale: 0.00035680027212947607
    zero_point: 0
  '@Add_/Add_191_577:out0':
    qtype: u8
    quantizer: asymmetric_affine
    rounding: rtne
    max_value: 0.0940198302268982
    min_value: -0.08000053465366364
    scale: 0.0006824327865615487
    zero_point: 117
  '@Mul_/activation_21/Mul_581:out0':
    qtype: u8
    quantizer: asymmetric_affine
    rounding: rtne
    max_value: 0.3919965922832489
    min_value: -0.11722943186759949
    scale: 0.0019969649147242308
    zero_point: 59
  '@Sigmoid_/feed_forward3/activation_10/Sigmoid_583:out0':
    qtype: u8
    quantizer: asymmetric_affine
    rounding: rtne
    max_value: 0.6149724721908569
    min_value: 0.0
    scale: 0.002411656780168414
    zero_point: 0
  '@Sub_/feed_forward3/activation_10/Sub_584:out0':
    qtype: u8
    quantizer: asymmetric_affine
    rounding: rtne
    max_value: 0.4682626724243164
    min_value: -4.421322822570801
    scale: 0.0191748458892107
    zero_point: 231
  '@Add_/Add_208_586:out0':
    qtype: u8
    quantizer: asymmetric_affine
    rounding: rtne
    max_value: 0.1314055621623993
    min_value: -0.1059022918343544
    scale: 0.0009306190186180174
    zero_point: 114
  '@Transpose_/Transpose_140_587:out0':
    qtype: u8
    quantizer: asymmetric_affine
    rounding: rtne
    max_value: 0.05626135692000389
    min_value: -0.0694342628121376
    scale: 0.00049292400944978
    zero_point: 141
  '@Reshape_/Reshape_131_590:out0':
    qtype: u8
    quantizer: asymmetric_affine
    rounding: rtne
    max_value: 0.6311936974525452
    min_value: -0.5706249475479126
    scale: 0.004713014699518681
    zero_point: 121
  '@Conv_/depthwise_conv_23/Conv_592:out0':
    qtype: u8
    quantizer: asymmetric_affine
    rounding: rtne
    max_value: 3.7782206535339355
    min_value: -2.364246368408203
    scale: 0.02408810518682003
    zero_point: 98
  '@Sigmoid_/activation_23/Sigmoid_593:out0':
    qtype: u8
    quantizer: asymmetric_affine
    rounding: rtne
    max_value: 0.9414875507354736
    min_value: 0.0
    scale: 0.0036921079736202955
    zero_point: 0
  '@Sub_/activation_23/Sub_595:out0':
    qtype: u8
    quantizer: asymmetric_affine
    rounding: rtne
    max_value: 2.7782206535339355
    min_value: -3.364246368408203
    scale: 0.02408810518682003
    zero_point: 140
  '@Add_/Add_221_597:out0':
    qtype: u8
    quantizer: asymmetric_affine
    rounding: rtne
    max_value: 0.17071349918842316
    min_value: -0.13559985160827637
    scale: 0.0012012288207188249
    zero_point: 113
  '@Conv_/pointwise_conv2_24/Conv_599:out0':
    qtype: u8
    quantizer: asymmetric_affine
    rounding: rtne
    max_value: 0.060499828308820724
    min_value: -0.06362336874008179
    scale: 0.00048675766447559
    zero_point: 131
  '@Mul_/feed_forward2/activation_12/Mul_600:out0':
    qtype: u8
    quantizer: asymmetric_affine
    rounding: rtne
    max_value: 0.6112192273139954
    min_value: -0.12002826482057571
    scale: 0.002867637202143669
    zero_point: 42
  '@Transpose_/Transpose_154_602:out0':
    qtype: u8
    quantizer: asymmetric_affine
    rounding: rtne
    max_value: 0.7878163456916809
    min_value: -0.41996538639068604
    scale: 0.004736399278044701
    zero_point: 89
  '@Concat_/Concat_261_603:out0':
    qtype: u8
    quantizer: asymmetric_affine
    rounding: rtne
    max_value: 5.460455417633057
    min_value: -5.693486213684082
    scale: 0.043740950524806976
    zero_point: 130
  '@Mul_/Mul_141_604:out0':
    qtype: u8
    quantizer: asymmetric_affine
    rounding: rtne
    max_value: 5.460455417633057
    min_value: -5.693486213684082
    scale: 0.043740950524806976
    zero_point: 130
  '@Add_/Add_234_606:out0':
    qtype: u8
    quantizer: asymmetric_affine
    rounding: rtne
    max_value: 0.16497889161109924
    min_value: -0.17715352773666382
    scale: 0.001341695780865848
    zero_point: 132
  '@Mul_/activation_26/Mul_610:out0':
    qtype: u8
    quantizer: asymmetric_affine
    rounding: rtne
    max_value: 1.188443660736084
    min_value: -0.11934734880924225
    scale: 0.005128592252731323
    zero_point: 23
  '@Sigmoid_/feed_forward2/activation_13/Sigmoid_612:out0':
    qtype: u8
    quantizer: asymmetric_affine
    rounding: rtne
    max_value: 0.581959068775177
    min_value: 0.0
    scale: 0.002282192464917898
    zero_point: 0
  '@MatMul_/MatMul_69_613:out0':
    qtype: u8
    quantizer: asymmetric_affine
    rounding: rtne
    max_value: 0.5754114389419556
    min_value: -0.39513421058654785
    scale: 0.0038060613442212343
    zero_point: 104
  '@Gather_/Gather_284_614:out0':
    qtype: u8
    quantizer: asymmetric_affine
    rounding: rtne
    max_value: 8.998272895812988
    min_value: -5.831961154937744
    scale: 0.0581577830016613
    zero_point: 100
  '@Sigmoid_/Sigmoid_27_615:out0':
    qtype: u8
    quantizer: asymmetric_affine
    rounding: rtne
    max_value: 0.9998494982719421
    min_value: 0.0
    scale: 0.0039209784008562565
    zero_point: 0
  '@Split_/Split_27_616:out0':
    qtype: u8
    quantizer: asymmetric_affine
    rounding: rtne
    max_value: 11.602537155151367
    min_value: -14.447275161743164
    scale: 0.1021561250090599
    zero_point: 141
  '@Split_/Split_27_616:out1':
    qtype: u8
    quantizer: asymmetric_affine
    rounding: rtne
    max_value: 11.602537155151367
    min_value: -14.447275161743164
    scale: 0.1021561250090599
    zero_point: 141
  '@Mul_/Mul_156_618:out0':
    qtype: u8
    quantizer: asymmetric_affine
    rounding: rtne
    max_value: 0.023388268426060677
    min_value: -0.027212927117943764
    scale: 0.00019843605696223676
    zero_point: 137
  '@Reshape_/Reshape_162_620:out0':
    qtype: u8
    quantizer: asymmetric_affine
    rounding: rtne
    max_value: 0.8319120407104492
    min_value: -0.4191229045391083
    scale: 0.004906019661575556
    zero_point: 85
  '@Conv_/depthwise_conv_28/Conv_622:out0':
    qtype: u8
    quantizer: asymmetric_affine
    rounding: rtne
    max_value: 2.38608717918396
    min_value: -2.339369535446167
    scale: 0.018531203269958496
    zero_point: 126
  '@Sigmoid_/activation_28/Sigmoid_623:out0':
    qtype: u8
    quantizer: asymmetric_affine
    rounding: rtne
    max_value: 0.7999668121337891
    min_value: 0.0
    scale: 0.003137124702334404
    zero_point: 0
  '@Sub_/feed_forward2/activation_14/Sub_626:out0':
    qtype: u8
    quantizer: asymmetric_affine
    rounding: rtne
    max_value: 5.562442779541016
    min_value: -6.300000190734863
    scale: 0.046519383788108826
    zero_point: 135
  '@Softmax_/Softmax_14_627:out0':
    qtype: u8
    quantizer: asymmetric_affine
    rounding: rtne
    max_value: 0.8737421631813049
    min_value: 0.0
    scale: 0.0034264398273080587
    zero_point: 0
  '@Transpose_/Transpose_177_628:out0':
    qtype: u8
    quantizer: asymmetric_affine
    rounding: rtne
    max_value: 0.9216746091842651
    min_value: -0.3640749454498291
    scale: 0.005042155273258686
    zero_point: 72
  '@Reshape_cached_conv2_4_reshaped_629:out0':
    qtype: u8
    quantizer: asymmetric_affine
    rounding: rtne
    max_value: 8.998272895812988
    min_value: -5.831961154937744
    scale: 0.0581577830016613
    zero_point: 100
  '@Split_/Split_29_631:out0':
    qtype: u8
    quantizer: asymmetric_affine
    rounding: rtne
    max_value: 13.710065841674805
    min_value: -14.061485290527344
    scale: 0.1089080423116684
    zero_point: 129
  '@Split_/Split_29_631:out1':
    qtype: u8
    quantizer: asymmetric_affine
    rounding: rtne
    max_value: 13.710065841674805
    min_value: -14.061485290527344
    scale: 0.1089080423116684
    zero_point: 129
  '@Unsqueeze_/encoder_embed/Unsqueeze_632:out0':
    qtype: u8
    quantizer: asymmetric_affine
    rounding: rtne
    max_value: 2.7695724964141846
    min_value: -2.6777210235595703
    scale: 0.021361934021115303
    zero_point: 125
  '@Conv_/pointwise_conv1_29/Conv_633:out0':
    qtype: u8
    quantizer: asymmetric_affine
    rounding: rtne
    max_value: 13.710065841674805
    min_value: -14.061485290527344
    scale: 0.1089080423116684
    zero_point: 129
  '@Mul_/Mul_2_637:out0':
    qtype: u8
    quantizer: asymmetric_affine
    rounding: rtne
    max_value: 0.07503364235162735
    min_value: -0.12546537816524506
    scale: 0.0007862707134336233
    zero_point: 160
  '@Reshape_/Reshape_8_639:out0':
    qtype: u8
    quantizer: asymmetric_affine
    rounding: rtne
    max_value: 2.1236324310302734
    min_value: -2.1166539192199707
    scale: 0.016628574579954147
    zero_point: 127
  '@Conv_/depthwise_conv/Conv_641:out0':
    qtype: u8
    quantizer: asymmetric_affine
    rounding: rtne
    max_value: 7.592310905456543
    min_value: -11.385191917419434
    scale: 0.07442157715559006
    zero_point: 153
  '@Sigmoid_/activation/Sigmoid_642:out0':
    qtype: u8
    quantizer: asymmetric_affine
    rounding: rtne
    max_value: 0.9986310005187988
    min_value: 0.0
    scale: 0.0039161997847259045
    zero_point: 0
  '@Sub_/feed_forward2/activation/Sub_645:out0':
    qtype: u8
    quantizer: asymmetric_affine
    rounding: rtne
    max_value: 5.633556365966797
    min_value: -6.300000190734863
    scale: 0.04679826274514198
    zero_point: 135
  '@Softmax_/Softmax_646:out0':
    qtype: u8
    quantizer: asymmetric_affine
    rounding: rtne
    max_value: 0.9995591044425964
    min_value: 0.0
    scale: 0.003919839393347502
    zero_point: 0
  '@Transpose_/Transpose_9_647:out0':
    qtype: u8
    quantizer: asymmetric_affine
    rounding: rtne
    max_value: 2.391578435897827
    min_value: -2.6509881019592285
    scale: 0.019774770364165306
    zero_point: 134
  '@Reshape_/Reshape_9_648:out0':
    qtype: u8
    quantizer: asymmetric_affine
    rounding: rtne
    max_value: 2.391578435897827
    min_value: -2.6509881019592285
    scale: 0.019774770364165306
    zero_point: 134
  '@Conv_/pointwise_conv1_1/Conv_650:out0':
    qtype: u8
    quantizer: asymmetric_affine
    rounding: rtne
    max_value: 18.010618209838867
    min_value: -17.370859146118164
    scale: 0.13875089585781097
    zero_point: 125
  '@Add_/Add_19_653:out0':
    qtype: u8
    quantizer: asymmetric_affine
    rounding: rtne
    max_value: 5.555258274078369
    min_value: -7.444534778594971
    scale: 0.050979580730199814
    zero_point: 146
  '@Constant__Unsqueeze_38__Unsqueeze_38_output_0_as_const_654:out0':
    qtype: u8
    quantizer: asymmetric_affine
    rounding: rtne
    max_value: 0.015384615398943424
    min_value: 0.0
    scale: 6.033182580722495e-05
    zero_point: 0
  '@Transpose_/Transpose_18_655:out0':
    qtype: u8
    quantizer: asymmetric_affine
    rounding: rtne
    max_value: 1.105989694595337
    min_value: -0.8663697242736816
    scale: 0.007734742946922779
    zero_point: 112
  '@Concat_/Concat_31_656:out0':
    qtype: u8
    quantizer: asymmetric_affine
    rounding: rtne
    max_value: 10.284109115600586
    min_value: -9.283137321472168
    scale: 0.07673429697751999
    zero_point: 121
  '@Sub_/activation_2/Sub_657:out0':
    qtype: u8
    quantizer: asymmetric_affine
    rounding: rtne
    max_value: 2.27420711517334
    min_value: -6.300000190734863
    scale: 0.03362434357404709
    zero_point: 187
  '@Mul_/Mul_18_660:out0':
    qtype: u8
    quantizer: asymmetric_affine
    rounding: rtne
    max_value: 10.284109115600586
    min_value: -9.283137321472168
    scale: 0.07673429697751999
    zero_point: 121
  '@Reshape_/Reshape_18_662:out0':
    qtype: u8
    quantizer: asymmetric_affine
    rounding: rtne
    max_value: 13.838600158691406
    min_value: -4.4062700271606445
    scale: 0.07154850661754608
    zero_point: 62
  '@Reshape_/Reshape_20_663:out0':
    qtype: u8
    quantizer: asymmetric_affine
    rounding: rtne
    max_value: 1.9402775764465332
    min_value: -2.3416004180908203
    scale: 0.016791678965091705
    zero_point: 139
  '@Concat_/Concat_32_664:out0':
    qtype: u8
    quantizer: asymmetric_affine
    rounding: rtne
    max_value: 1.9402775764465332
    min_value: -2.3416004180908203
    scale: 0.016791678965091705
    zero_point: 139
  '@Mul_/downsample/Mul_666:out0':
    qtype: u8
    quantizer: asymmetric_affine
    rounding: rtne
    max_value: 0.1734444499015808
    min_value: -0.10033604502677917
    scale: 0.0010736490366980433
    zero_point: 93
  '@Add_/Add_51_667:out0':
    qtype: u8
    quantizer: asymmetric_affine
    rounding: rtne
    max_value: 0.8646208047866821
    min_value: -0.5762335062026978
    scale: 0.005650409031659365
    zero_point: 102
  '@Add_/Add_68_671:out0':
    qtype: u8
    quantizer: asymmetric_affine
    rounding: rtne
    max_value: 0.5025473237037659
    min_value: -0.4750690758228302
    scale: 0.0038337898440659046
    zero_point: 124
  '@Transpose_/Transpose_48_672:out0':
    qtype: u8
    quantizer: asymmetric_affine
    rounding: rtne
    max_value: 0.12198854982852936
    min_value: -0.12364311516284943
    scale: 0.0009632614091970026
    zero_point: 128
  '@Mul_/norm_final_3/Mul_675:out0':
    qtype: u8
    quantizer: asymmetric_affine
    rounding: rtne
    max_value: 0.29738375544548035
    min_value: 0.0
    scale: 0.0011662108590826392
    zero_point: 0
  '@Add_/Add_84_676:out0':
    qtype: u8
    quantizer: asymmetric_affine
    rounding: rtne
    max_value: 0.5532407164573669
    min_value: -0.46106481552124023
    scale: 0.003977668937295675
    zero_point: 116
  '@Conv_/pointwise_conv2_9/Conv_678:out0':
    qtype: u8
    quantizer: asymmetric_affine
    rounding: rtne
    max_value: 0.2823501229286194
    min_value: -0.2739042341709137
    scale: 0.0021813898347318172
    zero_point: 126
  '@Mul_/feed_forward3/activation_4/Mul_679:out0':
    qtype: u8
    quantizer: asymmetric_affine
    rounding: rtne
    max_value: 3.5463743209838867
    min_value: -0.12002824246883392
    scale: 0.014378049410879612
    zero_point: 8
  '@Sigmoid_/feed_forward3/activation_4/Sigmoid_681:out0':
    qtype: u8
    quantizer: asymmetric_affine
    rounding: rtne
    max_value: 0.9409692883491516
    min_value: 0.0
    scale: 0.003690075594931841
    zero_point: 0
  '@Sub_/feed_forward3/activation_4/Sub_682:out0':
    qtype: u8
    quantizer: asymmetric_affine
    rounding: rtne
    max_value: 2.768852472305298
    min_value: -6.300000190734863
    scale: 0.035564128309488297
    zero_point: 177
  '@Add_/Add_101_683:out0':
    qtype: u8
    quantizer: asymmetric_affine
    rounding: rtne
    max_value: 0.28579631447792053
    min_value: -0.28029772639274597
    scale: 0.0022199766244739294
    zero_point: 126
  '@Mul_/activation_11/Mul_687:out0':
    qtype: u8
