# !!!This file disallow TABs!!!
version: 2
quantize_parameters:
  '@attach_Add_Add_886/out0_0:out0':
    qtype: u8
    quantizer: asymmetric_affine
    rounding: rtne
    max_value: 3.730527400970459
    min_value: -17.70391845703125
    scale: 0.08405665308237076
    zero_point: 211
  '@Add_Add_884_4:out0':
    qtype: u8
    quantizer: asymmetric_affine
    rounding: rtne
    max_value: 0.6957293748855591
    min_value: -1.119384765625
    scale: 0.007118094712495804
    zero_point: 157
  '@Add_Add_872_6:out0':
    qtype: u8
    quantizer: asymmetric_affine
    rounding: rtne
    max_value: 23.23853302001953
    min_value: -25.62109375
    scale: 0.19160637259483337
    zero_point: 134
  '@Add_Add_859_8:out0':
    qtype: u8
    quantizer: asymmetric_affine
    rounding: rtne
    max_value: 1.8229116201400757
    min_value: -7.412501811981201
    scale: 0.03621730953454971
    zero_point: 205
  '@Add_Add_847_11:out0':
    qtype: u8
    quantizer: asymmetric_affine
    rounding: rtne
    max_value: 3.714787483215332
    min_value: -4.803869247436523
    scale: 0.03340649604797363
    zero_point: 144
  '@Mul_Mul_869_13:out0':
    qtype: u8
    quantizer: asymmetric_affine
    rounding: rtne
    max_value: 1.9954181909561157
    min_value: -0.16997124254703522
    scale: 0.00849172379821539
    zero_point: 20
  '@Add_Add_820_15:out0':
    qtype: u8
    quantizer: asymmetric_affine
    rounding: rtne
    max_value: 1.7121315002441406
    min_value: -2.317490816116333
    scale: 0.01580243930220604
    zero_point: 147
  '@Add_Add_808_20:out0':
    qtype: u8
    quantizer: asymmetric_affine
    rounding: rtne
    max_value: 25.32765007019043
    min_value: -13.826841354370117
    scale: 0.1535470187664032
    zero_point: 90
  '@Reshape_Reshape_844_22:out0':
    qtype: u8
    quantizer: asymmetric_affine
    rounding: rtne
    max_value: 0.9830615520477295
    min_value: -1.0376497507095337
    scale: 0.007924358360469341
    zero_point: 131
  '@Transpose_Transpose_843_25:out0':
    qtype: u8
    quantizer: asymmetric_affine
    rounding: rtne
    max_value: 0.9830615520477295
    min_value: -1.0376497507095337
    scale: 0.007924358360469341
    zero_point: 131
  '@Add_Add_795_27:out0':
    qtype: u8
    quantizer: asymmetric_affine
    rounding: rtne
    max_value: 5.753369331359863
    min_value: -9.232024192810059
    scale: 0.05876624956727028
    zero_point: 157
  '@Reshape_Reshape_842_30:out0':
    qtype: u8
    quantizer: asymmetric_affine
    rounding: rtne
    max_value: 0.9830615520477295
    min_value: -1.0376497507095337
    scale: 0.007924358360469341
    zero_point: 131
  '@Add_Add_783_31:out0':
    qtype: u8
    quantizer: asymmetric_affine
    rounding: rtne
    max_value: 2.7222561836242676
    min_value: -3.3065643310546875
    scale: 0.023642433807253838
    zero_point: 140
  '@Mul_Mul_805_33:out0':
    qtype: u8
    quantizer: asymmetric_affine
    rounding: rtne
    max_value: 1.5032228231430054
    min_value: -0.16997124254703522
    scale: 0.006561545189470053
    zero_point: 26
  '@MatMul_MatMul_841_35:out0':
    qtype: u8
    quantizer: asymmetric_affine
    rounding: rtne
    max_value: 0.9830615520477295
    min_value: -1.0376497507095337
    scale: 0.007924358360469341
    zero_point: 131
  '@Add_Add_756_36:out0':
    qtype: u8
    quantizer: asymmetric_affine
    rounding: rtne
    max_value: 0.9867223501205444
    min_value: -1.936484694480896
    scale: 0.011463557370007038
    zero_point: 169
  '@Softmax_Softmax_840_41:out0':
    qtype: u8
    quantizer: asymmetric_affine
    rounding: rtne
    max_value: 0.0019502924988046288
    min_value: 0.0
    scale: 7.64820561016676e-06
    zero_point: 0
  '@Reshape_Reshape_837_42:out0':
    qtype: u8
    quantizer: asymmetric_affine
    rounding: rtne
    max_value: 1.0724519491195679
    min_value: -1.1237496137619019
    scale: 0.00861255545169115
    zero_point: 130
  '@Add_Add_744_43:out0':
    qtype: u8
    quantizer: asymmetric_affine
    rounding: rtne
    max_value: 32.539527893066406
    min_value: -9.591157913208008
    scale: 0.16521836817264557
    zero_point: 58
  '@Reshape_Reshape_780_45:out0':
    qtype: u8
    quantizer: asymmetric_affine
    rounding: rtne
    max_value: 0.7954156398773193
    min_value: -0.9373571872711182
    scale: 0.0067951874807477
    zero_point: 138
  '@Transpose_Transpose_779_48:out0':
    qtype: u8
    quantizer: asymmetric_affine
    rounding: rtne
    max_value: 0.7954156398773193
    min_value: -0.9373571872711182
    scale: 0.0067951874807477
    zero_point: 138
  '@Transpose_Transpose_832_51:out0':
    qtype: u8
    quantizer: asymmetric_affine
    rounding: rtne
    max_value: 1.0724519491195679
    min_value: -1.1237496137619019
    scale: 0.00861255545169115
    zero_point: 130
  '@Add_Add_731_52:out0':
    qtype: u8
    quantizer: asymmetric_affine
    rounding: rtne
    max_value: 1.1812411546707153
    min_value: -7.027912616729736
    scale: 0.032192762941122055
    zero_point: 218
  '@Reshape_Reshape_778_55:out0':
    qtype: u8
    quantizer: asymmetric_affine
    rounding: rtne
    max_value: 0.7954156398773193
    min_value: -0.9373571872711182
    scale: 0.0067951874807477
    zero_point: 138
  '@Reshape_Reshape_835_56:out0':
    qtype: u8
    quantizer: asymmetric_affine
    rounding: rtne
    max_value: 2.1715750694274902
    min_value: -2.370586633682251
    scale: 0.017812399193644524
    zero_point: 133
  '@Transpose_Transpose_838_57:out0':
    qtype: u8
    quantizer: asymmetric_affine
    rounding: rtne
    max_value: 21.48365020751953
    min_value: -21.7093448638916
    scale: 0.16938428580760956
    zero_point: 128
  '@Reshape_Reshape_831_58:out0':
    qtype: u8
    quantizer: asymmetric_affine
    rounding: rtne
    max_value: 1.0724519491195679
    min_value: -1.1237496137619019
    scale: 0.00861255545169115
    zero_point: 130
  '@Add_Add_719_59:out0':
    qtype: u8
    quantizer: asymmetric_affine
    rounding: rtne
    max_value: 1.5867774486541748
    min_value: -2.06634521484375
    scale: 0.014325970783829689
    zero_point: 144
  '@Mul_Mul_741_61:out0':
    qtype: u8
    quantizer: asymmetric_affine
    rounding: rtne
    max_value: 3.158353567123413
    min_value: -0.16997124254703522
    scale: 0.013052253983914852
    zero_point: 13
  '@MatMul_MatMul_777_63:out0':
    qtype: u8
    quantizer: asymmetric_affine
    rounding: rtne
    max_value: 0.7954156398773193
    min_value: -0.9373571872711182
    scale: 0.0067951874807477
    zero_point: 138
  '@Transpose_Transpose_834_64:out0':
    qtype: u8
    quantizer: asymmetric_affine
    rounding: rtne
    max_value: 2.1715750694274902
    min_value: -2.370586633682251
    scale: 0.017812399193644524
    zero_point: 133
  '@Reshape_Reshape_836_65:out0':
    qtype: u8
    quantizer: asymmetric_affine
    rounding: rtne
    max_value: 21.48365020751953
    min_value: -21.7093448638916
    scale: 0.16938428580760956
    zero_point: 128
  '@Add_Add_692_67:out0':
    qtype: u8
    quantizer: asymmetric_affine
    rounding: rtne
    max_value: 0.8089222311973572
    min_value: -1.8380697965621948
    scale: 0.010380360297858715
    zero_point: 177
  '@Softmax_Softmax_776_72:out0':
    qtype: u8
    quantizer: asymmetric_affine
    rounding: rtne
    max_value: 0.0043271491304039955
    min_value: 0.0
    scale: 1.6969212083495222e-05
    zero_point: 0
  '@Reshape_Reshape_773_73:out0':
    qtype: u8
    quantizer: asymmetric_affine
    rounding: rtne
    max_value: 1.2179510593414307
    min_value: -1.4052695035934448
    scale: 0.010287138633430004
    zero_point: 137
  '@Reshape_Reshape_833_74:out0':
    qtype: u8
    quantizer: asymmetric_affine
    rounding: rtne
    max_value: 2.1715750694274902
    min_value: -2.370586633682251
    scale: 0.017812399193644524
    zero_point: 133
  '@Transpose_Transpose_828_75:out0':
    qtype: u8
    quantizer: asymmetric_affine
    rounding: rtne
    max_value: 21.48365020751953
    min_value: -21.7093448638916
    scale: 0.16938428580760956
    zero_point: 128
  '@Add_Add_680_78:out0':
    qtype: u8
    quantizer: asymmetric_affine
    rounding: rtne
    max_value: 35.67575454711914
    min_value: -17.01674461364746
    scale: 0.20663724839687347
    zero_point: 82
  '@Reshape_Reshape_716_80:out0':
    qtype: u8
    quantizer: asymmetric_affine
    rounding: rtne
    max_value: 0.6809737086296082
    min_value: -0.8952858448028564
    scale: 0.006181410048156977
    zero_point: 145
  '@Transpose_Transpose_715_83:out0':
    qtype: u8
    quantizer: asymmetric_affine
    rounding: rtne
    max_value: 0.6809737086296082
    min_value: -0.8952858448028564
    scale: 0.006181410048156977
    zero_point: 145
  '@Transpose_Transpose_768_86:out0':
    qtype: u8
    quantizer: asymmetric_affine
    rounding: rtne
    max_value: 1.2179510593414307
    min_value: -1.4052695035934448
    scale: 0.010287138633430004
    zero_point: 137
  '@Mul_Mul_824_87:out0':
    qtype: u8
    quantizer: asymmetric_affine
    rounding: rtne
    max_value: 2.1715750694274902
    min_value: -2.370586633682251
    scale: 0.017812399193644524
    zero_point: 133
  '@Reshape_Reshape_827_88:out0':
    qtype: u8
    quantizer: asymmetric_affine
    rounding: rtne
    max_value: 21.48365020751953
    min_value: -21.7093448638916
    scale: 0.16938428580760956
    zero_point: 128
  '@Add_Add_667_91:out0':
    qtype: u8
    quantizer: asymmetric_affine
    rounding: rtne
    max_value: 2.0847649574279785
    min_value: -6.5221381187438965
    scale: 0.03375256061553955
    zero_point: 193
  '@Reshape_Reshape_714_94:out0':
    qtype: u8
    quantizer: asymmetric_affine
    rounding: rtne
    max_value: 0.6809737086296082
    min_value: -0.8952858448028564
    scale: 0.006181410048156977
    zero_point: 145
  '@Reshape_Reshape_771_95:out0':
    qtype: u8
    quantizer: asymmetric_affine
    rounding: rtne
    max_value: 0.34649163484573364
    min_value: -0.25471240282058716
    scale: 0.0023576628882437944
    zero_point: 108
  '@Transpose_Transpose_774_96:out0':
    qtype: u8
    quantizer: asymmetric_affine
    rounding: rtne
    max_value: 14.263322830200195
    min_value: -13.93310546875
    scale: 0.11057423055171967
    zero_point: 126
  '@Reshape_Reshape_767_97:out0':
    qtype: u8
    quantizer: asymmetric_affine
    rounding: rtne
    max_value: 1.2179510593414307
    min_value: -1.4052695035934448
    scale: 0.010287138633430004
    zero_point: 137
  '@Initializer_342_99:out0':
    qtype: u8
    quantizer: asymmetric_affine
    rounding: rtne
    max_value: 0.125
    min_value: 0.0
    scale: 0.0004901961074210703
    zero_point: 0
  '@Add_Add_655_102:out0':
    qtype: u8
    quantizer: asymmetric_affine
    rounding: rtne
    max_value: 3.145772933959961
    min_value: -4.0849690437316895
    scale: 0.028355851769447327
    zero_point: 144
  '@Mul_Mul_677_104:out0':
    qtype: u8
    quantizer: asymmetric_affine
    rounding: rtne
    max_value: 2.8449177742004395
    min_value: -0.16997124254703522
    scale: 0.011823094449937344
    zero_point: 14
  '@MatMul_MatMul_713_106:out0':
    qtype: u8
    quantizer: asymmetric_affine
    rounding: rtne
    max_value: 0.6809737086296082
    min_value: -0.8952858448028564
    scale: 0.006181410048156977
    zero_point: 145
  '@Transpose_Transpose_770_107:out0':
    qtype: u8
    quantizer: asymmetric_affine
    rounding: rtne
    max_value: 0.34649163484573364
    min_value: -0.25471240282058716
    scale: 0.0023576628882437944
    zero_point: 108
  '@Reshape_Reshape_772_108:out0':
    qtype: u8
    quantizer: asymmetric_affine
    rounding: rtne
    max_value: 14.263322830200195
    min_value: -13.93310546875
    scale: 0.11057423055171967
    zero_point: 126
  '@Add_Add_628_114:out0':
    qtype: u8
    quantizer: asymmetric_affine
    rounding: rtne
    max_value: 0.8651806712150574
    min_value: -2.0521483421325684
    scale: 0.01144050620496273
    zero_point: 179
  '@Softmax_Softmax_712_119:out0':
    qtype: u8
    quantizer: asymmetric_affine
    rounding: rtne
    max_value: 0.0014234994305297732
    min_value: 0.0
    scale: 5.5823506954766344e-06
    zero_point: 0
  '@Reshape_Reshape_709_120:out0':
    qtype: u8
    quantizer: asymmetric_affine
    rounding: rtne
    max_value: 0.8585308194160461
    min_value: -1.0701806545257568
    scale: 0.007563574239611626
    zero_point: 141
  '@Reshape_Reshape_769_121:out0':
    qtype: u8
    quantizer: asymmetric_affine
    rounding: rtne
    max_value: 0.34649163484573364
    min_value: -0.25471240282058716
    scale: 0.0023576628882437944
    zero_point: 108
  '@Transpose_Transpose_764_122:out0':
    qtype: u8
    quantizer: asymmetric_affine
    rounding: rtne
    max_value: 14.263322830200195
    min_value: -13.93310546875
    scale: 0.11057423055171967
    zero_point: 126
  '@Add_Add_616_126:out0':
    qtype: u8
    quantizer: asymmetric_affine
    rounding: rtne
    max_value: 4.952452182769775
    min_value: -12.572237014770508
    scale: 0.06872426718473434
    zero_point: 183
  '@Reshape_Reshape_652_128:out0':
    qtype: u8
    quantizer: asymmetric_affine
    rounding: rtne
    max_value: 1.2389280796051025
    min_value: -1.1160448789596558
    scale: 0.00923518743366003
    zero_point: 121
  '@Transpose_Transpose_651_131:out0':
    qtype: u8
    quantizer: asymmetric_affine
    rounding: rtne
    max_value: 1.2389280796051025
    min_value: -1.1160448789596558
    scale: 0.00923518743366003
    zero_point: 121
  '@Transpose_Transpose_704_134:out0':
    qtype: u8
    quantizer: asymmetric_affine
    rounding: rtne
    max_value: 0.8585308194160461
    min_value: -1.0701806545257568
    scale: 0.007563574239611626
    zero_point: 141
  '@Mul_Mul_760_135:out0':
    qtype: u8
    quantizer: asymmetric_affine
    rounding: rtne
    max_value: 0.34649163484573364
    min_value: -0.25471240282058716
    scale: 0.0023576628882437944
    zero_point: 108
  '@Reshape_Reshape_763_136:out0':
    qtype: u8
    quantizer: asymmetric_affine
    rounding: rtne
    max_value: 14.263322830200195
    min_value: -13.93310546875
    scale: 0.11057423055171967
    zero_point: 126
  '@Add_Add_603_138:out0':
    qtype: u8
    quantizer: asymmetric_affine
    rounding: rtne
    max_value: 3.113293170928955
    min_value: -8.773689270019531
    scale: 0.046615615487098694
    zero_point: 188
  '@Reshape_Reshape_650_141:out0':
    qtype: u8
    quantizer: asymmetric_affine
    rounding: rtne
    max_value: 1.2389280796051025
    min_value: -1.1160448789596558
    scale: 0.00923518743366003
    zero_point: 121
  '@Reshape_Reshape_707_142:out0':
    qtype: u8
    quantizer: asymmetric_affine
    rounding: rtne
    max_value: 0.24482940137386322
    min_value: -0.22553955018520355
    scale: 0.0018445841269567609
    zero_point: 122
  '@Transpose_Transpose_710_143:out0':
    qtype: u8
    quantizer: asymmetric_affine
    rounding: rtne
    max_value: 4.051455974578857
    min_value: -3.8695790767669678
    scale: 0.031062882393598557
    zero_point: 125
  '@Reshape_Reshape_703_144:out0':
    qtype: u8
    quantizer: asymmetric_affine
    rounding: rtne
    max_value: 0.8585308194160461
    min_value: -1.0701806545257568
    scale: 0.007563574239611626
    zero_point: 141
  '@Add_Add_591_149:out0':
    qtype: u8
    quantizer: asymmetric_affine
    rounding: rtne
    max_value: 2.6471784114837646
    min_value: -5.88109827041626
    scale: 0.03344422206282616
    zero_point: 176
  '@Mul_Mul_613_151:out0':
    qtype: u8
    quantizer: asymmetric_affine
    rounding: rtne
    max_value: 1.8282424211502075
    min_value: -0.16997124254703522
    scale: 0.007836132310330868
    zero_point: 22
  '@MatMul_MatMul_649_153:out0':
    qtype: u8
    quantizer: asymmetric_affine
    rounding: rtne
    max_value: 1.2389280796051025
    min_value: -1.1160448789596558
    scale: 0.00923518743366003
    zero_point: 121
  '@Transpose_Transpose_706_154:out0':
    qtype: u8
    quantizer: asymmetric_affine
    rounding: rtne
    max_value: 0.24482940137386322
    min_value: -0.22553955018520355
    scale: 0.0018445841269567609
    zero_point: 122
  '@Reshape_Reshape_708_155:out0':
    qtype: u8
    quantizer: asymmetric_affine
    rounding: rtne
    max_value: 4.051455974578857
    min_value: -3.8695790767669678
    scale: 0.031062882393598557
    zero_point: 125
  '@Add_Add_564_161:out0':
    qtype: u8
    quantizer: asymmetric_affine
    rounding: rtne
    max_value: 0.9361737370491028
    min_value: -1.8033949136734009
    scale: 0.010743406601250172
    zero_point: 168
  '@Softmax_Softmax_648_166:out0':
    qtype: u8
    quantizer: asymmetric_affine
    rounding: rtne
    max_value: 0.0023452029563486576
    min_value: 0.0
    scale: 9.196874088956974e-06
    zero_point: 0
  '@Reshape_Reshape_645_167:out0':
    qtype: u8
    quantizer: asymmetric_affine
    rounding: rtne
    max_value: 1.3510440587997437
    min_value: -1.1942768096923828
    scale: 0.009981650859117508
    zero_point: 120
  '@Reshape_Reshape_705_168:out0':
    qtype: u8
    quantizer: asymmetric_affine
    rounding: rtne
    max_value: 0.24482940137386322
    min_value: -0.22553955018520355
    scale: 0.0018445841269567609
    zero_point: 122
  '@Transpose_Transpose_700_169:out0':
    qtype: u8
    quantizer: asymmetric_affine
    rounding: rtne
    max_value: 4.051455974578857
    min_value: -3.8695790767669678
    scale: 0.031062882393598557
    zero_point: 125
  '@Add_Add_552_173:out0':
    qtype: u8
    quantizer: asymmetric_affine
    rounding: rtne
    max_value: 2.479249954223633
    min_value: -18.203569412231445
    scale: 0.08110909909009933
    zero_point: 224
  '@Reshape_Reshape_588_175:out0':
    qtype: u8
    quantizer: asymmetric_affine
    rounding: rtne
    max_value: 1.2586932182312012
    min_value: -1.396428108215332
    scale: 0.010412240400910378
    zero_point: 134
  '@Transpose_Transpose_587_178:out0':
    qtype: u8
    quantizer: asymmetric_affine
    rounding: rtne
    max_value: 1.2586932182312012
    min_value: -1.396428108215332
    scale: 0.010412240400910378
    zero_point: 134
  '@Transpose_Transpose_640_181:out0':
    qtype: u8
    quantizer: asymmetric_affine
    rounding: rtne
    max_value: 1.3510440587997437
    min_value: -1.1942768096923828
    scale: 0.009981650859117508
    zero_point: 120
  '@Mul_Mul_696_182:out0':
    qtype: u8
    quantizer: asymmetric_affine
    rounding: rtne
    max_value: 0.24482940137386322
    min_value: -0.22553955018520355
    scale: 0.0018445841269567609
    zero_point: 122
  '@Reshape_Reshape_699_183:out0':
    qtype: u8
    quantizer: asymmetric_affine
    rounding: rtne
    max_value: 4.051455974578857
    min_value: -3.8695790767669678
    scale: 0.031062882393598557
    zero_point: 125
  '@Add_Add_539_185:out0':
    qtype: u8
    quantizer: asymmetric_affine
    rounding: rtne
    max_value: 2.974611282348633
    min_value: -15.16486930847168
    scale: 0.07113521546125412
    zero_point: 213
  '@Reshape_Reshape_586_188:out0':
    qtype: u8
    quantizer: asymmetric_affine
    rounding: rtne
    max_value: 1.2586932182312012
    min_value: -1.396428108215332
    scale: 0.010412240400910378
    zero_point: 134
  '@Reshape_Reshape_643_189:out0':
    qtype: u8
    quantizer: asymmetric_affine
    rounding: rtne
    max_value: 0.4552481770515442
    min_value: -0.39939552545547485
    scale: 0.0033515440300107002
    zero_point: 119
  '@Transpose_Transpose_646_190:out0':
    qtype: u8
    quantizer: asymmetric_affine
    rounding: rtne
    max_value: 8.42220401763916
    min_value: -8.44325065612793
    scale: 0.06613904237747192
    zero_point: 128
  '@Reshape_Reshape_639_191:out0':
    qtype: u8
    quantizer: asymmetric_affine
    rounding: rtne
    max_value: 1.3510440587997437
    min_value: -1.1942768096923828
    scale: 0.009981650859117508
    zero_point: 120
  '@Add_Add_527_196:out0':
    qtype: u8
    quantizer: asymmetric_affine
    rounding: rtne
    max_value: 4.1632561683654785
    min_value: -4.168660640716553
    scale: 0.03267418220639229
    zero_point: 128
  '@Mul_Mul_549_198:out0':
    qtype: u8
    quantizer: asymmetric_affine
    rounding: rtne
    max_value: 2.1438612937927246
    min_value: -0.16997124254703522
    scale: 0.009073852561414242
    zero_point: 19
  '@MatMul_MatMul_585_200:out0':
    qtype: u8
    quantizer: asymmetric_affine
    rounding: rtne
    max_value: 1.2586932182312012
    min_value: -1.396428108215332
    scale: 0.010412240400910378
    zero_point: 134
  '@Transpose_Transpose_642_201:out0':
    qtype: u8
    quantizer: asymmetric_affine
    rounding: rtne
    max_value: 0.4552481770515442
    min_value: -0.39939552545547485
    scale: 0.0033515440300107002
    zero_point: 119
  '@Reshape_Reshape_644_202:out0':
    qtype: u8
    quantizer: asymmetric_affine
    rounding: rtne
    max_value: 8.42220401763916
    min_value: -8.44325065612793
    scale: 0.06613904237747192
    zero_point: 128
  '@Add_Add_500_209:out0':
    qtype: u8
    quantizer: asymmetric_affine
    rounding: rtne
    max_value: 1.2341543436050415
    min_value: -1.9524012804031372
    scale: 0.01249629631638527
    zero_point: 156
  '@Softmax_Softmax_584_214:out0':
    qtype: u8
    quantizer: asymmetric_affine
    rounding: rtne
    max_value: 0.002086666179820895
    min_value: 0.0
    scale: 8.183004865713883e-06
    zero_point: 0
  '@Reshape_Reshape_581_215:out0':
    qtype: u8
    quantizer: asymmetric_affine
    rounding: rtne
    max_value: 1.3979617357254028
    min_value: -1.4822773933410645
    scale: 0.011295055039227009
    zero_point: 131
  '@Reshape_Reshape_641_216:out0':
    qtype: u8
    quantizer: asymmetric_affine
    rounding: rtne
    max_value: 0.4552481770515442
    min_value: -0.39939552545547485
    scale: 0.0033515440300107002
    zero_point: 119
  '@Transpose_Transpose_636_217:out0':
    qtype: u8
    quantizer: asymmetric_affine
    rounding: rtne
    max_value: 8.42220401763916
    min_value: -8.44325065612793
    scale: 0.06613904237747192
    zero_point: 128
  '@Reshape_Reshape_635_219:out0':
    qtype: u8
    quantizer: asymmetric_affine
    rounding: rtne
    max_value: 8.42220401763916
    min_value: -8.44325065612793
    scale: 0.06613904237747192
    zero_point: 128
  '@Add_Add_488_220:out0':
    qtype: u8
    quantizer: asymmetric_affine
    rounding: rtne
    max_value: 2.8310279846191406
    min_value: -17.336957931518555
    scale: 0.07909014075994492
    zero_point: 219
  '@Reshape_Reshape_524_222:out0':
    qtype: u8
    quantizer: asymmetric_affine
    rounding: rtne
    max_value: 1.0417132377624512
    min_value: -1.1451654434204102
    scale: 0.00857599452137947
    zero_point: 134
  '@Transpose_Transpose_523_225:out0':
    qtype: u8
    quantizer: asymmetric_affine
    rounding: rtne
    max_value: 1.0417132377624512
    min_value: -1.1451654434204102
    scale: 0.00857599452137947
    zero_point: 134
  '@Transpose_Transpose_576_228:out0':
    qtype: u8
    quantizer: asymmetric_affine
    rounding: rtne
    max_value: 1.3979617357254028
    min_value: -1.4822773933410645
    scale: 0.011295055039227009
    zero_point: 131
  '@Mul_Mul_632_229:out0':
    qtype: u8
    quantizer: asymmetric_affine
    rounding: rtne
    max_value: 0.4552481770515442
    min_value: -0.39939552545547485
    scale: 0.0033515440300107002
    zero_point: 119
  '@Add_Add_475_231:out0':
    qtype: u8
    quantizer: asymmetric_affine
    rounding: rtne
    max_value: 3.4388508796691895
    min_value: -9.861699104309082
    scale: 0.05215902253985405
    zero_point: 189
  '@Reshape_Reshape_522_234:out0':
    qtype: u8
    quantizer: asymmetric_affine
    rounding: rtne
    max_value: 1.0417132377624512
    min_value: -1.1451654434204102
    scale: 0.00857599452137947
    zero_point: 134
  '@Reshape_Reshape_579_235:out0':
    qtype: u8
    quantizer: asymmetric_affine
    rounding: rtne
    max_value: 0.4440343379974365
    min_value: -0.42709916830062866
    scale: 0.003416209714487195
    zero_point: 125
  '@Transpose_Transpose_582_236:out0':
    qtype: u8
    quantizer: asymmetric_affine
    rounding: rtne
    max_value: 3.924161434173584
    min_value: -3.8415632247924805
    scale: 0.030453821644186974
    zero_point: 126
  '@Reshape_Reshape_575_237:out0':
    qtype: u8
    quantizer: asymmetric_affine
    rounding: rtne
    max_value: 1.3979617357254028
    min_value: -1.4822773933410645
    scale: 0.011295055039227009
    zero_point: 131
  '@Add_Add_463_242:out0':
    qtype: u8
    quantizer: asymmetric_affine
    rounding: rtne
    max_value: 2.2945003509521484
    min_value: -2.214545965194702
    scale: 0.01768253557384014
    zero_point: 125
  '@Mul_Mul_485_244:out0':
    qtype: u8
    quantizer: asymmetric_affine
    rounding: rtne
    max_value: 2.6554603576660156
    min_value: -0.16997124254703522
    scale: 0.011080123484134674
    zero_point: 15
  '@MatMul_MatMul_521_246:out0':
    qtype: u8
    quantizer: asymmetric_affine
    rounding: rtne
    max_value: 1.0417132377624512
    min_value: -1.1451654434204102
    scale: 0.00857599452137947
    zero_point: 134
  '@Transpose_Transpose_578_247:out0':
    qtype: u8
    quantizer: asymmetric_affine
    rounding: rtne
    max_value: 0.4440343379974365
    min_value: -0.42709916830062866
    scale: 0.003416209714487195
    zero_point: 125
  '@Reshape_Reshape_580_248:out0':
    qtype: u8
    quantizer: asymmetric_affine
    rounding: rtne
    max_value: 3.924161434173584
    min_value: -3.8415632247924805
    scale: 0.030453821644186974
    zero_point: 126
  '@Add_Add_436_255:out0':
    qtype: u8
    quantizer: asymmetric_affine
    rounding: rtne
    max_value: 1.458672046661377
    min_value: -1.9355038404464722
    scale: 0.013310493901371956
    zero_point: 145
  '@Softmax_Softmax_520_260:out0':
    qtype: u8
    quantizer: asymmetric_affine
    rounding: rtne
    max_value: 0.0029071648605167866
    min_value: 0.0
    scale: 1.1400646144466009e-05
    zero_point: 0
  '@Reshape_Reshape_517_261:out0':
    qtype: u8
    quantizer: asymmetric_affine
    rounding: rtne
    max_value: 1.212693691253662
    min_value: -1.2271389961242676
    scale: 0.009567971341311932
    zero_point: 128
  '@Reshape_Reshape_577_262:out0':
    qtype: u8
    quantizer: asymmetric_affine
    rounding: rtne
    max_value: 0.4440343379974365
    min_value: -0.42709916830062866
    scale: 0.003416209714487195
    zero_point: 125
  '@Transpose_Transpose_572_263:out0':
    qtype: u8
    quantizer: asymmetric_affine
    rounding: rtne
    max_value: 3.924161434173584
    min_value: -3.8415632247924805
    scale: 0.030453821644186974
    zero_point: 126
  '@Reshape_Reshape_571_265:out0':
    qtype: u8
    quantizer: asymmetric_affine
    rounding: rtne
    max_value: 3.924161434173584
    min_value: -3.8415632247924805
    scale: 0.030453821644186974
    zero_point: 126
  '@Add_Add_424_266:out0':
    qtype: u8
    quantizer: asymmetric_affine
    rounding: rtne
    max_value: 3.526791572570801
    min_value: -15.07200813293457
    scale: 0.07293647527694702
    zero_point: 207
  '@Reshape_Reshape_460_268:out0':
    qtype: u8
    quantizer: asymmetric_affine
    rounding: rtne
    max_value: 1.0439574718475342
    min_value: -0.9376728534698486
    scale: 0.007771099451929331
    zero_point: 121
  '@Transpose_Transpose_459_271:out0':
    qtype: u8
    quantizer: asymmetric_affine
    rounding: rtne
    max_value: 1.0439574718475342
    min_value: -0.9376728534698486
    scale: 0.007771099451929331
    zero_point: 121
  '@Transpose_Transpose_512_274:out0':
    qtype: u8
    quantizer: asymmetric_affine
    rounding: rtne
    max_value: 1.212693691253662
    min_value: -1.2271389961242676
    scale: 0.009567971341311932
    zero_point: 128
  '@Mul_Mul_568_275:out0':
    qtype: u8
    quantizer: asymmetric_affine
    rounding: rtne
    max_value: 0.4440343379974365
    min_value: -0.42709916830062866
    scale: 0.003416209714487195
    zero_point: 125
  '@Add_Add_411_277:out0':
    qtype: u8
    quantizer: asymmetric_affine
    rounding: rtne
    max_value: 3.019609212875366
    min_value: -9.066876411437988
    scale: 0.04739798232913017
    zero_point: 191
  '@Reshape_Reshape_458_280:out0':
    qtype: u8
    quantizer: asymmetric_affine
    rounding: rtne
    max_value: 1.0439574718475342
    min_value: -0.9376728534698486
    scale: 0.007771099451929331
    zero_point: 121
  '@Reshape_Reshape_515_281:out0':
    qtype: u8
    quantizer: asymmetric_affine
    rounding: rtne
    max_value: 0.4335854649543762
    min_value: -0.39206814765930176
    scale: 0.003237857250496745
    zero_point: 121
  '@Transpose_Transpose_518_282:out0':
    qtype: u8
    quantizer: asymmetric_affine
    rounding: rtne
    max_value: 4.259260177612305
    min_value: -3.2324657440185547
    scale: 0.02937931753695011
    zero_point: 110
  '@Reshape_Reshape_511_283:out0':
    qtype: u8
    quantizer: asymmetric_affine
    rounding: rtne
    max_value: 1.212693691253662
    min_value: -1.2271389961242676
    scale: 0.009567971341311932
    zero_point: 128
  '@Add_Add_399_288:out0':
    qtype: u8
    quantizer: asymmetric_affine
    rounding: rtne
    max_value: 2.890048027038574
    min_value: -3.638214588165283
    scale: 0.02560102939605713
    zero_point: 142
  '@Mul_Mul_421_290:out0':
    qtype: u8
    quantizer: asymmetric_affine
    rounding: rtne
    max_value: 2.059622287750244
    min_value: -0.16997124254703522
    scale: 0.00874350406229496
    zero_point: 19
  '@MatMul_MatMul_457_292:out0':
    qtype: u8
    quantizer: asymmetric_affine
    rounding: rtne
    max_value: 1.0439574718475342
    min_value: -0.9376728534698486
    scale: 0.007771099451929331
    zero_point: 121
  '@Transpose_Transpose_514_293:out0':
    qtype: u8
    quantizer: asymmetric_affine
    rounding: rtne
    max_value: 0.4335854649543762
    min_value: -0.39206814765930176
    scale: 0.003237857250496745
    zero_point: 121
  '@Reshape_Reshape_516_294:out0':
    qtype: u8
    quantizer: asymmetric_affine
    rounding: rtne
    max_value: 4.259260177612305
    min_value: -3.2324657440185547
    scale: 0.02937931753695011
    zero_point: 110
  '@Add_Add_372_301:out0':
    qtype: u8
    quantizer: asymmetric_affine
    rounding: rtne
    max_value: 1.6728838682174683
    min_value: -1.5995479822158813
    scale: 0.012833066284656525
    zero_point: 125
  '@Softmax_Softmax_456_306:out0':
    qtype: u8
    quantizer: asymmetric_affine
    rounding: rtne
    max_value: 0.009647270664572716
    min_value: 0.0
    scale: 3.783243300858885e-05
    zero_point: 0
  '@Reshape_Reshape_453_307:out0':
    qtype: u8
    quantizer: asymmetric_affine
    rounding: rtne
    max_value: 1.3788132667541504
    min_value: -1.2596793174743652
    scale: 0.010347030125558376
    zero_point: 122
  '@Reshape_Reshape_513_308:out0':
    qtype: u8
    quantizer: asymmetric_affine
    rounding: rtne
    max_value: 0.4335854649543762
    min_value: -0.39206814765930176
    scale: 0.003237857250496745
    zero_point: 121
  '@Transpose_Transpose_508_309:out0':
    qtype: u8
    quantizer: asymmetric_affine
    rounding: rtne
    max_value: 4.259260177612305
    min_value: -3.2324657440185547
    scale: 0.02937931753695011
    zero_point: 110
  '@Reshape_Reshape_507_311:out0':
    qtype: u8
    quantizer: asymmetric_affine
    rounding: rtne
    max_value: 4.259260177612305
    min_value: -3.2324657440185547
    scale: 0.02937931753695011
    zero_point: 110
  '@Add_Add_360_312:out0':
    qtype: u8
    quantizer: asymmetric_affine
    rounding: rtne
    max_value: 3.366140604019165
    min_value: -11.27393627166748
    scale: 0.05741206556558609
    zero_point: 196
  '@Reshape_Reshape_396_314:out0':
    qtype: u8
    quantizer: asymmetric_affine
    rounding: rtne
    max_value: 1.7259061336517334
    min_value: -1.290509819984436
    scale: 0.011829082854092121
    zero_point: 109
  '@Transpose_Transpose_395_317:out0':
    qtype: u8
    quantizer: asymmetric_affine
    rounding: rtne
    max_value: 1.7259061336517334
    min_value: -1.290509819984436
    scale: 0.011829082854092121
    zero_point: 109
  '@Transpose_Transpose_448_320:out0':
    qtype: u8
    quantizer: asymmetric_affine
    rounding: rtne
    max_value: 1.3788132667541504
    min_value: -1.2596793174743652
    scale: 0.010347030125558376
    zero_point: 122
  '@Mul_Mul_504_321:out0':
    qtype: u8
    quantizer: asymmetric_affine
    rounding: rtne
    max_value: 0.4335854649543762
    min_value: -0.39206814765930176
    scale: 0.003237857250496745
    zero_point: 121
  '@Add_Add_347_323:out0':
    qtype: u8
    quantizer: asymmetric_affine
    rounding: rtne
    max_value: 3.2732748985290527
    min_value: -7.816863536834717
    scale: 0.04349073767662048
    zero_point: 180
  '@Reshape_Reshape_394_326:out0':
    qtype: u8
    quantizer: asymmetric_affine
    rounding: rtne
    max_value: 1.7259061336517334
    min_value: -1.290509819984436
    scale: 0.011829082854092121
    zero_point: 109
  '@Reshape_Reshape_451_327:out0':
    qtype: u8
    quantizer: asymmetric_affine
    rounding: rtne
    max_value: 0.39588725566864014
    min_value: -0.3972458243370056
    scale: 0.0031103258952498436
    zero_point: 128
  '@Transpose_Transpose_454_328:out0':
    qtype: u8
    quantizer: asymmetric_affine
    rounding: rtne
    max_value: 3.7260403633117676
    min_value: -3.94177508354187
    scale: 0.0300698634237051
    zero_point: 131
  '@Reshape_Reshape_447_329:out0':
    qtype: u8
    quantizer: asymmetric_affine
    rounding: rtne
    max_value: 1.3788132667541504
    min_value: -1.2596793174743652
    scale: 0.010347030125558376
    zero_point: 122
  '@Add_Add_335_334:out0':
    qtype: u8
    quantizer: asymmetric_affine
    rounding: rtne
    max_value: 2.690626382827759
    min_value: -2.2421867847442627
    scale: 0.01934436522424221
    zero_point: 116
  '@Mul_Mul_357_336:out0':
    qtype: u8
    quantizer: asymmetric_affine
    rounding: rtne
    max_value: 2.5707123279571533
    min_value: -0.16997124254703522
    scale: 0.010747778229415417
    zero_point: 16
  '@MatMul_MatMul_393_338:out0':
    qtype: u8
    quantizer: asymmetric_affine
    rounding: rtne
    max_value: 1.7259061336517334
    min_value: -1.290509819984436
    scale: 0.011829082854092121
    zero_point: 109
  '@Transpose_Transpose_450_339:out0':
    qtype: u8
    quantizer: asymmetric_affine
    rounding: rtne
    max_value: 0.39588725566864014
    min_value: -0.3972458243370056
    scale: 0.0031103258952498436
    zero_point: 128
  '@Reshape_Reshape_452_340:out0':
    qtype: u8
    quantizer: asymmetric_affine
    rounding: rtne
    max_value: 3.7260403633117676
    min_value: -3.94177508354187
    scale: 0.0300698634237051
    zero_point: 131
  '@Add_Add_308_347:out0':
    qtype: u8
    quantizer: asymmetric_affine
    rounding: rtne
    max_value: 1.8015090227127075
    min_value: -1.8779683113098145
    scale: 0.014429322443902493
    zero_point: 130
  '@Softmax_Softmax_392_352:out0':
    qtype: u8
    quantizer: asymmetric_affine
    rounding: rtne
    max_value: 0.042762380093336105
    min_value: 0.0
    scale: 0.0001676956017035991
    zero_point: 0
  '@Reshape_Reshape_389_353:out0':
    qtype: u8
    quantizer: asymmetric_affine
    rounding: rtne
    max_value: 2.1671645641326904
    min_value: -2.078317403793335
    scale: 0.016648948192596436
    zero_point: 125
  '@Reshape_Reshape_449_354:out0':
    qtype: u8
    quantizer: asymmetric_affine
    rounding: rtne
    max_value: 0.39588725566864014
    min_value: -0.3972458243370056
    scale: 0.0031103258952498436
    zero_point: 128
  '@Transpose_Transpose_444_355:out0':
    qtype: u8
    quantizer: asymmetric_affine
    rounding: rtne
    max_value: 3.7260403633117676
    min_value: -3.94177508354187
    scale: 0.0300698634237051
    zero_point: 131
  '@Reshape_Reshape_443_357:out0':
    qtype: u8
    quantizer: asymmetric_affine
    rounding: rtne
    max_value: 3.7260403633117676
    min_value: -3.94177508354187
    scale: 0.0300698634237051
    zero_point: 131
  '@Add_Add_296_358:out0':
    qtype: u8
    quantizer: asymmetric_affine
    rounding: rtne
    max_value: 9.60993766784668
    min_value: -12.289600372314453
    scale: 0.08588054031133652
    zero_point: 143
  '@Reshape_Reshape_332_360:out0':
    qtype: u8
    quantizer: asymmetric_affine
    rounding: rtne
    max_value: 1.0063693523406982
    min_value: -1.048926591873169
    scale: 0.00805998407304287
    zero_point: 130
  '@Transpose_Transpose_331_363:out0':
    qtype: u8
    quantizer: asymmetric_affine
    rounding: rtne
    max_value: 1.0063693523406982
    min_value: -1.048926591873169
    scale: 0.00805998407304287
    zero_point: 130
  '@Transpose_Transpose_384_366:out0':
    qtype: u8
    quantizer: asymmetric_affine
    rounding: rtne
    max_value: 2.1671645641326904
    min_value: -2.078317403793335
    scale: 0.016648948192596436
    zero_point: 125
  '@Mul_Mul_440_367:out0':
    qtype: u8
    quantizer: asymmetric_affine
    rounding: rtne
    max_value: 0.39588725566864014
    min_value: -0.3972458243370056
    scale: 0.0031103258952498436
    zero_point: 128
  '@Add_Add_283_369:out0':
    qtype: u8
    quantizer: asymmetric_affine
    rounding: rtne
    max_value: 3.0990614891052246
    min_value: -8.711097717285156
    scale: 0.04631435126066208
    zero_point: 188
  '@Reshape_Reshape_330_372:out0':
    qtype: u8
    quantizer: asymmetric_affine
    rounding: rtne
    max_value: 1.0063693523406982
    min_value: -1.048926591873169
    scale: 0.00805998407304287
    zero_point: 130
  '@Reshape_Reshape_387_373:out0':
    qtype: u8
    quantizer: asymmetric_affine
    rounding: rtne
    max_value: 0.4437101185321808
    min_value: -0.4676835536956787
    scale: 0.0035740926396101713
    zero_point: 131
  '@Transpose_Transpose_390_374:out0':
    qtype: u8
    quantizer: asymmetric_affine
    rounding: rtne
    max_value: 3.5120458602905273
    min_value: -4.728727340698242
    scale: 0.03231675922870636
    zero_point: 146
  '@Reshape_Reshape_383_375:out0':
    qtype: u8
    quantizer: asymmetric_affine
    rounding: rtne
    max_value: 2.1671645641326904
    min_value: -2.078317403793335
    scale: 0.016648948192596436
    zero_point: 125
  '@Add_Add_271_380:out0':
    qtype: u8
    quantizer: asymmetric_affine
    rounding: rtne
    max_value: 1.6759382486343384
    min_value: -1.7296087741851807
    scale: 0.01335508655756712
    zero_point: 130
  '@Mul_Mul_293_382:out0':
    qtype: u8
    quantizer: asymmetric_affine
    rounding: rtne
    max_value: 2.6540110111236572
    min_value: -0.16997124254703522
    scale: 0.01107444055378437
    zero_point: 15
  '@MatMul_MatMul_329_384:out0':
    qtype: u8
    quantizer: asymmetric_affine
    rounding: rtne
    max_value: 1.0063693523406982
    min_value: -1.048926591873169
    scale: 0.00805998407304287
    zero_point: 130
  '@Transpose_Transpose_386_385:out0':
    qtype: u8
    quantizer: asymmetric_affine
    rounding: rtne
    max_value: 0.4437101185321808
    min_value: -0.4676835536956787
    scale: 0.0035740926396101713
    zero_point: 131
  '@Reshape_Reshape_388_386:out0':
    qtype: u8
    quantizer: asymmetric_affine
    rounding: rtne
    max_value: 3.5120458602905273
    min_value: -4.728727340698242
    scale: 0.03231675922870636
    zero_point: 146
  '@Add_Add_244_393:out0':
    qtype: u8
    quantizer: asymmetric_affine
    rounding: rtne
    max_value: 1.6928129196166992
    min_value: -1.69181227684021
    scale: 0.01327303983271122
    zero_point: 127
  '@Softmax_Softmax_328_398:out0':
    qtype: u8
    quantizer: asymmetric_affine
    rounding: rtne
    max_value: 0.06539060920476913
    min_value: 0.0
    scale: 0.0002564337628427893
    zero_point: 0
  '@Reshape_Reshape_325_399:out0':
    qtype: u8
    quantizer: asymmetric_affine
    rounding: rtne
    max_value: 2.525408983230591
    min_value: -2.2004435062408447
    scale: 0.018532754853367805
    zero_point: 119
  '@Reshape_Reshape_385_400:out0':
    qtype: u8
    quantizer: asymmetric_affine
    rounding: rtne
    max_value: 0.4437101185321808
    min_value: -0.4676835536956787
    scale: 0.0035740926396101713
    zero_point: 131
  '@Transpose_Transpose_380_401:out0':
    qtype: u8
    quantizer: asymmetric_affine
    rounding: rtne
    max_value: 3.5120458602905273
    min_value: -4.728727340698242
    scale: 0.03231675922870636
    zero_point: 146
  '@Reshape_Reshape_379_403:out0':
    qtype: u8
    quantizer: asymmetric_affine
    rounding: rtne
    max_value: 3.5120458602905273
    min_value: -4.728727340698242
    scale: 0.03231675922870636
    zero_point: 146
  '@Add_Add_232_404:out0':
    qtype: u8
    quantizer: asymmetric_affine
    rounding: rtne
    max_value: 2.6370866298675537
    min_value: -13.989721298217773
    scale: 0.06520316749811172
    zero_point: 215
  '@Reshape_Reshape_268_406:out0':
    qtype: u8
    quantizer: asymmetric_affine
    rounding: rtne
    max_value: 0.9391748905181885
    min_value: -1.190119981765747
    scale: 0.008350175805389881
    zero_point: 143
  '@Transpose_Transpose_267_409:out0':
    qtype: u8
    quantizer: asymmetric_affine
    rounding: rtne
    max_value: 0.9391748905181885
    min_value: -1.190119981765747
    scale: 0.008350175805389881
    zero_point: 143
  '@Transpose_Transpose_320_412:out0':
    qtype: u8
    quantizer: asymmetric_affine
    rounding: rtne
    max_value: 2.525408983230591
    min_value: -2.2004435062408447
    scale: 0.018532754853367805
    zero_point: 119
  '@Mul_Mul_376_413:out0':
    qtype: u8
    quantizer: asymmetric_affine
    rounding: rtne
    max_value: 0.4437101185321808
    min_value: -0.4676835536956787
    scale: 0.0035740926396101713
    zero_point: 131
  '@Add_Add_219_415:out0':
    qtype: u8
    quantizer: asymmetric_affine
    rounding: rtne
    max_value: 2.954298973083496
    min_value: -4.6196136474609375
    scale: 0.02970161847770214
    zero_point: 156
  '@Reshape_Reshape_266_418:out0':
    qtype: u8
    quantizer: asymmetric_affine
    rounding: rtne
    max_value: 0.9391748905181885
    min_value: -1.190119981765747
    scale: 0.008350175805389881
    zero_point: 143
  '@Reshape_Reshape_323_419:out0':
    qtype: u8
    quantizer: asymmetric_affine
    rounding: rtne
    max_value: 0.42457088828086853
    min_value: -0.4409061074256897
    scale: 0.00339402724057436
    zero_point: 130
  '@Transpose_Transpose_326_420:out0':
    qtype: u8
    quantizer: asymmetric_affine
    rounding: rtne
    max_value: 3.9682564735412598
    min_value: -3.5388283729553223
    scale: 0.029439548030495644
    zero_point: 120
  '@Reshape_Reshape_319_421:out0':
    qtype: u8
    quantizer: asymmetric_affine
    rounding: rtne
    max_value: 2.525408983230591
    min_value: -2.2004435062408447
    scale: 0.018532754853367805
    zero_point: 119
  '@Add_Add_207_426:out0':
    qtype: u8
    quantizer: asymmetric_affine
    rounding: rtne
    max_value: 1.6570713520050049
    min_value: -1.8020532131195068
    scale: 0.01356519479304552
    zero_point: 133
  '@Mul_Mul_229_428:out0':
    qtype: u8
    quantizer: asymmetric_affine
    rounding: rtne
    max_value: 1.425572395324707
    min_value: -0.16997124254703522
    scale: 0.006257033906877041
    zero_point: 27
  '@MatMul_MatMul_265_430:out0':
    qtype: u8
    quantizer: asymmetric_affine
    rounding: rtne
    max_value: 0.9391748905181885
    min_value: -1.190119981765747
    scale: 0.008350175805389881
    zero_point: 143
  '@Transpose_Transpose_322_431:out0':
    qtype: u8
    quantizer: asymmetric_affine
    rounding: rtne
    max_value: 0.42457088828086853
    min_value: -0.4409061074256897
    scale: 0.00339402724057436
    zero_point: 130
  '@Reshape_Reshape_324_432:out0':
    qtype: u8
    quantizer: asymmetric_affine
    rounding: rtne
    max_value: 3.9682564735412598
    min_value: -3.5388283729553223
    scale: 0.029439548030495644
    zero_point: 120
  '@Add_Add_180_439:out0':
    qtype: u8
    quantizer: asymmetric_affine
    rounding: rtne
    max_value: 1.686006784439087
    min_value: -2.020754098892212
    scale: 0.014536317437887192
    zero_point: 139
  '@Softmax_Softmax_264_444:out0':
    qtype: u8
    quantizer: asymmetric_affine
    rounding: rtne
    max_value: 0.017151175066828728
    min_value: 0.0
    scale: 6.725951243424788e-05
    zero_point: 0
  '@Reshape_Reshape_261_445:out0':
    qtype: u8
    quantizer: asymmetric_affine
    rounding: rtne
    max_value: 1.819322109222412
    min_value: -2.093562602996826
    scale: 0.015344645828008652
    zero_point: 136
  '@Reshape_Reshape_321_446:out0':
    qtype: u8
    quantizer: asymmetric_affine
    rounding: rtne
    max_value: 0.42457088828086853
    min_value: -0.4409061074256897
    scale: 0.00339402724057436
    zero_point: 130
  '@Transpose_Transpose_316_447:out0':
    qtype: u8
    quantizer: asymmetric_affine
    rounding: rtne
    max_value: 3.9682564735412598
    min_value: -3.5388283729553223
    scale: 0.029439548030495644
    zero_point: 120
  '@Reshape_Reshape_315_449:out0':
    qtype: u8
    quantizer: asymmetric_affine
    rounding: rtne
    max_value: 3.9682564735412598
    min_value: -3.5388283729553223
    scale: 0.029439548030495644
    zero_point: 120
  '@Add_Add_168_450:out0':
    qtype: u8
    quantizer: asymmetric_affine
    rounding: rtne
    max_value: 10.183114051818848
    min_value: -9.98572826385498
    scale: 0.07909350097179413
    zero_point: 126
  '@Reshape_Reshape_204_452:out0':
    qtype: u8
    quantizer: asymmetric_affine
    rounding: rtne
    max_value: 1.2294386625289917
    min_value: -1.3519998788833618
    scale: 0.01012328825891018
    zero_point: 134
  '@Transpose_Transpose_203_455:out0':
    qtype: u8
    quantizer: asymmetric_affine
    rounding: rtne
    max_value: 1.2294386625289917
    min_value: -1.3519998788833618
    scale: 0.01012328825891018
    zero_point: 134
  '@Transpose_Transpose_256_458:out0':
    qtype: u8
    quantizer: asymmetric_affine
    rounding: rtne
    max_value: 1.819322109222412
    min_value: -2.093562602996826
    scale: 0.015344645828008652
    zero_point: 136
  '@Mul_Mul_312_459:out0':
    qtype: u8
    quantizer: asymmetric_affine
    rounding: rtne
    max_value: 0.42457088828086853
    min_value: -0.4409061074256897
    scale: 0.00339402724057436
    zero_point: 130
  '@Add_Add_155_461:out0':
    qtype: u8
    quantizer: asymmetric_affine
    rounding: rtne
    max_value: 2.4598193168640137
    min_value: -3.581552028656006
    scale: 0.023691652342677116
    zero_point: 151
  '@Reshape_Reshape_202_464:out0':
    qtype: u8
    quantizer: asymmetric_affine
    rounding: rtne
    max_value: 1.2294386625289917
    min_value: -1.3519998788833618
    scale: 0.01012328825891018
    zero_point: 134
  '@Reshape_Reshape_259_465:out0':
    qtype: u8
    quantizer: asymmetric_affine
    rounding: rtne
    max_value: 0.4865350127220154
    min_value: -0.5281983613967896
    scale: 0.003979346249252558
    zero_point: 133
  '@Transpose_Transpose_262_466:out0':
    qtype: u8
    quantizer: asymmetric_affine
    rounding: rtne
    max_value: 2.766911029815674
    min_value: -3.2730612754821777
    scale: 0.023686164990067482
    zero_point: 138
  '@Reshape_Reshape_255_467:out0':
    qtype: u8
    quantizer: asymmetric_affine
    rounding: rtne
    max_value: 1.819322109222412
    min_value: -2.093562602996826
    scale: 0.015344645828008652
    zero_point: 136
  '@Add_Add_143_472:out0':
    qtype: u8
    quantizer: asymmetric_affine
    rounding: rtne
    max_value: 1.8206909894943237
    min_value: -2.20776104927063
    scale: 0.015797849744558334
    zero_point: 140
  '@Mul_Mul_165_474:out0':
    qtype: u8
    quantizer: asymmetric_affine
    rounding: rtne
    max_value: 2.8337929248809814
    min_value: -0.16997124254703522
    scale: 0.011779467575252056
    zero_point: 14
  '@MatMul_MatMul_201_476:out0':
    qtype: u8
    quantizer: asymmetric_affine
    rounding: rtne
    max_value: 1.2294386625289917
    min_value: -1.3519998788833618
    scale: 0.01012328825891018
    zero_point: 134
  '@Transpose_Transpose_258_477:out0':
    qtype: u8
    quantizer: asymmetric_affine
    rounding: rtne
    max_value: 0.4865350127220154
    min_value: -0.5281983613967896
    scale: 0.003979346249252558
    zero_point: 133
  '@Reshape_Reshape_260_478:out0':
    qtype: u8
    quantizer: asymmetric_affine
    rounding: rtne
    max_value: 2.766911029815674
    min_value: -3.2730612754821777
    scale: 0.023686164990067482
    zero_point: 138
  '@Add_Add_116_485:out0':
    qtype: u8
    quantizer: asymmetric_affine
    rounding: rtne
    max_value: 1.9844162464141846
    min_value: -1.6122742891311646
    scale: 0.014104668982326984
    zero_point: 114
  '@Softmax_Softmax_200_490:out0':
    qtype: u8
    quantizer: asymmetric_affine
    rounding: rtne
    max_value: 0.03862704709172249
    min_value: 0.0
    scale: 0.00015147861267905682
    zero_point: 0
  '@Reshape_Reshape_197_491:out0':
    qtype: u8
    quantizer: asymmetric_affine
    rounding: rtne
    max_value: 1.9669694900512695
    min_value: -2.0642154216766357
    scale: 0.01580856926739216
    zero_point: 131
  '@Reshape_Reshape_257_492:out0':
    qtype: u8
    quantizer: asymmetric_affine
    rounding: rtne
    max_value: 0.4865350127220154
    min_value: -0.5281983613967896
    scale: 0.003979346249252558
    zero_point: 133
  '@Transpose_Transpose_252_493:out0':
    qtype: u8
    quantizer: asymmetric_affine
    rounding: rtne
    max_value: 2.766911029815674
    min_value: -3.2730612754821777
    scale: 0.023686164990067482
    zero_point: 138
  '@Reshape_Reshape_251_495:out0':
    qtype: u8
    quantizer: asymmetric_affine
    rounding: rtne
    max_value: 2.766911029815674
    min_value: -3.2730612754821777
    scale: 0.023686164990067482
    zero_point: 138
  '@Add_Add_104_496:out0':
    qtype: u8
    quantizer: asymmetric_affine
    rounding: rtne
    max_value: 8.922775268554688
    min_value: -6.189669132232666
    scale: 0.05926448479294777
    zero_point: 104
  '@Reshape_Reshape_140_498:out0':
    qtype: u8
    quantizer: asymmetric_affine
    rounding: rtne
    max_value: 0.8650203943252563
    min_value: -1.631059169769287
    scale: 0.009788546711206436
    zero_point: 167
  '@Transpose_Transpose_139_501:out0':
    qtype: u8
    quantizer: asymmetric_affine
    rounding: rtne
    max_value: 0.8650203943252563
    min_value: -1.631059169769287
    scale: 0.009788546711206436
    zero_point: 167
  '@Transpose_Transpose_192_504:out0':
    qtype: u8
    quantizer: asymmetric_affine
    rounding: rtne
    max_value: 1.9669694900512695
    min_value: -2.0642154216766357
    scale: 0.01580856926739216
    zero_point: 131
  '@Mul_Mul_248_505:out0':
    qtype: u8
    quantizer: asymmetric_affine
    rounding: rtne
    max_value: 0.4865350127220154
    min_value: -0.5281983613967896
    scale: 0.003979346249252558
    zero_point: 133
  '@Mul_Mul_102_508:out0':
    qtype: u8
    quantizer: asymmetric_affine
    rounding: rtne
    max_value: 9.14219856262207
    min_value: -0.16997124254703522
    scale: 0.036518312990665436
    zero_point: 5
  '@Reshape_Reshape_138_509:out0':
    qtype: u8
    quantizer: asymmetric_affine
    rounding: rtne
    max_value: 0.8650203943252563
    min_value: -1.631059169769287
    scale: 0.009788546711206436
    zero_point: 167
  '@Reshape_Reshape_195_510:out0':
    qtype: u8
    quantizer: asymmetric_affine
    rounding: rtne
    max_value: 0.486454576253891
    min_value: -0.5438187718391418
    scale: 0.004040287341922522
    zero_point: 135
  '@Transpose_Transpose_198_511:out0':
    qtype: u8
    quantizer: asymmetric_affine
    rounding: rtne
    max_value: 3.3259544372558594
    min_value: -3.97124981880188
    scale: 0.028616486117243767
    zero_point: 139
  '@Reshape_Reshape_191_512:out0':
    qtype: u8
    quantizer: asymmetric_affine
    rounding: rtne
    max_value: 1.9669694900512695
    min_value: -2.0642154216766357
    scale: 0.01580856926739216
    zero_point: 131
  '@Slice_Slice_94_519:out0':
    qtype: u8
    quantizer: asymmetric_affine
    rounding: rtne
    max_value: 9.14219856262207
    min_value: -14.553169250488281
    scale: 0.09292300790548325
    zero_point: 157
  '@Conv_Conv_89_520:out0':
    qtype: u8
    quantizer: asymmetric_affine
    rounding: rtne
    max_value: 9.14219856262207
    min_value: -14.553169250488281
    scale: 0.09292300790548325
    zero_point: 157
  '@MatMul_MatMul_137_521:out0':
    qtype: u8
    quantizer: asymmetric_affine
    rounding: rtne
    max_value: 0.8650203943252563
    min_value: -1.631059169769287
    scale: 0.009788546711206436
    zero_point: 167
  '@Transpose_Transpose_194_522:out0':
    qtype: u8
    quantizer: asymmetric_affine
    rounding: rtne
    max_value: 0.486454576253891
    min_value: -0.5438187718391418
    scale: 0.004040287341922522
    zero_point: 135
  '@Reshape_Reshape_196_523:out0':
    qtype: u8
    quantizer: asymmetric_affine
    rounding: rtne
    max_value: 3.3259544372558594
    min_value: -3.97124981880188
    scale: 0.028616486117243767
    zero_point: 139
  '@Add_Add_85_530:out0':
    qtype: u8
    quantizer: asymmetric_affine
    rounding: rtne
    max_value: 2.625715494155884
    min_value: -2.5007193088531494
    scale: 0.020103665068745613
    zero_point: 124
  '@Softmax_Softmax_136_533:out0':
    qtype: u8
    quantizer: asymmetric_affine
    rounding: rtne
    max_value: 0.014984686858952045
    min_value: 0.0
    scale: 5.876347859157249e-05
    zero_point: 0
  '@Reshape_Reshape_133_534:out0':
    qtype: u8
    quantizer: asymmetric_affine
    rounding: rtne
    max_value: 2.025153160095215
    min_value: -2.893537998199463
    scale: 0.019288985058665276
    zero_point: 150
  '@Reshape_Reshape_193_535:out0':
    qtype: u8
    quantizer: asymmetric_affine
    rounding: rtne
    max_value: 0.486454576253891
    min_value: -0.5438187718391418
    scale: 0.004040287341922522
    zero_point: 135
  '@Transpose_Transpose_188_536:out0':
    qtype: u8
    quantizer: asymmetric_affine
    rounding: rtne
    max_value: 3.3259544372558594
    min_value: -3.97124981880188
    scale: 0.028616486117243767
    zero_point: 139
  '@Reshape_Reshape_187_538:out0':
    qtype: u8
    quantizer: asymmetric_affine
    rounding: rtne
    max_value: 3.3259544372558594
    min_value: -3.97124981880188
    scale: 0.028616486117243767
    zero_point: 139
  '@Mul_Mul_72_540:out0':
    qtype: u8
    quantizer: asymmetric_affine
    rounding: rtne
    max_value: 0.08500665426254272
    min_value: -0.11632553488016129
    scale: 0.0007895379676483572
    zero_point: 147
  '@Conv_Conv_64_541:out0':
    qtype: u8
    quantizer: asymmetric_affine
    rounding: rtne
    max_value: 0.1517176330089569
    min_value: -0.30640289187431335
    scale: 0.0017965510487556458
    zero_point: 171
  '@Transpose_Transpose_128_543:out0':
    qtype: u8
    quantizer: asymmetric_affine
    rounding: rtne
    max_value: 2.025153160095215
    min_value: -2.893537998199463
    scale: 0.019288985058665276
    zero_point: 150
  '@Mul_Mul_184_544:out0':
    qtype: u8
    quantizer: asymmetric_affine
    rounding: rtne
    max_value: 0.486454576253891
    min_value: -0.5438187718391418
    scale: 0.004040287341922522
    zero_point: 135
  '@Mul_Mul_63_547:out0':
    qtype: u8
    quantizer: asymmetric_affine
    rounding: rtne
    max_value: 0.6784365177154541
    min_value: -0.16997122764587402
    scale: 0.0033270891290158033
    zero_point: 51
  '@Reshape_Reshape_131_548:out0':
    qtype: u8
    quantizer: asymmetric_affine
    rounding: rtne
    max_value: 0.5061241388320923
    min_value: -0.7604938745498657
    scale: 0.004967129323631525
    zero_point: 153
  '@Transpose_Transpose_134_549:out0':
    qtype: u8
    quantizer: asymmetric_affine
    rounding: rtne
    max_value: 3.611124038696289
    min_value: -3.6106491088867188
    scale: 0.0283206794410944
    zero_point: 127
  '@Reshape_Reshape_127_550:out0':
    qtype: u8
    quantizer: asymmetric_affine
    rounding: rtne
    max_value: 2.025153160095215
    min_value: -2.893537998199463
    scale: 0.019288985058665276
    zero_point: 150
  '@Conv_Conv_55_556:out0':
    qtype: u8
    quantizer: asymmetric_affine
    rounding: rtne
    max_value: 0.8465797305107117
    min_value: -2.6893088817596436
    scale: 0.01386622991412878
    zero_point: 194
  '@Mul_Mul_54_557:out0':
    qtype: u8
    quantizer: asymmetric_affine
    rounding: rtne
    max_value: 3.2409701347351074
    min_value: -0.16997124254703522
    scale: 0.013376240618526936
    zero_point: 13
  '@Transpose_Transpose_130_558:out0':
    qtype: u8
    quantizer: asymmetric_affine
    rounding: rtne
    max_value: 0.5061241388320923
    min_value: -0.7604938745498657
    scale: 0.004967129323631525
    zero_point: 153
  '@Reshape_Reshape_132_559:out0':
    qtype: u8
    quantizer: asymmetric_affine
    rounding: rtne
    max_value: 3.611124038696289
    min_value: -3.6106491088867188
    scale: 0.0283206794410944
    zero_point: 127
  '@Conv_Conv_46_563:out0':
    qtype: u8
    quantizer: asymmetric_affine
    rounding: rtne
    max_value: 3.2428886890411377
    min_value: -10.530585289001465
    scale: 0.05401362106204033
    zero_point: 195
  '@Mul_Mul_45_564:out0':
    qtype: u8
    quantizer: asymmetric_affine
    rounding: rtne
    max_value: 9.989497184753418
    min_value: -0.16997124254703522
    scale: 0.039841052144765854
    zero_point: 4
  '@Reshape_Reshape_129_565:out0':
    qtype: u8
    quantizer: asymmetric_affine
    rounding: rtne
    max_value: 0.5061241388320923
    min_value: -0.7604938745498657
    scale: 0.004967129323631525
    zero_point: 153
  '@Transpose_Transpose_124_566:out0':
    qtype: u8
    quantizer: asymmetric_affine
    rounding: rtne
    max_value: 3.611124038696289
    min_value: -3.6106491088867188
    scale: 0.0283206794410944
    zero_point: 127
  '@Reshape_Reshape_123_568:out0':
    qtype: u8
    quantizer: asymmetric_affine
    rounding: rtne
    max_value: 3.611124038696289
    min_value: -3.6106491088867188
    scale: 0.0283206794410944
    zero_point: 127
  '@Conv_Conv_37_570:out0':
    qtype: u8
    quantizer: asymmetric_affine
    rounding: rtne
    max_value: 9.989497184753418
    min_value: -60.955780029296875
    scale: 0.27821674942970276
    zero_point: 219
  '@Mul_Mul_36_571:out0':
    qtype: u8
    quantizer: asymmetric_affine
    rounding: rtne
    max_value: 12.148506164550781
    min_value: -0.16997124254703522
    scale: 0.04830775409936905
    zero_point: 4
  '@Mul_Mul_120_572:out0':
    qtype: u8
    quantizer: asymmetric_affine
    rounding: rtne
    max_value: 0.5061241388320923
    min_value: -0.7604938745498657
    scale: 0.004967129323631525
    zero_point: 153
  '@Conv_Conv_28_574:out0':
    qtype: u8
    quantizer: asymmetric_affine
    rounding: rtne
    max_value: 12.148506164550781
    min_value: -449.5870361328125
    scale: 1.810727596282959
    zero_point: 248
  '@Mul_Mul_27_575:out0':
    qtype: u8
    quantizer: asymmetric_affine
    rounding: rtne
    max_value: 101.06403350830078
    min_value: -0.16997124254703522
    scale: 0.39699608087539673
    zero_point: 0
  '@Conv_Conv_19_580:out0':
    qtype: u8
    quantizer: asymmetric_affine
    rounding: rtne
    max_value: 101.06403350830078
    min_value: -359.1038513183594
    scale: 1.8045798540115356
    zero_point: 199
  '@Mul_Mul_18_581:out0':
    qtype: u8
    quantizer: asymmetric_affine
    rounding: rtne
    max_value: 33.75395584106445
    min_value: -0.16997124254703522
    scale: 0.13303500413894653
    zero_point: 1
  '@InstanceNormalization_InstanceNormalization_6_588:out0':
    qtype: u8
    quantizer: asymmetric_affine
    rounding: rtne
    max_value: 12.052260398864746
    min_value: -12.635998725891113
    scale: 0.09681670367717743
    zero_point: 131
  '@Conv_Conv_1_590:out0':
    qtype: u8
    quantizer: asymmetric_affine
    rounding: rtne
    max_value: 0.3198848068714142
    min_value: -0.3084852695465088
    scale: 0.002464196179062128
    zero_point: 125
  '@Unsqueeze_Unsqueeze_0_591:out0':
    qtype: u8
    quantizer: asymmetric_affine
    rounding: rtne
    max_value: 0.25
    min_value: -0.24126186966896057
    scale: 0.0019265171140432358
    zero_point: 125
  '@input_592:out0':
    qtype: u8
    quantizer: asymmetric_affine
    rounding: rtne
    max_value: 0.25
    min_value: -0.24126186966896057
    scale: 0.0019265171140432358
    zero_point: 125
  '@Conv_Conv_1_590_acuity_mark_perm_596:out0':
    qtype: u8
    quantizer: asymmetric_affine
    rounding: rtne
    max_value: 0.25
    min_value: -0.24126186966896057
    scale: 0.0019265171140432358
    zero_point: 125
  '@reshape_597:out0':
    qtype: u8
    quantizer: asymmetric_affine
    rounding: rtne
    max_value: 0.6957293748855591
    min_value: -1.119384765625
    scale: 0.007118094712495804
    zero_point: 157
  '@fullconnect_598:out0':
    qtype: u8
    quantizer: asymmetric_affine
    rounding: rtne
    max_value: 3.730527400970459
    min_value: -17.70391845703125
    scale: 0.08405665308237076
    zero_point: 211
  '@reshape_599:out0':
    qtype: u8
    quantizer: asymmetric_affine
    rounding: rtne
    max_value: 3.730527400970459
    min_value: -17.70391845703125
    scale: 0.08405665308237076
    zero_point: 211
  '@reshape_600:out0':
    qtype: u8
    quantizer: asymmetric_affine
    rounding: rtne
    max_value: 1.9954181909561157
    min_value: -0.16997124254703522
    scale: 0.00849172379821539
    zero_point: 20
  '@fullconnect_601:out0':
    qtype: u8
    quantizer: asymmetric_affine
    rounding: rtne
    max_value: 23.3894100189209
    min_value: -25.398670196533203
    scale: 0.19132579863071442
    zero_point: 133
  '@reshape_602:out0':
    qtype: u8
    quantizer: asymmetric_affine
    rounding: rtne
    max_value: 23.3894100189209
    min_value: -25.398670196533203
    scale: 0.19132579863071442
    zero_point: 133
  '@reshape_603:out0':
    qtype: u8
    quantizer: asymmetric_affine
    rounding: rtne
    max_value: 0.9830615520477295
    min_value: -1.0376497507095337
    scale: 0.007924358360469341
    zero_point: 131
  '@fullconnect_604:out0':
    qtype: u8
    quantizer: asymmetric_affine
    rounding: rtne
    max_value: 2.084416389465332
    min_value: -2.4863786697387695
    scale: 0.017924686893820763
    zero_point: 139
  '@reshape_605:out0':
    qtype: u8
    quantizer: asymmetric_affine
    rounding: rtne
    max_value: 2.084416389465332
    min_value: -2.4863786697387695
    scale: 0.017924686893820763
    zero_point: 139
  '@reshape_606:out0':
    qtype: u8
    quantizer: asymmetric_affine
    rounding: rtne
    max_value: 1.8229116201400757
    min_value: -7.412501811981201
    scale: 0.03621730953454971
    zero_point: 205
  '@fullconnect_607:out0':
    qtype: u8
    quantizer: asymmetric_affine
    rounding: rtne
    max_value: 2.037775754928589
    min_value: -6.801711082458496
    scale: 0.03466465696692467
    zero_point: 196
  '@reshape_608:out0':
    qtype: u8
    quantizer: asymmetric_affine
    rounding: rtne
    max_value: 2.037775754928589
    min_value: -6.801711082458496
    scale: 0.03466465696692467
    zero_point: 196
  '@reshape_609:out0':
    qtype: u8
    quantizer: asymmetric_affine
    rounding: rtne
    max_value: 1.5032228231430054
    min_value: -0.16997124254703522
    scale: 0.006561545189470053
    zero_point: 26
  '@fullconnect_610:out0':
    qtype: u8
    quantizer: asymmetric_affine
    rounding: rtne
    max_value: 24.92839241027832
    min_value: -4.942746162414551
    scale: 0.1171417236328125
    zero_point: 42
  '@reshape_611:out0':
    qtype: u8
    quantizer: asymmetric_affine
    rounding: rtne
    max_value: 24.92839241027832
    min_value: -4.942746162414551
    scale: 0.1171417236328125
    zero_point: 42
  '@reshape_612:out0':
    qtype: u8
    quantizer: asymmetric_affine
    rounding: rtne
    max_value: 0.7954156398773193
    min_value: -0.9373571872711182
    scale: 0.0067951874807477
    zero_point: 138
  '@fullconnect_613:out0':
    qtype: u8
    quantizer: asymmetric_affine
    rounding: rtne
    max_value: 2.0632457733154297
    min_value: -1.4615203142166138
    scale: 0.013822611421346664
    zero_point: 106
  '@reshape_614:out0':
    qtype: u8
    quantizer: asymmetric_affine
    rounding: rtne
    max_value: 2.0632457733154297
    min_value: -1.4615203142166138
    scale: 0.013822611421346664
    zero_point: 106
  '@reshape_615:out0':
    qtype: u8
    quantizer: asymmetric_affine
    rounding: rtne
    max_value: 5.753369331359863
    min_value: -9.232024192810059
    scale: 0.05876624956727028
    zero_point: 157
  '@fullconnect_616:out0':
    qtype: u8
    quantizer: asymmetric_affine
    rounding: rtne
    max_value: 1.5918976068496704
    min_value: -21.149961471557617
    scale: 0.0891837626695633
    zero_point: 237
  '@reshape_617:out0':
    qtype: u8
    quantizer: asymmetric_affine
    rounding: rtne
    max_value: 1.5918976068496704
    min_value: -21.149961471557617
    scale: 0.0891837626695633
    zero_point: 237
  '@reshape_618:out0':
    qtype: u8
    quantizer: asymmetric_affine
    rounding: rtne
    max_value: 3.158353567123413
    min_value: -0.16997124254703522
    scale: 0.013052253983914852
    zero_point: 13
  '@fullconnect_619:out0':
    qtype: u8
    quantizer: asymmetric_affine
    rounding: rtne
    max_value: 31.63613510131836
    min_value: -8.171085357666016
    scale: 0.15610674023628235
    zero_point: 52
  '@reshape_620:out0':
    qtype: u8
    quantizer: asymmetric_affine
    rounding: rtne
    max_value: 31.63613510131836
    min_value: -8.171085357666016
    scale: 0.15610674023628235
    zero_point: 52
  '@reshape_621:out0':
    qtype: u8
    quantizer: asymmetric_affine
    rounding: rtne
    max_value: 0.6809737086296082
    min_value: -0.8952858448028564
    scale: 0.006181410048156977
    zero_point: 145
  '@fullconnect_622:out0':
    qtype: u8
    quantizer: asymmetric_affine
    rounding: rtne
    max_value: 1.4075465202331543
    min_value: -1.063796043395996
    scale: 0.009691539220511913
    zero_point: 110
  '@reshape_623:out0':
    qtype: u8
    quantizer: asymmetric_affine
    rounding: rtne
    max_value: 1.4075465202331543
    min_value: -1.063796043395996
    scale: 0.009691539220511913
    zero_point: 110
  '@reshape_624:out0':
    qtype: u8
    quantizer: asymmetric_affine
    rounding: rtne
    max_value: 1.1812411546707153
    min_value: -7.027912616729736
    scale: 0.032192762941122055
    zero_point: 218
  '@fullconnect_625:out0':
    qtype: u8
    quantizer: asymmetric_affine
    rounding: rtne
    max_value: 3.160839796066284
    min_value: -5.461800575256348
    scale: 0.03381427749991417
    zero_point: 162
  '@reshape_626:out0':
    qtype: u8
    quantizer: asymmetric_affine
    rounding: rtne
    max_value: 3.160839796066284
    min_value: -5.461800575256348
    scale: 0.03381427749991417
    zero_point: 162
  '@reshape_627:out0':
    qtype: u8
    quantizer: asymmetric_affine
    rounding: rtne
    max_value: 1.7121315002441406
    min_value: -2.317490816116333
    scale: 0.01580243930220604
    zero_point: 147
  '@fullconnect_628:out0':
    qtype: u8
    quantizer: asymmetric_affine
    rounding: rtne
    max_value: 1.0724519491195679
    min_value: -1.1237496137619019
    scale: 0.00861255545169115
    zero_point: 130
  '@reshape_629:out0':
    qtype: u8
    quantizer: asymmetric_affine
    rounding: rtne
    max_value: 1.0724519491195679
    min_value: -1.1237496137619019
    scale: 0.00861255545169115
    zero_point: 130
  '@reshape_630:out0':
    qtype: u8
    quantizer: asymmetric_affine
    rounding: rtne
    max_value: 2.8449177742004395
    min_value: -0.16997124254703522
    scale: 0.011823094449937344
    zero_point: 14
  '@fullconnect_631:out0':
    qtype: u8
    quantizer: asymmetric_affine
    rounding: rtne
    max_value: 33.59098815917969
    min_value: -16.797683715820312
    scale: 0.19760262966156006
    zero_point: 85
  '@reshape_632:out0':
    qtype: u8
    quantizer: asymmetric_affine
    rounding: rtne
    max_value: 33.59098815917969
    min_value: -16.797683715820312
    scale: 0.19760262966156006
    zero_point: 85
  '@reshape_633:out0':
    qtype: u8
    quantizer: asymmetric_affine
    rounding: rtne
    max_value: 1.7121315002441406
    min_value: -2.317490816116333
    scale: 0.01580243930220604
    zero_point: 147
  '@fullconnect_634:out0':
    qtype: u8
    quantizer: asymmetric_affine
    rounding: rtne
    max_value: 21.48365020751953
    min_value: -21.7093448638916
    scale: 0.16938428580760956
    zero_point: 128
  '@reshape_635:out0':
    qtype: u8
    quantizer: asymmetric_affine
    rounding: rtne
    max_value: 21.48365020751953
    min_value: -21.7093448638916
    scale: 0.16938428580760956
    zero_point: 128
  '@reshape_636:out0':
    qtype: u8
    quantizer: asymmetric_affine
    rounding: rtne
    max_value: 1.7121315002441406
    min_value: -2.317490816116333
    scale: 0.01580243930220604
    zero_point: 147
  '@fullconnect_637:out0':
    qtype: u8
    quantizer: asymmetric_affine
    rounding: rtne
    max_value: 17.372600555419922
    min_value: -18.964693069458008
    scale: 0.1424991935491562
    zero_point: 133
  '@reshape_638:out0':
    qtype: u8
    quantizer: asymmetric_affine
    rounding: rtne
    max_value: 17.372600555419922
    min_value: -18.964693069458008
    scale: 0.1424991935491562
    zero_point: 133
  '@reshape_639:out0':
    qtype: u8
    quantizer: asymmetric_affine
    rounding: rtne
    max_value: 1.2389280796051025
    min_value: -1.1160448789596558
    scale: 0.00923518743366003
    zero_point: 121
  '@fullconnect_640:out0':
    qtype: u8
    quantizer: asymmetric_affine
    rounding: rtne
    max_value: 3.0052900314331055
    min_value: -3.723428964614868
    scale: 0.026387132704257965
    zero_point: 141
  '@reshape_641:out0':
    qtype: u8
    quantizer: asymmetric_affine
    rounding: rtne
    max_value: 3.0052900314331055
    min_value: -3.723428964614868
    scale: 0.026387132704257965
    zero_point: 141
  '@reshape_642:out0':
    qtype: u8
    quantizer: asymmetric_affine
    rounding: rtne
    max_value: 2.0847649574279785
    min_value: -6.5221381187438965
    scale: 0.03375256061553955
    zero_point: 193
  '@fullconnect_643:out0':
    qtype: u8
    quantizer: asymmetric_affine
    rounding: rtne
    max_value: 2.851128101348877
    min_value: -7.761933326721191
    scale: 0.04161985218524933
    zero_point: 186
  '@reshape_644:out0':
    qtype: u8
    quantizer: asymmetric_affine
    rounding: rtne
    max_value: 2.851128101348877
    min_value: -7.761933326721191
    scale: 0.04161985218524933
    zero_point: 186
  '@reshape_645:out0':
    qtype: u8
    quantizer: asymmetric_affine
    rounding: rtne
    max_value: 0.9867223501205444
    min_value: -1.936484694480896
    scale: 0.011463557370007038
    zero_point: 169
  '@fullconnect_646:out0':
    qtype: u8
    quantizer: asymmetric_affine
    rounding: rtne
    max_value: 1.2179510593414307
    min_value: -1.4052695035934448
    scale: 0.010287138633430004
    zero_point: 137
  '@reshape_647:out0':
    qtype: u8
    quantizer: asymmetric_affine
    rounding: rtne
    max_value: 1.2179510593414307
    min_value: -1.4052695035934448
    scale: 0.010287138633430004
    zero_point: 137
  '@reshape_648:out0':
    qtype: u8
    quantizer: asymmetric_affine
    rounding: rtne
    max_value: 1.8282424211502075
    min_value: -0.16997124254703522
    scale: 0.007836132310330868
    zero_point: 22
  '@fullconnect_649:out0':
    qtype: u8
    quantizer: asymmetric_affine
    rounding: rtne
    max_value: 5.31737756729126
    min_value: -3.889017105102539
    scale: 0.036103505641222
    zero_point: 108
  '@reshape_650:out0':
    qtype: u8
    quantizer: asymmetric_affine
    rounding: rtne
    max_value: 5.31737756729126
    min_value: -3.889017105102539
    scale: 0.036103505641222
    zero_point: 108
  '@reshape_651:out0':
    qtype: u8
    quantizer: asymmetric_affine
    rounding: rtne
    max_value: 0.9867223501205444
    min_value: -1.936484694480896
    scale: 0.011463557370007038
    zero_point: 169
  '@fullconnect_652:out0':
    qtype: u8
    quantizer: asymmetric_affine
    rounding: rtne
    max_value: 14.263322830200195
    min_value: -13.93310546875
    scale: 0.11057423055171967
    zero_point: 126
  '@reshape_653:out0':
    qtype: u8
    quantizer: asymmetric_affine
    rounding: rtne
    max_value: 14.263322830200195
    min_value: -13.93310546875
    scale: 0.11057423055171967
    zero_point: 126
  '@reshape_654:out0':
    qtype: u8
    quantizer: asymmetric_affine
    rounding: rtne
    max_value: 0.9867223501205444
    min_value: -1.936484694480896
    scale: 0.011463557370007038
    zero_point: 169
  '@fullconnect_655:out0':
    qtype: u8
    quantizer: asymmetric_affine
    rounding: rtne
    max_value: 2.771933078765869
    min_value: -2.0376992225646973
    scale: 0.018861303105950356
    zero_point: 108
  '@reshape_656:out0':
    qtype: u8
    quantizer: asymmetric_affine
    rounding: rtne
    max_value: 2.771933078765869
    min_value: -2.0376992225646973
    scale: 0.018861303105950356
    zero_point: 108
  '@reshape_657:out0':
    qtype: u8
    quantizer: asymmetric_affine
    rounding: rtne
    max_value: 1.2586932182312012
    min_value: -1.396428108215332
    scale: 0.010412240400910378
    zero_point: 134
  '@fullconnect_658:out0':
    qtype: u8
    quantizer: asymmetric_affine
    rounding: rtne
    max_value: 2.8040566444396973
    min_value: -5.844432830810547
    scale: 0.03391564264893532
    zero_point: 172
  '@reshape_659:out0':
    qtype: u8
    quantizer: asymmetric_affine
    rounding: rtne
    max_value: 2.8040566444396973
    min_value: -5.844432830810547
    scale: 0.03391564264893532
    zero_point: 172
  '@reshape_660:out0':
    qtype: u8
    quantizer: asymmetric_affine
    rounding: rtne
    max_value: 3.113293170928955
    min_value: -8.773689270019531
    scale: 0.046615615487098694
    zero_point: 188
  '@fullconnect_661:out0':
    qtype: u8
    quantizer: asymmetric_affine
    rounding: rtne
    max_value: 1.8843212127685547
    min_value: -10.436502456665039
    scale: 0.04831695556640625
    zero_point: 216
  '@reshape_662:out0':
    qtype: u8
    quantizer: asymmetric_affine
    rounding: rtne
    max_value: 1.8843212127685547
    min_value: -10.436502456665039
    scale: 0.04831695556640625
    zero_point: 216
  '@reshape_663:out0':
    qtype: u8
    quantizer: asymmetric_affine
    rounding: rtne
    max_value: 0.8089222311973572
    min_value: -1.8380697965621948
    scale: 0.010380360297858715
    zero_point: 177
  '@fullconnect_664:out0':
    qtype: u8
    quantizer: asymmetric_affine
    rounding: rtne
    max_value: 0.8585308194160461
    min_value: -1.0701806545257568
    scale: 0.007563574239611626
    zero_point: 141
  '@reshape_665:out0':
    qtype: u8
    quantizer: asymmetric_affine
    rounding: rtne
    max_value: 0.8585308194160461
    min_value: -1.0701806545257568
    scale: 0.007563574239611626
    zero_point: 141
  '@reshape_666:out0':
    qtype: u8
    quantizer: asymmetric_affine
    rounding: rtne
    max_value: 2.1438612937927246
    min_value: -0.16997124254703522
    scale: 0.009073852561414242
    zero_point: 19
  '@fullconnect_667:out0':
    qtype: u8
    quantizer: asymmetric_affine
    rounding: rtne
    max_value: 2.0538337230682373
    min_value: -3.128828525543213
    scale: 0.020324165001511574
    zero_point: 154
  '@reshape_668:out0':
    qtype: u8
    quantizer: asymmetric_affine
    rounding: rtne
    max_value: 2.0538337230682373
    min_value: -3.128828525543213
    scale: 0.020324165001511574
    zero_point: 154
  '@reshape_669:out0':
    qtype: u8
    quantizer: asymmetric_affine
    rounding: rtne
    max_value: 0.8089222311973572
    min_value: -1.8380697965621948
    scale: 0.010380360297858715
    zero_point: 177
  '@fullconnect_670:out0':
    qtype: u8
    quantizer: asymmetric_affine
    rounding: rtne
    max_value: 1.9586352109909058
    min_value: -1.8043164014816284
    scale: 0.014756673015654087
    zero_point: 122
  '@reshape_671:out0':
    qtype: u8
    quantizer: asymmetric_affine
    rounding: rtne
    max_value: 1.9586352109909058
    min_value: -1.8043164014816284
    scale: 0.014756673015654087
    zero_point: 122
  '@reshape_672:out0':
    qtype: u8
    quantizer: asymmetric_affine
    rounding: rtne
    max_value: 0.8089222311973572
    min_value: -1.8380697965621948
    scale: 0.010380360297858715
    zero_point: 177
  '@fullconnect_673:out0':
    qtype: u8
    quantizer: asymmetric_affine
    rounding: rtne
    max_value: 4.051455974578857
    min_value: -3.8695790767669678
    scale: 0.031062882393598557
    zero_point: 125
  '@reshape_674:out0':
    qtype: u8
    quantizer: asymmetric_affine
    rounding: rtne
    max_value: 4.051455974578857
    min_value: -3.8695790767669678
    scale: 0.031062882393598557
    zero_point: 125
  '@reshape_675:out0':
    qtype: u8
    quantizer: asymmetric_affine
    rounding: rtne
    max_value: 0.8651806712150574
    min_value: -2.0521483421325684
    scale: 0.01144050620496273
    zero_point: 179
  '@fullconnect_676:out0':
    qtype: u8
    quantizer: asymmetric_affine
    rounding: rtne
    max_value: 1.3510440587997437
    min_value: -1.1942768096923828
    scale: 0.009981650859117508
    zero_point: 120
  '@reshape_677:out0':
    qtype: u8
    quantizer: asymmetric_affine
    rounding: rtne
    max_value: 1.3510440587997437
    min_value: -1.1942768096923828
    scale: 0.009981650859117508
    zero_point: 120
  '@reshape_678:out0':
    qtype: u8
    quantizer: asymmetric_affine
    rounding: rtne
    max_value: 1.0417132377624512
    min_value: -1.1451654434204102
    scale: 0.00857599452137947
    zero_point: 134
  '@fullconnect_679:out0':
    qtype: u8
    quantizer: asymmetric_affine
    rounding: rtne
    max_value: 3.966754913330078
    min_value: -4.000557899475098
    scale: 0.031244363635778427
    zero_point: 128
  '@reshape_680:out0':
    qtype: u8
    quantizer: asymmetric_affine
    rounding: rtne
    max_value: 3.966754913330078
    min_value: -4.000557899475098
    scale: 0.031244363635778427
    zero_point: 128
  '@reshape_681:out0':
    qtype: u8
    quantizer: asymmetric_affine
    rounding: rtne
    max_value: 2.974611282348633
    min_value: -15.16486930847168
    scale: 0.07113521546125412
    zero_point: 213
  '@fullconnect_682:out0':
    qtype: u8
    quantizer: asymmetric_affine
    rounding: rtne
    max_value: 2.176016330718994
    min_value: -11.555391311645508
    scale: 0.05384865403175354
    zero_point: 215
  '@reshape_683:out0':
    qtype: u8
    quantizer: asymmetric_affine
    rounding: rtne
    max_value: 2.176016330718994
    min_value: -11.555391311645508
    scale: 0.05384865403175354
    zero_point: 215
  '@reshape_684:out0':
    qtype: u8
    quantizer: asymmetric_affine
    rounding: rtne
    max_value: 2.6554603576660156
    min_value: -0.16997124254703522
    scale: 0.011080123484134674
    zero_point: 15
  '@fullconnect_685:out0':
    qtype: u8
    quantizer: asymmetric_affine
    rounding: rtne
    max_value: 2.1752021312713623
    min_value: -7.560178279876709
    scale: 0.038177959620952606
    zero_point: 198
  '@reshape_686:out0':
    qtype: u8
    quantizer: asymmetric_affine
    rounding: rtne
    max_value: 2.1752021312713623
    min_value: -7.560178279876709
    scale: 0.038177959620952606
    zero_point: 198
  '@reshape_687:out0':
    qtype: u8
    quantizer: asymmetric_affine
    rounding: rtne
    max_value: 0.8651806712150574
    min_value: -2.0521483421325684
    scale: 0.01144050620496273
    zero_point: 179
  '@fullconnect_688:out0':
    qtype: u8
    quantizer: asymmetric_affine
    rounding: rtne
    max_value: 3.6419854164123535
    min_value: -3.195164203643799
    scale: 0.026812352240085602
    zero_point: 119
  '@reshape_689:out0':
    qtype: u8
    quantizer: asymmetric_affine
    rounding: rtne
    max_value: 3.6419854164123535
    min_value: -3.195164203643799
    scale: 0.026812352240085602
    zero_point: 119
  '@reshape_690:out0':
    qtype: u8
    quantizer: asymmetric_affine
    rounding: rtne
    max_value: 0.8651806712150574
    min_value: -2.0521483421325684
    scale: 0.01144050620496273
    zero_point: 179
  '@fullconnect_691:out0':
    qtype: u8
    quantizer: asymmetric_affine
    rounding: rtne
    max_value: 8.42220401763916
    min_value: -8.44325065612793
    scale: 0.06613904237747192
    zero_point: 128
  '@reshape_692:out0':
    qtype: u8
    quantizer: asymmetric_affine
    rounding: rtne
    max_value: 8.42220401763916
    min_value: -8.44325065612793
    scale: 0.06613904237747192
    zero_point: 128
  '@reshape_693:out0':
    qtype: u8
    quantizer: asymmetric_affine
    rounding: rtne
    max_value: 0.9361737370491028
    min_value: -1.8033949136734009
    scale: 0.010743406601250172
    zero_point: 168
  '@fullconnect_694:out0':
    qtype: u8
    quantizer: asymmetric_affine
    rounding: rtne
    max_value: 1.3979617357254028
    min_value: -1.4822773933410645
    scale: 0.011295055039227009
    zero_point: 131
  '@reshape_695:out0':
    qtype: u8
    quantizer: asymmetric_affine
    rounding: rtne
    max_value: 1.3979617357254028
    min_value: -1.4822773933410645
    scale: 0.011295055039227009
    zero_point: 131
  '@reshape_696:out0':
    qtype: u8
    quantizer: asymmetric_affine
    rounding: rtne
    max_value: 1.0439574718475342
    min_value: -0.9376728534698486
    scale: 0.007771099451929331
    zero_point: 121
  '@fullconnect_697:out0':
    qtype: u8
    quantizer: asymmetric_affine
    rounding: rtne
    max_value: 2.233203172683716
    min_value: -2.0030932426452637
    scale: 0.016612928360700607
    zero_point: 121
  '@reshape_698:out0':
    qtype: u8
    quantizer: asymmetric_affine
    rounding: rtne
    max_value: 2.233203172683716
    min_value: -2.0030932426452637
    scale: 0.016612928360700607
    zero_point: 121
  '@reshape_699:out0':
    qtype: u8
    quantizer: asymmetric_affine
    rounding: rtne
    max_value: 3.4388508796691895
    min_value: -9.861699104309082
    scale: 0.05215902253985405
    zero_point: 189
  '@fullconnect_700:out0':
    qtype: u8
    quantizer: asymmetric_affine
    rounding: rtne
    max_value: 2.6657004356384277
    min_value: -10.54740047454834
    scale: 0.05181607976555824
    zero_point: 204
  '@reshape_701:out0':
    qtype: u8
    quantizer: asymmetric_affine
    rounding: rtne
    max_value: 2.6657004356384277
    min_value: -10.54740047454834
    scale: 0.05181607976555824
    zero_point: 204
  '@reshape_702:out0':
    qtype: u8
    quantizer: asymmetric_affine
    rounding: rtne
    max_value: 2.059622287750244
    min_value: -0.16997124254703522
    scale: 0.00874350406229496
    zero_point: 19
  '@fullconnect_703:out0':
    qtype: u8
    quantizer: asymmetric_affine
    rounding: rtne
    max_value: 3.318629026412964
    min_value: -6.334172248840332
    scale: 0.03785412386059761
    zero_point: 167
  '@reshape_704:out0':
    qtype: u8
    quantizer: asymmetric_affine
    rounding: rtne
    max_value: 3.318629026412964
    min_value: -6.334172248840332
    scale: 0.03785412386059761
    zero_point: 167
  '@reshape_705:out0':
    qtype: u8
    quantizer: asymmetric_affine
    rounding: rtne
    max_value: 0.9361737370491028
    min_value: -1.8033949136734009
    scale: 0.010743406601250172
    zero_point: 168
  '@fullconnect_706:out0':
    qtype: u8
    quantizer: asymmetric_affine
    rounding: rtne
    max_value: 3.552274703979492
    min_value: -3.4167933464050293
    scale: 0.02732967771589756
    zero_point: 125
  '@reshape_707:out0':
    qtype: u8
    quantizer: asymmetric_affine
    rounding: rtne
    max_value: 3.552274703979492
    min_value: -3.4167933464050293
    scale: 0.02732967771589756
    zero_point: 125
  '@reshape_708:out0':
    qtype: u8
    quantizer: asymmetric_affine
    rounding: rtne
    max_value: 0.9361737370491028
    min_value: -1.8033949136734009
    scale: 0.010743406601250172
    zero_point: 168
  '@fullconnect_709:out0':
    qtype: u8
    quantizer: asymmetric_affine
    rounding: rtne
    max_value: 3.924161434173584
    min_value: -3.8415632247924805
    scale: 0.030453821644186974
    zero_point: 126
  '@reshape_710:out0':
    qtype: u8
    quantizer: asymmetric_affine
    rounding: rtne
    max_value: 3.924161434173584
    min_value: -3.8415632247924805
    scale: 0.030453821644186974
    zero_point: 126
  '@reshape_711:out0':
    qtype: u8
    quantizer: asymmetric_affine
    rounding: rtne
    max_value: 1.2341543436050415
    min_value: -1.9524012804031372
    scale: 0.01249629631638527
    zero_point: 156
  '@fullconnect_712:out0':
    qtype: u8
    quantizer: asymmetric_affine
    rounding: rtne
    max_value: 1.212693691253662
    min_value: -1.2271389961242676
    scale: 0.009567971341311932
    zero_point: 128
  '@reshape_713:out0':
    qtype: u8
    quantizer: asymmetric_affine
    rounding: rtne
    max_value: 1.212693691253662
    min_value: -1.2271389961242676
    scale: 0.009567971341311932
    zero_point: 128
  '@reshape_714:out0':
    qtype: u8
    quantizer: asymmetric_affine
    rounding: rtne
    max_value: 1.7259061336517334
    min_value: -1.290509819984436
    scale: 0.011829082854092121
    zero_point: 109
  '@fullconnect_715:out0':
    qtype: u8
    quantizer: asymmetric_affine
    rounding: rtne
    max_value: 2.614236354827881
    min_value: -3.4024648666381836
    scale: 0.02359490655362606
    zero_point: 144
  '@reshape_716:out0':
    qtype: u8
    quantizer: asymmetric_affine
    rounding: rtne
    max_value: 2.614236354827881
    min_value: -3.4024648666381836
    scale: 0.02359490655362606
    zero_point: 144
  '@reshape_717:out0':
    qtype: u8
    quantizer: asymmetric_affine
    rounding: rtne
    max_value: 3.019609212875366
    min_value: -9.066876411437988
    scale: 0.04739798232913017
    zero_point: 191
  '@fullconnect_718:out0':
    qtype: u8
    quantizer: asymmetric_affine
    rounding: rtne
    max_value: 2.097336530685425
    min_value: -9.618001937866211
    scale: 0.045942503958940506
    zero_point: 209
  '@reshape_719:out0':
    qtype: u8
    quantizer: asymmetric_affine
    rounding: rtne
    max_value: 2.097336530685425
    min_value: -9.618001937866211
    scale: 0.045942503958940506
    zero_point: 209
  '@reshape_720:out0':
    qtype: u8
    quantizer: asymmetric_affine
    rounding: rtne
    max_value: 2.5707123279571533
    min_value: -0.16997124254703522
    scale: 0.010747778229415417
    zero_point: 16
  '@fullconnect_721:out0':
    qtype: u8
    quantizer: asymmetric_affine
    rounding: rtne
    max_value: 2.2916147708892822
    min_value: -5.877114295959473
    scale: 0.03203422948718071
    zero_point: 183
  '@reshape_722:out0':
    qtype: u8
    quantizer: asymmetric_affine
    rounding: rtne
    max_value: 2.2916147708892822
    min_value: -5.877114295959473
    scale: 0.03203422948718071
    zero_point: 183
  '@reshape_723:out0':
    qtype: u8
    quantizer: asymmetric_affine
    rounding: rtne
    max_value: 1.2341543436050415
    min_value: -1.9524012804031372
    scale: 0.01249629631638527
    zero_point: 156
  '@fullconnect_724:out0':
    qtype: u8
    quantizer: asymmetric_affine
    rounding: rtne
    max_value: 3.4686837196350098
    min_value: -3.136545181274414
    scale: 0.02590285800397396
    zero_point: 121
  '@reshape_725:out0':
    qtype: u8
    quantizer: asymmetric_affine
    rounding: rtne
    max_value: 3.4686837196350098
    min_value: -3.136545181274414
    scale: 0.02590285800397396
    zero_point: 121
  '@reshape_726:out0':
    qtype: u8
    quantizer: asymmetric_affine
    rounding: rtne
    max_value: 1.2341543436050415
    min_value: -1.9524012804031372
    scale: 0.01249629631638527
    zero_point: 156
  '@fullconnect_727:out0':
    qtype: u8
    quantizer: asymmetric_affine
    rounding: rtne
    max_value: 4.259260177612305
    min_value: -3.2324657440185547
    scale: 0.02937931753695011
    zero_point: 110
  '@reshape_728:out0':
    qtype: u8
    quantizer: asymmetric_affine
    rounding: rtne
    max_value: 4.259260177612305
    min_value: -3.2324657440185547
    scale: 0.02937931753695011
    zero_point: 110
  '@reshape_729:out0':
    qtype: u8
    quantizer: asymmetric_affine
    rounding: rtne
    max_value: 1.458672046661377
    min_value: -1.9355038404464722
    scale: 0.013310493901371956
    zero_point: 145
  '@fullconnect_730:out0':
    qtype: u8
    quantizer: asymmetric_affine
    rounding: rtne
    max_value: 1.3788132667541504
    min_value: -1.2596793174743652
    scale: 0.010347030125558376
    zero_point: 122
  '@reshape_731:out0':
    qtype: u8
    quantizer: asymmetric_affine
    rounding: rtne
    max_value: 1.3788132667541504
    min_value: -1.2596793174743652
    scale: 0.010347030125558376
    zero_point: 122
  '@reshape_732:out0':
    qtype: u8
    quantizer: asymmetric_affine
    rounding: rtne
    max_value: 1.0063693523406982
    min_value: -1.048926591873169
    scale: 0.00805998407304287
    zero_point: 130
  '@fullconnect_733:out0':
    qtype: u8
    quantizer: asymmetric_affine
    rounding: rtne
    max_value: 2.734233856201172
    min_value: -2.0497360229492188
    scale: 0.018760666251182556
    zero_point: 109
  '@reshape_734:out0':
    qtype: u8
    quantizer: asymmetric_affine
    rounding: rtne
    max_value: 2.734233856201172
    min_value: -2.0497360229492188
    scale: 0.018760666251182556
    zero_point: 109
  '@reshape_735:out0':
    qtype: u8
    quantizer: asymmetric_affine
    rounding: rtne
    max_value: 3.2732748985290527
    min_value: -7.816863536834717
    scale: 0.04349073767662048
    zero_point: 180
  '@fullconnect_736:out0':
    qtype: u8
    quantizer: asymmetric_affine
    rounding: rtne
    max_value: 2.583350658416748
    min_value: -11.211380004882812
    scale: 0.05409698560833931
    zero_point: 207
  '@reshape_737:out0':
    qtype: u8
    quantizer: asymmetric_affine
    rounding: rtne
    max_value: 2.583350658416748
    min_value: -11.211380004882812
    scale: 0.05409698560833931
    zero_point: 207
  '@reshape_738:out0':
    qtype: u8
    quantizer: asymmetric_affine
    rounding: rtne
    max_value: 2.6540110111236572
    min_value: -0.16997124254703522
    scale: 0.01107444055378437
    zero_point: 15
  '@fullconnect_739:out0':
    qtype: u8
    quantizer: asymmetric_affine
    rounding: rtne
    max_value: 8.890862464904785
    min_value: -11.515159606933594
    scale: 0.08002360910177231
    zero_point: 144
  '@reshape_740:out0':
    qtype: u8
    quantizer: asymmetric_affine
    rounding: rtne
    max_value: 8.890862464904785
    min_value: -11.515159606933594
    scale: 0.08002360910177231
    zero_point: 144
  '@reshape_741:out0':
    qtype: u8
    quantizer: asymmetric_affine
    rounding: rtne
    max_value: 1.458672046661377
    min_value: -1.9355038404464722
    scale: 0.013310493901371956
    zero_point: 145
  '@fullconnect_742:out0':
    qtype: u8
    quantizer: asymmetric_affine
    rounding: rtne
    max_value: 3.167098045349121
    min_value: -3.177966594696045
    scale: 0.02488260716199875
    zero_point: 128
  '@reshape_743:out0':
    qtype: u8
    quantizer: asymmetric_affine
    rounding: rtne
    max_value: 3.167098045349121
    min_value: -3.177966594696045
    scale: 0.02488260716199875
    zero_point: 128
  '@reshape_744:out0':
    qtype: u8
    quantizer: asymmetric_affine
    rounding: rtne
    max_value: 1.458672046661377
    min_value: -1.9355038404464722
    scale: 0.013310493901371956
    zero_point: 145
  '@fullconnect_745:out0':
    qtype: u8
    quantizer: asymmetric_affine
    rounding: rtne
    max_value: 3.7260403633117676
    min_value: -3.94177508354187
    scale: 0.0300698634237051
    zero_point: 131
  '@reshape_746:out0':
    qtype: u8
    quantizer: asymmetric_affine
    rounding: rtne
    max_value: 3.7260403633117676
    min_value: -3.94177508354187
    scale: 0.0300698634237051
    zero_point: 131
  '@reshape_747:out0':
    qtype: u8
    quantizer: asymmetric_affine
    rounding: rtne
    max_value: 1.6728838682174683
    min_value: -1.5995479822158813
    scale: 0.012833066284656525
    zero_point: 125
  '@fullconnect_748:out0':
    qtype: u8
    quantizer: asymmetric_affine
    rounding: rtne
    max_value: 2.1671645641326904
    min_value: -2.078317403793335
    scale: 0.016648948192596436
    zero_point: 125
  '@reshape_749:out0':
    qtype: u8
    quantizer: asymmetric_affine
    rounding: rtne
    max_value: 2.1671645641326904
    min_value: -2.078317403793335
    scale: 0.016648948192596436
    zero_point: 125
  '@reshape_750:out0':
    qtype: u8
    quantizer: asymmetric_affine
    rounding: rtne
    max_value: 0.9391748905181885
    min_value: -1.190119981765747
    scale: 0.008350175805389881
    zero_point: 143
  '@fullconnect_751:out0':
    qtype: u8
    quantizer: asymmetric_affine
    rounding: rtne
    max_value: 1.3543965816497803
    min_value: -1.7002002000808716
    scale: 0.011978811584413052
    zero_point: 142
  '@reshape_752:out0':
    qtype: u8
    quantizer: asymmetric_affine
    rounding: rtne
    max_value: 1.3543965816497803
    min_value: -1.7002002000808716
    scale: 0.011978811584413052
    zero_point: 142
  '@reshape_753:out0':
    qtype: u8
    quantizer: asymmetric_affine
    rounding: rtne
    max_value: 3.0990614891052246
    min_value: -8.711097717285156
    scale: 0.04631435126066208
    zero_point: 188
  '@fullconnect_754:out0':
    qtype: u8
    quantizer: asymmetric_affine
    rounding: rtne
    max_value: 2.6642885208129883
    min_value: -12.09286880493164
    scale: 0.05787120386958122
    zero_point: 209
  '@reshape_755:out0':
    qtype: u8
    quantizer: asymmetric_affine
    rounding: rtne
    max_value: 2.6642885208129883
    min_value: -12.09286880493164
    scale: 0.05787120386958122
    zero_point: 209
  '@reshape_756:out0':
    qtype: u8
    quantizer: asymmetric_affine
    rounding: rtne
    max_value: 1.425572395324707
    min_value: -0.16997124254703522
    scale: 0.006257033906877041
    zero_point: 27
  '@fullconnect_757:out0':
    qtype: u8
    quantizer: asymmetric_affine
    rounding: rtne
    max_value: 1.6682360172271729
    min_value: -11.664108276367188
    scale: 0.05228370055556297
    zero_point: 223
  '@reshape_758:out0':
    qtype: u8
    quantizer: asymmetric_affine
    rounding: rtne
    max_value: 1.6682360172271729
    min_value: -11.664108276367188
    scale: 0.05228370055556297
    zero_point: 223
  '@reshape_759:out0':
    qtype: u8
    quantizer: asymmetric_affine
    rounding: rtne
    max_value: 1.6728838682174683
    min_value: -1.5995479822158813
    scale: 0.012833066284656525
    zero_point: 125
  '@fullconnect_760:out0':
    qtype: u8
    quantizer: asymmetric_affine
    rounding: rtne
    max_value: 3.5496809482574463
    min_value: -3.7414684295654297
    scale: 0.02859274111688137
    zero_point: 131
  '@reshape_761:out0':
    qtype: u8
    quantizer: asymmetric_affine
    rounding: rtne
    max_value: 3.5496809482574463
    min_value: -3.7414684295654297
    scale: 0.02859274111688137
    zero_point: 131
  '@reshape_762:out0':
    qtype: u8
    quantizer: asymmetric_affine
    rounding: rtne
    max_value: 1.6728838682174683
    min_value: -1.5995479822158813
    scale: 0.012833066284656525
    zero_point: 125
  '@fullconnect_763:out0':
    qtype: u8
    quantizer: asymmetric_affine
    rounding: rtne
    max_value: 3.5120458602905273
    min_value: -4.728727340698242
    scale: 0.03231675922870636
    zero_point: 146
  '@reshape_764:out0':
    qtype: u8
    quantizer: asymmetric_affine
    rounding: rtne
    max_value: 3.5120458602905273
    min_value: -4.728727340698242
    scale: 0.03231675922870636
    zero_point: 146
  '@reshape_765:out0':
    qtype: u8
    quantizer: asymmetric_affine
    rounding: rtne
    max_value: 1.8015090227127075
    min_value: -1.8779683113098145
    scale: 0.014429322443902493
    zero_point: 130
  '@fullconnect_766:out0':
    qtype: u8
    quantizer: asymmetric_affine
    rounding: rtne
    max_value: 2.525408983230591
    min_value: -2.2004435062408447
    scale: 0.018532754853367805
    zero_point: 119
  '@reshape_767:out0':
    qtype: u8
    quantizer: asymmetric_affine
    rounding: rtne
    max_value: 2.525408983230591
    min_value: -2.2004435062408447
    scale: 0.018532754853367805
    zero_point: 119
  '@reshape_768:out0':
    qtype: u8
    quantizer: asymmetric_affine
    rounding: rtne
    max_value: 1.2294386625289917
    min_value: -1.3519998788833618
    scale: 0.01012328825891018
    zero_point: 134
  '@fullconnect_769:out0':
    qtype: u8
    quantizer: asymmetric_affine
    rounding: rtne
    max_value: 1.6426396369934082
    min_value: -1.6351245641708374
    scale: 0.012853977270424366
    zero_point: 127
  '@reshape_770:out0':
    qtype: u8
    quantizer: asymmetric_affine
    rounding: rtne
    max_value: 1.6426396369934082
    min_value: -1.6351245641708374
    scale: 0.012853977270424366
    zero_point: 127
  '@reshape_771:out0':
    qtype: u8
    quantizer: asymmetric_affine
    rounding: rtne
    max_value: 2.954298973083496
    min_value: -4.6196136474609375
    scale: 0.02970161847770214
    zero_point: 156
  '@fullconnect_772:out0':
    qtype: u8
    quantizer: asymmetric_affine
    rounding: rtne
    max_value: 1.522876262664795
    min_value: -11.327619552612305
    scale: 0.050394102931022644
    zero_point: 225
  '@reshape_773:out0':
    qtype: u8
    quantizer: asymmetric_affine
    rounding: rtne
    max_value: 1.522876262664795
    min_value: -11.327619552612305
    scale: 0.050394102931022644
    zero_point: 225
  '@reshape_774:out0':
    qtype: u8
    quantizer: asymmetric_affine
    rounding: rtne
    max_value: 2.8337929248809814
    min_value: -0.16997124254703522
    scale: 0.011779467575252056
    zero_point: 14
  '@fullconnect_775:out0':
    qtype: u8
    quantizer: asymmetric_affine
    rounding: rtne
    max_value: 10.306342124938965
    min_value: -9.71262264251709
    scale: 0.0785057470202446
    zero_point: 124
  '@reshape_776:out0':
    qtype: u8
    quantizer: asymmetric_affine
    rounding: rtne
    max_value: 10.306342124938965
    min_value: -9.71262264251709
    scale: 0.0785057470202446
    zero_point: 124
  '@reshape_777:out0':
    qtype: u8
    quantizer: asymmetric_affine
    rounding: rtne
    max_value: 1.8015090227127075
    min_value: -1.8779683113098145
    scale: 0.014429322443902493
    zero_point: 130
  '@fullconnect_778:out0':
    qtype: u8
    quantizer: asymmetric_affine
    rounding: rtne
    max_value: 3.3965671062469482
    min_value: -3.5272488594055176
    scale: 0.02715221792459488
    zero_point: 130
  '@reshape_779:out0':
    qtype: u8
    quantizer: asymmetric_affine
    rounding: rtne
    max_value: 3.3965671062469482
    min_value: -3.5272488594055176
    scale: 0.02715221792459488
    zero_point: 130
  '@reshape_780:out0':
    qtype: u8
    quantizer: asymmetric_affine
    rounding: rtne
    max_value: 1.8015090227127075
    min_value: -1.8779683113098145
    scale: 0.014429322443902493
    zero_point: 130
  '@fullconnect_781:out0':
    qtype: u8
    quantizer: asymmetric_affine
    rounding: rtne
    max_value: 3.9682564735412598
    min_value: -3.5388283729553223
    scale: 0.029439548030495644
    zero_point: 120
  '@reshape_782:out0':
    qtype: u8
    quantizer: asymmetric_affine
    rounding: rtne
    max_value: 3.9682564735412598
    min_value: -3.5388283729553223
    scale: 0.029439548030495644
    zero_point: 120
  '@reshape_783:out0':
    qtype: u8
    quantizer: asymmetric_affine
    rounding: rtne
    max_value: 1.6928129196166992
    min_value: -1.69181227684021
    scale: 0.01327303983271122
    zero_point: 127
  '@fullconnect_784:out0':
    qtype: u8
