# !!!This file disallow TABs!!!
version: 2
quantize_parameters:
  '@attach_Conv_/dec.0/Conv/out0_0:out0':
    qtype: u8
    quantizer: asymmetric_affine
    rounding: rtne
    max_value: 0.0
    min_value: 0.0
    scale: 1.0
    zero_point: 0
  '@Conv_/dec.0/Conv_1:out0':
    qtype: u8
    quantizer: asymmetric_affine
    rounding: rtne
    max_value: 0.0
    min_value: 0.0
    scale: 1.0
    zero_point: 0
  '@Mul_/enc.22/mconv.3/Mul_2:out0':
    qtype: u8
    quantizer: asymmetric_affine
    rounding: rtne
    max_value: 0.0
    min_value: 0.0
    scale: 1.0
    zero_point: 0
  '@Conv_/enc.22/conv_1/Conv_3:out0':
    qtype: u8
    quantizer: asymmetric_affine
    rounding: rtne
    max_value: 0.0
    min_value: 0.0
    scale: 1.0
    zero_point: 0
  '@Conv_/enc.22/mconv.3/fc/fc.2/Conv_4:out0':
    qtype: u8
    quantizer: asymmetric_affine
    rounding: rtne
    max_value: 0.0
    min_value: 0.0
    scale: 1.0
    zero_point: 0
  '@Conv_/enc.22/conv/Conv_5:out0':
    qtype: u8
    quantizer: asymmetric_affine
    rounding: rtne
    max_value: 0.0
    min_value: 0.0
    scale: 1.0
    zero_point: 0
  '@Relu_/enc.22/mconv.3/fc/fc.1/Relu_6:out0':
    qtype: u8
    quantizer: asymmetric_affine
    rounding: rtne
    max_value: 0.0
    min_value: 0.0
    scale: 1.0
    zero_point: 0
  '@Add_/enc.21/Add_7:out0':
    qtype: u8
    quantizer: asymmetric_affine
    rounding: rtne
    max_value: 0.0
    min_value: 0.0
    scale: 1.0
    zero_point: 0
  '@Conv_/enc.22/mconv.3/fc/fc.0/Conv_8:out0':
    qtype: u8
    quantizer: asymmetric_affine
    rounding: rtne
    max_value: 0.0
    min_value: 0.0
    scale: 1.0
    zero_point: 0
  '@Mul_/enc.21/mconv.23/Mul_9:out0':
    qtype: u8
    quantizer: asymmetric_affine
    rounding: rtne
    max_value: 0.0
    min_value: 0.0
    scale: 1.0
    zero_point: 0
  '@Conv_/enc.21/conv_10/Conv_10:out0':
    qtype: u8
    quantizer: asymmetric_affine
    rounding: rtne
    max_value: 0.0
    min_value: 0.0
    scale: 1.0
    zero_point: 0
  '@GlobalAveragePool_/enc.22/mconv.3/GlobalAveragePool_11:out0':
    qtype: u8
    quantizer: asymmetric_affine
    rounding: rtne
    max_value: 0.0
    min_value: 0.0
    scale: 1.0
    zero_point: 0
  '@Conv_/enc.21/conv_9/Conv_12:out0':
    qtype: u8
    quantizer: asymmetric_affine
    rounding: rtne
    max_value: 0.0
    min_value: 0.0
    scale: 1.0
    zero_point: 0
  '@Conv_/enc.21/mconv.23/fc/fc.2/Conv_13:out0':
    qtype: u8
    quantizer: asymmetric_affine
    rounding: rtne
    max_value: 0.0
    min_value: 0.0
    scale: 1.0
    zero_point: 0
  '@Add_/enc.20/Add_14:out0':
    qtype: u8
    quantizer: asymmetric_affine
    rounding: rtne
    max_value: 0.0
    min_value: 0.0
    scale: 1.0
    zero_point: 0
  '@Conv_/enc.20/conv_10/Conv_15:out0':
    qtype: u8
    quantizer: asymmetric_affine
    rounding: rtne
    max_value: 0.0
    min_value: 0.0
    scale: 1.0
    zero_point: 0
  '@Conv_/enc.21/conv_8/Conv_16:out0':
    qtype: u8
    quantizer: asymmetric_affine
    rounding: rtne
    max_value: 0.0
    min_value: 0.0
    scale: 1.0
    zero_point: 0
  '@Relu_/enc.21/mconv.23/fc/fc.1/Relu_17:out0':
    qtype: u8
    quantizer: asymmetric_affine
    rounding: rtne
    max_value: 0.0
    min_value: 0.0
    scale: 1.0
    zero_point: 0
  '@Mul_/enc.20/mconv.23/Mul_18:out0':
    qtype: u8
    quantizer: asymmetric_affine
    rounding: rtne
    max_value: 0.0
    min_value: 0.0
    scale: 1.0
    zero_point: 0
  '@Add_/enc.19/Add_19:out0':
    qtype: u8
    quantizer: asymmetric_affine
    rounding: rtne
    max_value: 0.0
    min_value: 0.0
    scale: 1.0
    zero_point: 0
  '@Relu_/enc.21/fc.1_3/Relu_20:out0':
    qtype: u8
    quantizer: asymmetric_affine
    rounding: rtne
    max_value: 0.0
    min_value: 0.0
    scale: 1.0
    zero_point: 0
  '@Conv_/enc.21/mconv.23/fc/fc.0/Conv_21:out0':
    qtype: u8
    quantizer: asymmetric_affine
    rounding: rtne
    max_value: 0.0
    min_value: 0.0
    scale: 1.0
    zero_point: 0
  '@Conv_/enc.20/conv_9/Conv_22:out0':
    qtype: u8
    quantizer: asymmetric_affine
    rounding: rtne
    max_value: 0.0
    min_value: 0.0
    scale: 1.0
    zero_point: 0
  '@Conv_/enc.20/mconv.23/fc/fc.2/Conv_23:out0':
    qtype: u8
    quantizer: asymmetric_affine
    rounding: rtne
    max_value: 0.0
    min_value: 0.0
    scale: 1.0
    zero_point: 0
  '@Mul_/enc.19/mconv.23/Mul_24:out0':
    qtype: u8
    quantizer: asymmetric_affine
    rounding: rtne
    max_value: 0.0
    min_value: 0.0
    scale: 1.0
    zero_point: 0
  '@Conv_/enc.19/conv_10/Conv_25:out0':
    qtype: u8
    quantizer: asymmetric_affine
    rounding: rtne
    max_value: 0.0
    min_value: 0.0
    scale: 1.0
    zero_point: 0
  '@Conv_/enc.21/conv_7/Conv_26:out0':
    qtype: u8
    quantizer: asymmetric_affine
    rounding: rtne
    max_value: 0.0
    min_value: 0.0
    scale: 1.0
    zero_point: 0
  '@GlobalAveragePool_/enc.21/mconv.23/GlobalAveragePool_27:out0':
    qtype: u8
    quantizer: asymmetric_affine
    rounding: rtne
    max_value: 0.0
    min_value: 0.0
    scale: 1.0
    zero_point: 0
  '@Conv_/enc.20/conv_8/Conv_28:out0':
    qtype: u8
    quantizer: asymmetric_affine
    rounding: rtne
    max_value: 0.0
    min_value: 0.0
    scale: 1.0
    zero_point: 0
  '@Relu_/enc.20/mconv.23/fc/fc.1/Relu_29:out0':
    qtype: u8
    quantizer: asymmetric_affine
    rounding: rtne
    max_value: 0.0
    min_value: 0.0
    scale: 1.0
    zero_point: 0
  '@Conv_/enc.19/conv_9/Conv_30:out0':
    qtype: u8
    quantizer: asymmetric_affine
    rounding: rtne
    max_value: 0.0
    min_value: 0.0
    scale: 1.0
    zero_point: 0
  '@Conv_/enc.19/mconv.23/fc/fc.2/Conv_31:out0':
    qtype: u8
    quantizer: asymmetric_affine
    rounding: rtne
    max_value: 0.0
    min_value: 0.0
    scale: 1.0
    zero_point: 0
  '@Add_/enc.18/Add_32:out0':
    qtype: u8
    quantizer: asymmetric_affine
    rounding: rtne
    max_value: 0.0
    min_value: 0.0
    scale: 1.0
    zero_point: 0
  '@Conv_/enc.21/conv_6/Conv_33:out0':
    qtype: u8
    quantizer: asymmetric_affine
    rounding: rtne
    max_value: 0.0
    min_value: 0.0
    scale: 1.0
    zero_point: 0
  '@Relu_/enc.21/fc.1_2/Relu_34:out0':
    qtype: u8
    quantizer: asymmetric_affine
    rounding: rtne
    max_value: 0.0
    min_value: 0.0
    scale: 1.0
    zero_point: 0
  '@Relu_/enc.20/fc.1_3/Relu_35:out0':
    qtype: u8
    quantizer: asymmetric_affine
    rounding: rtne
    max_value: 0.0
    min_value: 0.0
    scale: 1.0
    zero_point: 0
  '@Conv_/enc.20/mconv.23/fc/fc.0/Conv_36:out0':
    qtype: u8
    quantizer: asymmetric_affine
    rounding: rtne
    max_value: 0.0
    min_value: 0.0
    scale: 1.0
    zero_point: 0
  '@Conv_/enc.19/conv_8/Conv_37:out0':
    qtype: u8
    quantizer: asymmetric_affine
    rounding: rtne
    max_value: 0.0
    min_value: 0.0
    scale: 1.0
    zero_point: 0
  '@Relu_/enc.19/mconv.23/fc/fc.1/Relu_38:out0':
    qtype: u8
    quantizer: asymmetric_affine
    rounding: rtne
    max_value: 0.0
    min_value: 0.0
    scale: 1.0
    zero_point: 0
  '@Mul_/enc.18/mconv.23/Mul_39:out0':
    qtype: u8
    quantizer: asymmetric_affine
    rounding: rtne
    max_value: 0.0
    min_value: 0.0
    scale: 1.0
    zero_point: 0
  '@Conv_/enc.18/conv_10/Conv_40:out0':
    qtype: u8
    quantizer: asymmetric_affine
    rounding: rtne
    max_value: 0.0
    min_value: 0.0
    scale: 1.0
    zero_point: 0
  '@Conv_/enc.21/conv_5/Conv_41:out0':
    qtype: u8
    quantizer: asymmetric_affine
    rounding: rtne
    max_value: 0.0
    min_value: 0.0
    scale: 1.0
    zero_point: 0
  '@Conv_/enc.20/conv_7/Conv_42:out0':
    qtype: u8
    quantizer: asymmetric_affine
    rounding: rtne
    max_value: 0.0
    min_value: 0.0
    scale: 1.0
    zero_point: 0
  '@GlobalAveragePool_/enc.20/mconv.23/GlobalAveragePool_43:out0':
    qtype: u8
    quantizer: asymmetric_affine
    rounding: rtne
    max_value: 0.0
    min_value: 0.0
    scale: 1.0
    zero_point: 0
  '@Relu_/enc.19/fc.1_3/Relu_44:out0':
    qtype: u8
    quantizer: asymmetric_affine
    rounding: rtne
    max_value: 0.0
    min_value: 0.0
    scale: 1.0
    zero_point: 0
  '@Conv_/enc.19/mconv.23/fc/fc.0/Conv_45:out0':
    qtype: u8
    quantizer: asymmetric_affine
    rounding: rtne
    max_value: 0.0
    min_value: 0.0
    scale: 1.0
    zero_point: 0
  '@Conv_/enc.18/conv_9/Conv_46:out0':
    qtype: u8
    quantizer: asymmetric_affine
    rounding: rtne
    max_value: 0.0
    min_value: 0.0
    scale: 1.0
    zero_point: 0
  '@Conv_/enc.18/mconv.23/fc/fc.2/Conv_47:out0':
    qtype: u8
    quantizer: asymmetric_affine
    rounding: rtne
    max_value: 0.0
    min_value: 0.0
    scale: 1.0
    zero_point: 0
  '@Add_/enc.17/Add_48:out0':
    qtype: u8
    quantizer: asymmetric_affine
    rounding: rtne
    max_value: 0.0
    min_value: 0.0
    scale: 1.0
    zero_point: 0
  '@Conv_/enc.21/conv_4/Conv_49:out0':
    qtype: u8
    quantizer: asymmetric_affine
    rounding: rtne
    max_value: 0.0
    min_value: 0.0
    scale: 1.0
    zero_point: 0
  '@Conv_/enc.20/conv_6/Conv_50:out0':
    qtype: u8
    quantizer: asymmetric_affine
    rounding: rtne
    max_value: 0.0
    min_value: 0.0
    scale: 1.0
    zero_point: 0
  '@Relu_/enc.20/fc.1_2/Relu_51:out0':
    qtype: u8
    quantizer: asymmetric_affine
    rounding: rtne
    max_value: 0.0
    min_value: 0.0
    scale: 1.0
    zero_point: 0
  '@Conv_/enc.19/conv_7/Conv_52:out0':
    qtype: u8
    quantizer: asymmetric_affine
    rounding: rtne
    max_value: 0.0
    min_value: 0.0
    scale: 1.0
    zero_point: 0
  '@GlobalAveragePool_/enc.19/mconv.23/GlobalAveragePool_53:out0':
    qtype: u8
    quantizer: asymmetric_affine
    rounding: rtne
    max_value: 0.0
    min_value: 0.0
    scale: 1.0
    zero_point: 0
  '@Conv_/enc.18/conv_8/Conv_54:out0':
    qtype: u8
    quantizer: asymmetric_affine
    rounding: rtne
    max_value: 0.0
    min_value: 0.0
    scale: 1.0
    zero_point: 0
  '@Relu_/enc.18/mconv.23/fc/fc.1/Relu_55:out0':
    qtype: u8
    quantizer: asymmetric_affine
    rounding: rtne
    max_value: 0.0
    min_value: 0.0
    scale: 1.0
    zero_point: 0
  '@Mul_/enc.17/mconv.23/Mul_56:out0':
    qtype: u8
    quantizer: asymmetric_affine
    rounding: rtne
    max_value: 0.0
    min_value: 0.0
    scale: 1.0
    zero_point: 0
  '@Conv_/enc.17/conv_10/Conv_57:out0':
    qtype: u8
    quantizer: asymmetric_affine
    rounding: rtne
    max_value: 0.0
    min_value: 0.0
    scale: 1.0
    zero_point: 0
  '@Relu_/enc.21/fc.1_1/Relu_58:out0':
    qtype: u8
    quantizer: asymmetric_affine
    rounding: rtne
    max_value: 0.0
    min_value: 0.0
    scale: 1.0
    zero_point: 0
  '@Conv_/enc.20/conv_5/Conv_59:out0':
    qtype: u8
    quantizer: asymmetric_affine
    rounding: rtne
    max_value: 0.0
    min_value: 0.0
    scale: 1.0
    zero_point: 0
  '@Conv_/enc.19/conv_6/Conv_60:out0':
    qtype: u8
    quantizer: asymmetric_affine
    rounding: rtne
    max_value: 0.0
    min_value: 0.0
    scale: 1.0
    zero_point: 0
  '@Relu_/enc.19/fc.1_2/Relu_61:out0':
    qtype: u8
    quantizer: asymmetric_affine
    rounding: rtne
    max_value: 0.0
    min_value: 0.0
    scale: 1.0
    zero_point: 0
  '@Relu_/enc.18/fc.1_3/Relu_62:out0':
    qtype: u8
    quantizer: asymmetric_affine
    rounding: rtne
    max_value: 0.0
    min_value: 0.0
    scale: 1.0
    zero_point: 0
  '@Conv_/enc.18/mconv.23/fc/fc.0/Conv_63:out0':
    qtype: u8
    quantizer: asymmetric_affine
    rounding: rtne
    max_value: 0.0
    min_value: 0.0
    scale: 1.0
    zero_point: 0
  '@Conv_/enc.17/conv_9/Conv_64:out0':
    qtype: u8
    quantizer: asymmetric_affine
    rounding: rtne
    max_value: 0.0
    min_value: 0.0
    scale: 1.0
    zero_point: 0
  '@Conv_/enc.17/mconv.23/fc/fc.2/Conv_65:out0':
    qtype: u8
    quantizer: asymmetric_affine
    rounding: rtne
    max_value: 0.0
    min_value: 0.0
    scale: 1.0
    zero_point: 0
  '@Add_/enc.16/Add_66:out0':
    qtype: u8
    quantizer: asymmetric_affine
    rounding: rtne
    max_value: 0.0
    min_value: 0.0
    scale: 1.0
    zero_point: 0
  '@Conv_/enc.21/conv_3/Conv_67:out0':
    qtype: u8
    quantizer: asymmetric_affine
    rounding: rtne
    max_value: 0.0
    min_value: 0.0
    scale: 1.0
    zero_point: 0
  '@Conv_/enc.20/conv_4/Conv_68:out0':
    qtype: u8
    quantizer: asymmetric_affine
    rounding: rtne
    max_value: 0.0
    min_value: 0.0
    scale: 1.0
    zero_point: 0
  '@Conv_/enc.19/conv_5/Conv_69:out0':
    qtype: u8
    quantizer: asymmetric_affine
    rounding: rtne
    max_value: 0.0
    min_value: 0.0
    scale: 1.0
    zero_point: 0
  '@Conv_/enc.18/conv_7/Conv_70:out0':
    qtype: u8
    quantizer: asymmetric_affine
    rounding: rtne
    max_value: 0.0
    min_value: 0.0
    scale: 1.0
    zero_point: 0
  '@GlobalAveragePool_/enc.18/mconv.23/GlobalAveragePool_71:out0':
    qtype: u8
    quantizer: asymmetric_affine
    rounding: rtne
    max_value: 0.0
    min_value: 0.0
    scale: 1.0
    zero_point: 0
  '@Conv_/enc.17/conv_8/Conv_72:out0':
    qtype: u8
    quantizer: asymmetric_affine
    rounding: rtne
    max_value: 0.0
    min_value: 0.0
    scale: 1.0
    zero_point: 0
  '@Relu_/enc.17/mconv.23/fc/fc.1/Relu_73:out0':
    qtype: u8
    quantizer: asymmetric_affine
    rounding: rtne
    max_value: 0.0
    min_value: 0.0
    scale: 1.0
    zero_point: 0
  '@Mul_/enc.16/mconv.23/Mul_74:out0':
    qtype: u8
    quantizer: asymmetric_affine
    rounding: rtne
    max_value: 0.0
    min_value: 0.0
    scale: 1.0
    zero_point: 0
  '@Conv_/enc.16/conv_10/Conv_75:out0':
    qtype: u8
    quantizer: asymmetric_affine
    rounding: rtne
    max_value: 0.0
    min_value: 0.0
    scale: 1.0
    zero_point: 0
  '@Conv_/enc.21/conv_2/Conv_76:out0':
    qtype: u8
    quantizer: asymmetric_affine
    rounding: rtne
    max_value: 0.0
    min_value: 0.0
    scale: 1.0
    zero_point: 0
  '@Relu_/enc.20/fc.1_1/Relu_77:out0':
    qtype: u8
    quantizer: asymmetric_affine
    rounding: rtne
    max_value: 0.0
    min_value: 0.0
    scale: 1.0
    zero_point: 0
  '@Conv_/enc.19/conv_4/Conv_78:out0':
    qtype: u8
    quantizer: asymmetric_affine
    rounding: rtne
    max_value: 0.0
    min_value: 0.0
    scale: 1.0
    zero_point: 0
  '@Conv_/enc.18/conv_6/Conv_79:out0':
    qtype: u8
    quantizer: asymmetric_affine
    rounding: rtne
    max_value: 0.0
    min_value: 0.0
    scale: 1.0
    zero_point: 0
  '@Relu_/enc.18/fc.1_2/Relu_80:out0':
    qtype: u8
    quantizer: asymmetric_affine
    rounding: rtne
    max_value: 0.0
    min_value: 0.0
    scale: 1.0
    zero_point: 0
  '@Relu_/enc.17/fc.1_3/Relu_81:out0':
    qtype: u8
    quantizer: asymmetric_affine
    rounding: rtne
    max_value: 0.0
    min_value: 0.0
    scale: 1.0
    zero_point: 0
  '@Conv_/enc.17/mconv.23/fc/fc.0/Conv_82:out0':
    qtype: u8
    quantizer: asymmetric_affine
    rounding: rtne
    max_value: 0.0
    min_value: 0.0
    scale: 1.0
    zero_point: 0
  '@Conv_/enc.16/conv_9/Conv_83:out0':
    qtype: u8
    quantizer: asymmetric_affine
    rounding: rtne
    max_value: 0.0
    min_value: 0.0
    scale: 1.0
    zero_point: 0
  '@Conv_/enc.16/mconv.23/fc/fc.2/Conv_84:out0':
    qtype: u8
    quantizer: asymmetric_affine
    rounding: rtne
    max_value: 0.0
    min_value: 0.0
    scale: 1.0
    zero_point: 0
  '@Add_/enc.15/Add_85:out0':
    qtype: u8
    quantizer: asymmetric_affine
    rounding: rtne
    max_value: 0.0
    min_value: 0.0
    scale: 1.0
    zero_point: 0
  '@Relu_/enc.21/fc.1/Relu_86:out0':
    qtype: u8
    quantizer: asymmetric_affine
    rounding: rtne
    max_value: 0.0
    min_value: 0.0
    scale: 1.0
    zero_point: 0
  '@Conv_/enc.20/conv_3/Conv_87:out0':
    qtype: u8
    quantizer: asymmetric_affine
    rounding: rtne
    max_value: 0.0
    min_value: 0.0
    scale: 1.0
    zero_point: 0
  '@Relu_/enc.19/fc.1_1/Relu_88:out0':
    qtype: u8
    quantizer: asymmetric_affine
    rounding: rtne
    max_value: 0.0
    min_value: 0.0
    scale: 1.0
    zero_point: 0
  '@Conv_/enc.18/conv_5/Conv_89:out0':
    qtype: u8
    quantizer: asymmetric_affine
    rounding: rtne
    max_value: 0.0
    min_value: 0.0
    scale: 1.0
    zero_point: 0
  '@Conv_/enc.17/conv_7/Conv_90:out0':
    qtype: u8
    quantizer: asymmetric_affine
    rounding: rtne
    max_value: 0.0
    min_value: 0.0
    scale: 1.0
    zero_point: 0
  '@GlobalAveragePool_/enc.17/mconv.23/GlobalAveragePool_91:out0':
    qtype: u8
    quantizer: asymmetric_affine
    rounding: rtne
    max_value: 0.0
    min_value: 0.0
    scale: 1.0
    zero_point: 0
  '@Conv_/enc.16/conv_8/Conv_92:out0':
    qtype: u8
    quantizer: asymmetric_affine
    rounding: rtne
    max_value: 0.0
    min_value: 0.0
    scale: 1.0
    zero_point: 0
  '@Relu_/enc.16/mconv.23/fc/fc.1/Relu_93:out0':
    qtype: u8
    quantizer: asymmetric_affine
    rounding: rtne
    max_value: 0.0
    min_value: 0.0
    scale: 1.0
    zero_point: 0
  '@Mul_/enc.15/mconv.23/Mul_94:out0':
    qtype: u8
    quantizer: asymmetric_affine
    rounding: rtne
    max_value: 0.0
    min_value: 0.0
    scale: 1.0
    zero_point: 0
  '@Conv_/enc.15/conv_10/Conv_95:out0':
    qtype: u8
    quantizer: asymmetric_affine
    rounding: rtne
    max_value: 0.0
    min_value: 0.0
    scale: 1.0
    zero_point: 0
  '@Conv_/enc.21/conv_1/Conv_96:out0':
    qtype: u8
    quantizer: asymmetric_affine
    rounding: rtne
    max_value: 0.0
    min_value: 0.0
    scale: 1.0
    zero_point: 0
  '@Conv_/enc.20/conv_2/Conv_97:out0':
    qtype: u8
    quantizer: asymmetric_affine
    rounding: rtne
    max_value: 0.0
    min_value: 0.0
    scale: 1.0
    zero_point: 0
  '@Conv_/enc.19/conv_3/Conv_98:out0':
    qtype: u8
    quantizer: asymmetric_affine
    rounding: rtne
    max_value: 0.0
    min_value: 0.0
    scale: 1.0
    zero_point: 0
  '@Conv_/enc.18/conv_4/Conv_99:out0':
    qtype: u8
    quantizer: asymmetric_affine
    rounding: rtne
    max_value: 0.0
    min_value: 0.0
    scale: 1.0
    zero_point: 0
  '@Conv_/enc.17/conv_6/Conv_100:out0':
    qtype: u8
    quantizer: asymmetric_affine
    rounding: rtne
    max_value: 0.0
    min_value: 0.0
    scale: 1.0
    zero_point: 0
  '@Relu_/enc.17/fc.1_2/Relu_101:out0':
    qtype: u8
    quantizer: asymmetric_affine
    rounding: rtne
    max_value: 0.0
    min_value: 0.0
    scale: 1.0
    zero_point: 0
  '@Relu_/enc.16/fc.1_3/Relu_102:out0':
    qtype: u8
    quantizer: asymmetric_affine
    rounding: rtne
    max_value: 0.0
    min_value: 0.0
    scale: 1.0
    zero_point: 0
  '@Conv_/enc.16/mconv.23/fc/fc.0/Conv_103:out0':
    qtype: u8
    quantizer: asymmetric_affine
    rounding: rtne
    max_value: 0.0
    min_value: 0.0
    scale: 1.0
    zero_point: 0
  '@Conv_/enc.15/conv_9/Conv_104:out0':
    qtype: u8
    quantizer: asymmetric_affine
    rounding: rtne
    max_value: 0.0
    min_value: 0.0
    scale: 1.0
    zero_point: 0
  '@Conv_/enc.15/mconv.23/fc/fc.2/Conv_105:out0':
    qtype: u8
    quantizer: asymmetric_affine
    rounding: rtne
    max_value: 0.0
    min_value: 0.0
    scale: 1.0
    zero_point: 0
  '@Add_/enc.14/Add_106:out0':
    qtype: u8
    quantizer: asymmetric_affine
    rounding: rtne
    max_value: 0.0
    min_value: 0.0
    scale: 1.0
    zero_point: 0
  '@Conv_/enc.21/conv/Conv_107:out0':
    qtype: u8
    quantizer: asymmetric_affine
    rounding: rtne
    max_value: 0.0
    min_value: 0.0
    scale: 1.0
    zero_point: 0
  '@Relu_/enc.20/fc.1/Relu_108:out0':
    qtype: u8
    quantizer: asymmetric_affine
    rounding: rtne
    max_value: 0.0
    min_value: 0.0
    scale: 1.0
    zero_point: 0
  '@Conv_/enc.19/conv_2/Conv_109:out0':
    qtype: u8
    quantizer: asymmetric_affine
    rounding: rtne
    max_value: 0.0
    min_value: 0.0
    scale: 1.0
    zero_point: 0
  '@Relu_/enc.18/fc.1_1/Relu_110:out0':
    qtype: u8
    quantizer: asymmetric_affine
    rounding: rtne
    max_value: 0.0
    min_value: 0.0
    scale: 1.0
    zero_point: 0
  '@Conv_/enc.17/conv_5/Conv_111:out0':
    qtype: u8
    quantizer: asymmetric_affine
    rounding: rtne
    max_value: 0.0
    min_value: 0.0
    scale: 1.0
    zero_point: 0
  '@Conv_/enc.16/conv_7/Conv_112:out0':
    qtype: u8
    quantizer: asymmetric_affine
    rounding: rtne
    max_value: 0.0
    min_value: 0.0
    scale: 1.0
    zero_point: 0
  '@GlobalAveragePool_/enc.16/mconv.23/GlobalAveragePool_113:out0':
    qtype: u8
    quantizer: asymmetric_affine
    rounding: rtne
    max_value: 0.0
    min_value: 0.0
    scale: 1.0
    zero_point: 0
  '@Conv_/enc.15/conv_8/Conv_114:out0':
    qtype: u8
    quantizer: asymmetric_affine
    rounding: rtne
    max_value: 0.0
    min_value: 0.0
    scale: 1.0
    zero_point: 0
  '@Relu_/enc.15/mconv.23/fc/fc.1/Relu_115:out0':
    qtype: u8
    quantizer: asymmetric_affine
    rounding: rtne
    max_value: 0.0
    min_value: 0.0
    scale: 1.0
    zero_point: 0
  '@Mul_/enc.14/mconv.23/Mul_116:out0':
    qtype: u8
    quantizer: asymmetric_affine
    rounding: rtne
    max_value: 0.0
    min_value: 0.0
    scale: 1.0
    zero_point: 0
  '@Conv_/enc.14/conv_10/Conv_117:out0':
    qtype: u8
    quantizer: asymmetric_affine
    rounding: rtne
    max_value: 0.0
    min_value: 0.0
    scale: 1.0
    zero_point: 0
  '@Add_/enc.13/Add_118:out0':
    qtype: u8
    quantizer: asymmetric_affine
    rounding: rtne
    max_value: 0.0
    min_value: 0.0
    scale: 1.0
    zero_point: 0
  '@Conv_/enc.20/conv_1/Conv_119:out0':
    qtype: u8
    quantizer: asymmetric_affine
    rounding: rtne
    max_value: 0.0
    min_value: 0.0
    scale: 1.0
    zero_point: 0
  '@Relu_/enc.19/fc.1/Relu_120:out0':
    qtype: u8
    quantizer: asymmetric_affine
    rounding: rtne
    max_value: 0.0
    min_value: 0.0
    scale: 1.0
    zero_point: 0
  '@Conv_/enc.18/conv_3/Conv_121:out0':
    qtype: u8
    quantizer: asymmetric_affine
    rounding: rtne
    max_value: 0.0
    min_value: 0.0
    scale: 1.0
    zero_point: 0
  '@Conv_/enc.17/conv_4/Conv_122:out0':
    qtype: u8
    quantizer: asymmetric_affine
    rounding: rtne
    max_value: 0.0
    min_value: 0.0
    scale: 1.0
    zero_point: 0
  '@Conv_/enc.16/conv_6/Conv_123:out0':
    qtype: u8
    quantizer: asymmetric_affine
    rounding: rtne
    max_value: 0.0
    min_value: 0.0
    scale: 1.0
    zero_point: 0
  '@Relu_/enc.16/fc.1_2/Relu_124:out0':
    qtype: u8
    quantizer: asymmetric_affine
    rounding: rtne
    max_value: 0.0
    min_value: 0.0
    scale: 1.0
    zero_point: 0
  '@Relu_/enc.15/fc.1_3/Relu_125:out0':
    qtype: u8
    quantizer: asymmetric_affine
    rounding: rtne
    max_value: 0.0
    min_value: 0.0
    scale: 1.0
    zero_point: 0
  '@Conv_/enc.15/mconv.23/fc/fc.0/Conv_126:out0':
    qtype: u8
    quantizer: asymmetric_affine
    rounding: rtne
    max_value: 0.0
    min_value: 0.0
    scale: 1.0
    zero_point: 0
  '@Conv_/enc.14/conv_9/Conv_127:out0':
    qtype: u8
    quantizer: asymmetric_affine
    rounding: rtne
    max_value: 0.0
    min_value: 0.0
    scale: 1.0
    zero_point: 0
  '@Conv_/enc.14/mconv.23/fc/fc.2/Conv_128:out0':
    qtype: u8
    quantizer: asymmetric_affine
    rounding: rtne
    max_value: 0.0
    min_value: 0.0
    scale: 1.0
    zero_point: 0
  '@Mul_/enc.13/mconv.23/Mul_129:out0':
    qtype: u8
    quantizer: asymmetric_affine
    rounding: rtne
    max_value: 0.0
    min_value: 0.0
    scale: 1.0
    zero_point: 0
  '@Conv_/enc.13/conv_10/Conv_130:out0':
    qtype: u8
    quantizer: asymmetric_affine
    rounding: rtne
    max_value: 0.0
    min_value: 0.0
    scale: 1.0
    zero_point: 0
  '@Conv_/enc.20/conv/Conv_131:out0':
    qtype: u8
    quantizer: asymmetric_affine
    rounding: rtne
    max_value: 0.0
    min_value: 0.0
    scale: 1.0
    zero_point: 0
  '@Conv_/enc.19/conv_1/Conv_132:out0':
    qtype: u8
    quantizer: asymmetric_affine
    rounding: rtne
    max_value: 0.0
    min_value: 0.0
    scale: 1.0
    zero_point: 0
  '@Conv_/enc.18/conv_2/Conv_133:out0':
    qtype: u8
    quantizer: asymmetric_affine
    rounding: rtne
    max_value: 0.0
    min_value: 0.0
    scale: 1.0
    zero_point: 0
  '@Relu_/enc.17/fc.1_1/Relu_134:out0':
    qtype: u8
    quantizer: asymmetric_affine
    rounding: rtne
    max_value: 0.0
    min_value: 0.0
    scale: 1.0
    zero_point: 0
  '@Conv_/enc.16/conv_5/Conv_135:out0':
    qtype: u8
    quantizer: asymmetric_affine
    rounding: rtne
    max_value: 0.0
    min_value: 0.0
    scale: 1.0
    zero_point: 0
  '@Conv_/enc.15/conv_7/Conv_136:out0':
    qtype: u8
    quantizer: asymmetric_affine
    rounding: rtne
    max_value: 0.0
    min_value: 0.0
    scale: 1.0
    zero_point: 0
  '@GlobalAveragePool_/enc.15/mconv.23/GlobalAveragePool_137:out0':
    qtype: u8
    quantizer: asymmetric_affine
    rounding: rtne
    max_value: 0.0
    min_value: 0.0
    scale: 1.0
    zero_point: 0
  '@Conv_/enc.14/conv_8/Conv_138:out0':
    qtype: u8
    quantizer: asymmetric_affine
    rounding: rtne
    max_value: 0.0
    min_value: 0.0
    scale: 1.0
    zero_point: 0
  '@Relu_/enc.14/mconv.23/fc/fc.1/Relu_139:out0':
    qtype: u8
    quantizer: asymmetric_affine
    rounding: rtne
    max_value: 0.0
    min_value: 0.0
    scale: 1.0
    zero_point: 0
  '@Conv_/enc.13/conv_9/Conv_140:out0':
    qtype: u8
    quantizer: asymmetric_affine
    rounding: rtne
    max_value: 0.0
    min_value: 0.0
    scale: 1.0
    zero_point: 0
  '@Conv_/enc.13/mconv.23/fc/fc.2/Conv_141:out0':
    qtype: u8
    quantizer: asymmetric_affine
    rounding: rtne
    max_value: 0.0
    min_value: 0.0
    scale: 1.0
    zero_point: 0
  '@Add_/enc.12/Add_142:out0':
    qtype: u8
    quantizer: asymmetric_affine
    rounding: rtne
    max_value: 0.0
    min_value: 0.0
    scale: 1.0
    zero_point: 0
  '@Conv_/enc.12/conv_10/Conv_143:out0':
    qtype: u8
    quantizer: asymmetric_affine
    rounding: rtne
    max_value: 0.0
    min_value: 0.0
    scale: 1.0
    zero_point: 0
  '@Conv_/enc.19/conv/Conv_144:out0':
    qtype: u8
    quantizer: asymmetric_affine
    rounding: rtne
    max_value: 0.0
    min_value: 0.0
    scale: 1.0
    zero_point: 0
  '@Relu_/enc.18/fc.1/Relu_145:out0':
    qtype: u8
    quantizer: asymmetric_affine
    rounding: rtne
    max_value: 0.0
    min_value: 0.0
    scale: 1.0
    zero_point: 0
  '@Conv_/enc.17/conv_3/Conv_146:out0':
    qtype: u8
    quantizer: asymmetric_affine
    rounding: rtne
    max_value: 0.0
    min_value: 0.0
    scale: 1.0
    zero_point: 0
  '@Conv_/enc.16/conv_4/Conv_147:out0':
    qtype: u8
    quantizer: asymmetric_affine
    rounding: rtne
    max_value: 0.0
    min_value: 0.0
    scale: 1.0
    zero_point: 0
  '@Conv_/enc.15/conv_6/Conv_148:out0':
    qtype: u8
    quantizer: asymmetric_affine
    rounding: rtne
    max_value: 0.0
    min_value: 0.0
    scale: 1.0
    zero_point: 0
  '@Relu_/enc.15/fc.1_2/Relu_149:out0':
    qtype: u8
    quantizer: asymmetric_affine
    rounding: rtne
    max_value: 0.0
    min_value: 0.0
    scale: 1.0
    zero_point: 0
  '@Relu_/enc.14/fc.1_3/Relu_150:out0':
    qtype: u8
    quantizer: asymmetric_affine
    rounding: rtne
    max_value: 0.0
    min_value: 0.0
    scale: 1.0
    zero_point: 0
  '@Conv_/enc.14/mconv.23/fc/fc.0/Conv_151:out0':
    qtype: u8
    quantizer: asymmetric_affine
    rounding: rtne
    max_value: 0.0
    min_value: 0.0
    scale: 1.0
    zero_point: 0
  '@Conv_/enc.13/conv_8/Conv_152:out0':
    qtype: u8
    quantizer: asymmetric_affine
    rounding: rtne
    max_value: 0.0
    min_value: 0.0
    scale: 1.0
    zero_point: 0
  '@Relu_/enc.13/mconv.23/fc/fc.1/Relu_153:out0':
    qtype: u8
    quantizer: asymmetric_affine
    rounding: rtne
    max_value: 0.0
    min_value: 0.0
    scale: 1.0
    zero_point: 0
  '@Mul_/enc.12/mconv.23/Mul_154:out0':
    qtype: u8
    quantizer: asymmetric_affine
    rounding: rtne
    max_value: 0.0
    min_value: 0.0
    scale: 1.0
    zero_point: 0
  '@Add_/enc.11/Add_155:out0':
    qtype: u8
    quantizer: asymmetric_affine
    rounding: rtne
    max_value: 0.0
    min_value: 0.0
    scale: 1.0
    zero_point: 0
  '@Conv_/enc.11/conv_10/Conv_156:out0':
    qtype: u8
    quantizer: asymmetric_affine
    rounding: rtne
    max_value: 0.0
    min_value: 0.0
    scale: 1.0
    zero_point: 0
  '@Conv_/enc.18/conv_1/Conv_157:out0':
    qtype: u8
    quantizer: asymmetric_affine
    rounding: rtne
    max_value: 0.0
    min_value: 0.0
    scale: 1.0
    zero_point: 0
  '@Conv_/enc.17/conv_2/Conv_158:out0':
    qtype: u8
    quantizer: asymmetric_affine
    rounding: rtne
    max_value: 0.0
    min_value: 0.0
    scale: 1.0
    zero_point: 0
  '@Relu_/enc.16/fc.1_1/Relu_159:out0':
    qtype: u8
    quantizer: asymmetric_affine
    rounding: rtne
    max_value: 0.0
    min_value: 0.0
    scale: 1.0
    zero_point: 0
  '@Conv_/enc.15/conv_5/Conv_160:out0':
    qtype: u8
    quantizer: asymmetric_affine
    rounding: rtne
    max_value: 0.0
    min_value: 0.0
    scale: 1.0
    zero_point: 0
  '@Conv_/enc.14/conv_7/Conv_161:out0':
    qtype: u8
    quantizer: asymmetric_affine
    rounding: rtne
    max_value: 0.0
    min_value: 0.0
    scale: 1.0
    zero_point: 0
  '@GlobalAveragePool_/enc.14/mconv.23/GlobalAveragePool_162:out0':
    qtype: u8
    quantizer: asymmetric_affine
    rounding: rtne
    max_value: 0.0
    min_value: 0.0
    scale: 1.0
    zero_point: 0
  '@Relu_/enc.13/fc.1_3/Relu_163:out0':
    qtype: u8
    quantizer: asymmetric_affine
    rounding: rtne
    max_value: 0.0
    min_value: 0.0
    scale: 1.0
    zero_point: 0
  '@Conv_/enc.13/mconv.23/fc/fc.0/Conv_164:out0':
    qtype: u8
    quantizer: asymmetric_affine
    rounding: rtne
    max_value: 0.0
    min_value: 0.0
    scale: 1.0
    zero_point: 0
  '@Conv_/enc.12/conv_9/Conv_165:out0':
    qtype: u8
    quantizer: asymmetric_affine
    rounding: rtne
    max_value: 0.0
    min_value: 0.0
    scale: 1.0
    zero_point: 0
  '@Conv_/enc.12/mconv.23/fc/fc.2/Conv_166:out0':
    qtype: u8
    quantizer: asymmetric_affine
    rounding: rtne
    max_value: 0.0
    min_value: 0.0
    scale: 1.0
    zero_point: 0
  '@Mul_/enc.11/mconv.23/Mul_167:out0':
    qtype: u8
    quantizer: asymmetric_affine
    rounding: rtne
    max_value: 0.0
    min_value: 0.0
    scale: 1.0
    zero_point: 0
  '@Add_/enc.10/Add_168:out0':
    qtype: u8
    quantizer: asymmetric_affine
    rounding: rtne
    max_value: 0.0
    min_value: 0.0
    scale: 1.0
    zero_point: 0
  '@Conv_/enc.18/conv/Conv_169:out0':
    qtype: u8
    quantizer: asymmetric_affine
    rounding: rtne
    max_value: 0.0
    min_value: 0.0
    scale: 1.0
    zero_point: 0
  '@Relu_/enc.17/fc.1/Relu_170:out0':
    qtype: u8
    quantizer: asymmetric_affine
    rounding: rtne
    max_value: 0.0
    min_value: 0.0
    scale: 1.0
    zero_point: 0
  '@Conv_/enc.16/conv_3/Conv_171:out0':
    qtype: u8
    quantizer: asymmetric_affine
    rounding: rtne
    max_value: 0.0
    min_value: 0.0
    scale: 1.0
    zero_point: 0
  '@Conv_/enc.15/conv_4/Conv_172:out0':
    qtype: u8
    quantizer: asymmetric_affine
    rounding: rtne
    max_value: 0.0
    min_value: 0.0
    scale: 1.0
    zero_point: 0
  '@Conv_/enc.14/conv_6/Conv_173:out0':
    qtype: u8
    quantizer: asymmetric_affine
    rounding: rtne
    max_value: 0.0
    min_value: 0.0
    scale: 1.0
    zero_point: 0
  '@Relu_/enc.14/fc.1_2/Relu_174:out0':
    qtype: u8
    quantizer: asymmetric_affine
    rounding: rtne
    max_value: 0.0
    min_value: 0.0
    scale: 1.0
    zero_point: 0
  '@Conv_/enc.13/conv_7/Conv_175:out0':
    qtype: u8
    quantizer: asymmetric_affine
    rounding: rtne
    max_value: 0.0
    min_value: 0.0
    scale: 1.0
    zero_point: 0
  '@GlobalAveragePool_/enc.13/mconv.23/GlobalAveragePool_176:out0':
    qtype: u8
    quantizer: asymmetric_affine
    rounding: rtne
    max_value: 0.0
    min_value: 0.0
    scale: 1.0
    zero_point: 0
  '@Conv_/enc.12/conv_8/Conv_177:out0':
    qtype: u8
    quantizer: asymmetric_affine
    rounding: rtne
    max_value: 0.0
    min_value: 0.0
    scale: 1.0
    zero_point: 0
  '@Relu_/enc.12/mconv.23/fc/fc.1/Relu_178:out0':
    qtype: u8
    quantizer: asymmetric_affine
    rounding: rtne
    max_value: 0.0
    min_value: 0.0
    scale: 1.0
    zero_point: 0
  '@Conv_/enc.11/conv_9/Conv_179:out0':
    qtype: u8
    quantizer: asymmetric_affine
    rounding: rtne
    max_value: 0.0
    min_value: 0.0
    scale: 1.0
    zero_point: 0
  '@Conv_/enc.11/mconv.23/fc/fc.2/Conv_180:out0':
    qtype: u8
    quantizer: asymmetric_affine
    rounding: rtne
    max_value: 0.0
    min_value: 0.0
    scale: 1.0
    zero_point: 0
  '@Mul_/enc.10/mconv.23/Mul_181:out0':
    qtype: u8
    quantizer: asymmetric_affine
    rounding: rtne
    max_value: 0.0
    min_value: 0.0
    scale: 1.0
    zero_point: 0
  '@Conv_/enc.10/conv_10/Conv_182:out0':
    qtype: u8
    quantizer: asymmetric_affine
    rounding: rtne
    max_value: 0.0
    min_value: 0.0
    scale: 1.0
    zero_point: 0
  '@Add_/enc.9/Add_183:out0':
    qtype: u8
    quantizer: asymmetric_affine
    rounding: rtne
    max_value: 0.0
    min_value: 0.0
    scale: 1.0
    zero_point: 0
  '@Conv_/enc.17/conv_1/Conv_184:out0':
    qtype: u8
    quantizer: asymmetric_affine
    rounding: rtne
    max_value: 0.0
    min_value: 0.0
    scale: 1.0
    zero_point: 0
  '@Conv_/enc.16/conv_2/Conv_185:out0':
    qtype: u8
    quantizer: asymmetric_affine
    rounding: rtne
    max_value: 0.0
    min_value: 0.0
    scale: 1.0
    zero_point: 0
  '@Relu_/enc.15/fc.1_1/Relu_186:out0':
    qtype: u8
    quantizer: asymmetric_affine
    rounding: rtne
    max_value: 0.0
    min_value: 0.0
    scale: 1.0
    zero_point: 0
  '@Conv_/enc.14/conv_5/Conv_187:out0':
    qtype: u8
    quantizer: asymmetric_affine
    rounding: rtne
    max_value: 0.0
    min_value: 0.0
    scale: 1.0
    zero_point: 0
  '@Conv_/enc.13/conv_6/Conv_188:out0':
    qtype: u8
    quantizer: asymmetric_affine
    rounding: rtne
    max_value: 0.0
    min_value: 0.0
    scale: 1.0
    zero_point: 0
  '@Relu_/enc.13/fc.1_2/Relu_189:out0':
    qtype: u8
    quantizer: asymmetric_affine
    rounding: rtne
    max_value: 0.0
    min_value: 0.0
    scale: 1.0
    zero_point: 0
  '@Relu_/enc.12/fc.1_3/Relu_190:out0':
    qtype: u8
    quantizer: asymmetric_affine
    rounding: rtne
    max_value: 0.0
    min_value: 0.0
    scale: 1.0
    zero_point: 0
  '@Conv_/enc.12/mconv.23/fc/fc.0/Conv_191:out0':
    qtype: u8
    quantizer: asymmetric_affine
    rounding: rtne
    max_value: 0.0
    min_value: 0.0
    scale: 1.0
    zero_point: 0
  '@Conv_/enc.11/conv_8/Conv_192:out0':
    qtype: u8
    quantizer: asymmetric_affine
    rounding: rtne
    max_value: 0.0
    min_value: 0.0
    scale: 1.0
    zero_point: 0
  '@Relu_/enc.11/mconv.23/fc/fc.1/Relu_193:out0':
    qtype: u8
    quantizer: asymmetric_affine
    rounding: rtne
    max_value: 0.0
    min_value: 0.0
    scale: 1.0
    zero_point: 0
  '@Conv_/enc.10/conv_9/Conv_194:out0':
    qtype: u8
    quantizer: asymmetric_affine
    rounding: rtne
    max_value: 0.0
    min_value: 0.0
    scale: 1.0
    zero_point: 0
  '@Conv_/enc.10/mconv.23/fc/fc.2/Conv_195:out0':
    qtype: u8
    quantizer: asymmetric_affine
    rounding: rtne
    max_value: 0.0
    min_value: 0.0
    scale: 1.0
    zero_point: 0
  '@Mul_/enc.9/mconv.23/Mul_196:out0':
    qtype: u8
    quantizer: asymmetric_affine
    rounding: rtne
    max_value: 0.0
    min_value: 0.0
    scale: 1.0
    zero_point: 0
  '@Conv_/enc.9/conv_10/Conv_197:out0':
    qtype: u8
    quantizer: asymmetric_affine
    rounding: rtne
    max_value: 0.0
    min_value: 0.0
    scale: 1.0
    zero_point: 0
  '@Conv_/enc.17/conv/Conv_198:out0':
    qtype: u8
    quantizer: asymmetric_affine
    rounding: rtne
    max_value: 0.0
    min_value: 0.0
    scale: 1.0
    zero_point: 0
  '@Relu_/enc.16/fc.1/Relu_199:out0':
    qtype: u8
    quantizer: asymmetric_affine
    rounding: rtne
    max_value: 0.0
    min_value: 0.0
    scale: 1.0
    zero_point: 0
  '@Conv_/enc.15/conv_3/Conv_200:out0':
    qtype: u8
    quantizer: asymmetric_affine
    rounding: rtne
    max_value: 0.0
    min_value: 0.0
    scale: 1.0
    zero_point: 0
  '@Conv_/enc.14/conv_4/Conv_201:out0':
    qtype: u8
    quantizer: asymmetric_affine
    rounding: rtne
    max_value: 0.0
    min_value: 0.0
    scale: 1.0
    zero_point: 0
  '@Conv_/enc.13/conv_5/Conv_202:out0':
    qtype: u8
    quantizer: asymmetric_affine
    rounding: rtne
    max_value: 0.0
    min_value: 0.0
    scale: 1.0
    zero_point: 0
  '@Conv_/enc.12/conv_7/Conv_203:out0':
    qtype: u8
    quantizer: asymmetric_affine
    rounding: rtne
    max_value: 0.0
    min_value: 0.0
    scale: 1.0
    zero_point: 0
  '@GlobalAveragePool_/enc.12/mconv.23/GlobalAveragePool_204:out0':
    qtype: u8
    quantizer: asymmetric_affine
    rounding: rtne
    max_value: 0.0
    min_value: 0.0
    scale: 1.0
    zero_point: 0
  '@Relu_/enc.11/fc.1_3/Relu_205:out0':
    qtype: u8
    quantizer: asymmetric_affine
    rounding: rtne
    max_value: 0.0
    min_value: 0.0
    scale: 1.0
    zero_point: 0
  '@Conv_/enc.11/mconv.23/fc/fc.0/Conv_206:out0':
    qtype: u8
    quantizer: asymmetric_affine
    rounding: rtne
    max_value: 0.0
    min_value: 0.0
    scale: 1.0
    zero_point: 0
  '@Conv_/enc.10/conv_8/Conv_207:out0':
    qtype: u8
    quantizer: asymmetric_affine
    rounding: rtne
    max_value: 0.0
    min_value: 0.0
    scale: 1.0
    zero_point: 0
  '@Relu_/enc.10/mconv.23/fc/fc.1/Relu_208:out0':
    qtype: u8
    quantizer: asymmetric_affine
    rounding: rtne
    max_value: 0.0
    min_value: 0.0
    scale: 1.0
    zero_point: 0
  '@Conv_/enc.9/conv_9/Conv_209:out0':
    qtype: u8
    quantizer: asymmetric_affine
    rounding: rtne
    max_value: 0.0
    min_value: 0.0
    scale: 1.0
    zero_point: 0
  '@Conv_/enc.9/mconv.23/fc/fc.2/Conv_210:out0':
    qtype: u8
    quantizer: asymmetric_affine
    rounding: rtne
    max_value: 0.0
    min_value: 0.0
    scale: 1.0
    zero_point: 0
  '@Add_/enc.8/Add_211:out0':
    qtype: u8
    quantizer: asymmetric_affine
    rounding: rtne
    max_value: 0.0
    min_value: 0.0
    scale: 1.0
    zero_point: 0
  '@Conv_/enc.8/conv_10/Conv_212:out0':
    qtype: u8
    quantizer: asymmetric_affine
    rounding: rtne
    max_value: 0.0
    min_value: 0.0
    scale: 1.0
    zero_point: 0
  '@Conv_/enc.16/conv_1/Conv_213:out0':
    qtype: u8
    quantizer: asymmetric_affine
    rounding: rtne
    max_value: 0.0
    min_value: 0.0
    scale: 1.0
    zero_point: 0
  '@Conv_/enc.15/conv_2/Conv_214:out0':
    qtype: u8
    quantizer: asymmetric_affine
    rounding: rtne
    max_value: 0.0
    min_value: 0.0
    scale: 1.0
    zero_point: 0
  '@Relu_/enc.14/fc.1_1/Relu_215:out0':
    qtype: u8
    quantizer: asymmetric_affine
    rounding: rtne
    max_value: 0.0
    min_value: 0.0
    scale: 1.0
    zero_point: 0
  '@Conv_/enc.13/conv_4/Conv_216:out0':
    qtype: u8
    quantizer: asymmetric_affine
    rounding: rtne
    max_value: 0.0
    min_value: 0.0
    scale: 1.0
    zero_point: 0
  '@Conv_/enc.12/conv_6/Conv_217:out0':
    qtype: u8
    quantizer: asymmetric_affine
    rounding: rtne
    max_value: 0.0
    min_value: 0.0
    scale: 1.0
    zero_point: 0
  '@Relu_/enc.12/fc.1_2/Relu_218:out0':
    qtype: u8
    quantizer: asymmetric_affine
    rounding: rtne
    max_value: 0.0
    min_value: 0.0
    scale: 1.0
    zero_point: 0
  '@Conv_/enc.11/conv_7/Conv_219:out0':
    qtype: u8
    quantizer: asymmetric_affine
    rounding: rtne
    max_value: 0.0
    min_value: 0.0
    scale: 1.0
    zero_point: 0
  '@GlobalAveragePool_/enc.11/mconv.23/GlobalAveragePool_220:out0':
    qtype: u8
    quantizer: asymmetric_affine
    rounding: rtne
    max_value: 0.0
    min_value: 0.0
    scale: 1.0
    zero_point: 0
  '@Relu_/enc.10/fc.1_3/Relu_221:out0':
    qtype: u8
    quantizer: asymmetric_affine
    rounding: rtne
    max_value: 0.0
    min_value: 0.0
    scale: 1.0
    zero_point: 0
  '@Conv_/enc.10/mconv.23/fc/fc.0/Conv_222:out0':
    qtype: u8
    quantizer: asymmetric_affine
    rounding: rtne
    max_value: 0.0
    min_value: 0.0
    scale: 1.0
    zero_point: 0
  '@Conv_/enc.9/conv_8/Conv_223:out0':
    qtype: u8
    quantizer: asymmetric_affine
    rounding: rtne
    max_value: 0.0
    min_value: 0.0
    scale: 1.0
    zero_point: 0
  '@Relu_/enc.9/mconv.23/fc/fc.1/Relu_224:out0':
    qtype: u8
    quantizer: asymmetric_affine
    rounding: rtne
    max_value: 0.0
    min_value: 0.0
    scale: 1.0
    zero_point: 0
  '@Mul_/enc.8/mconv.23/Mul_225:out0':
    qtype: u8
    quantizer: asymmetric_affine
    rounding: rtne
    max_value: 0.0
    min_value: 0.0
    scale: 1.0
    zero_point: 0
  '@Add_/enc.7/Add_226:out0':
    qtype: u8
    quantizer: asymmetric_affine
    rounding: rtne
    max_value: 0.0
    min_value: 0.0
    scale: 1.0
    zero_point: 0
  '@Conv_/enc.16/conv/Conv_227:out0':
    qtype: u8
    quantizer: asymmetric_affine
    rounding: rtne
    max_value: 0.0
    min_value: 0.0
    scale: 1.0
    zero_point: 0
  '@Relu_/enc.15/fc.1/Relu_228:out0':
    qtype: u8
    quantizer: asymmetric_affine
    rounding: rtne
    max_value: 0.0
    min_value: 0.0
    scale: 1.0
    zero_point: 0
  '@Conv_/enc.14/conv_3/Conv_229:out0':
    qtype: u8
    quantizer: asymmetric_affine
    rounding: rtne
    max_value: 0.0
    min_value: 0.0
    scale: 1.0
    zero_point: 0
  '@Relu_/enc.13/fc.1_1/Relu_230:out0':
    qtype: u8
    quantizer: asymmetric_affine
    rounding: rtne
    max_value: 0.0
    min_value: 0.0
    scale: 1.0
    zero_point: 0
  '@Conv_/enc.12/conv_5/Conv_231:out0':
    qtype: u8
    quantizer: asymmetric_affine
    rounding: rtne
    max_value: 0.0
    min_value: 0.0
    scale: 1.0
    zero_point: 0
  '@Conv_/enc.11/conv_6/Conv_232:out0':
    qtype: u8
    quantizer: asymmetric_affine
    rounding: rtne
    max_value: 0.0
    min_value: 0.0
    scale: 1.0
    zero_point: 0
  '@Relu_/enc.11/fc.1_2/Relu_233:out0':
    qtype: u8
    quantizer: asymmetric_affine
    rounding: rtne
    max_value: 0.0
    min_value: 0.0
    scale: 1.0
    zero_point: 0
  '@Conv_/enc.10/conv_7/Conv_234:out0':
    qtype: u8
    quantizer: asymmetric_affine
    rounding: rtne
    max_value: 0.0
    min_value: 0.0
    scale: 1.0
    zero_point: 0
  '@GlobalAveragePool_/enc.10/mconv.23/GlobalAveragePool_235:out0':
    qtype: u8
    quantizer: asymmetric_affine
    rounding: rtne
    max_value: 0.0
    min_value: 0.0
    scale: 1.0
    zero_point: 0
  '@Relu_/enc.9/fc.1_3/Relu_236:out0':
    qtype: u8
    quantizer: asymmetric_affine
    rounding: rtne
    max_value: 0.0
    min_value: 0.0
    scale: 1.0
    zero_point: 0
  '@Conv_/enc.9/mconv.23/fc/fc.0/Conv_237:out0':
    qtype: u8
    quantizer: asymmetric_affine
    rounding: rtne
    max_value: 0.0
    min_value: 0.0
    scale: 1.0
    zero_point: 0
  '@Conv_/enc.8/conv_9/Conv_238:out0':
    qtype: u8
    quantizer: asymmetric_affine
    rounding: rtne
    max_value: 0.0
    min_value: 0.0
    scale: 1.0
    zero_point: 0
  '@Conv_/enc.8/mconv.23/fc/fc.2/Conv_239:out0':
    qtype: u8
    quantizer: asymmetric_affine
    rounding: rtne
    max_value: 0.0
    min_value: 0.0
    scale: 1.0
    zero_point: 0
  '@Mul_/enc.7/mconv.23/Mul_240:out0':
    qtype: u8
    quantizer: asymmetric_affine
    rounding: rtne
    max_value: 0.0
    min_value: 0.0
    scale: 1.0
    zero_point: 0
  '@Conv_/enc.7/conv_10/Conv_241:out0':
    qtype: u8
    quantizer: asymmetric_affine
    rounding: rtne
    max_value: 0.0
    min_value: 0.0
    scale: 1.0
    zero_point: 0
  '@Add_/enc.6/Add_242:out0':
    qtype: u8
    quantizer: asymmetric_affine
    rounding: rtne
    max_value: 0.0
    min_value: 0.0
    scale: 1.0
    zero_point: 0
  '@Conv_/enc.15/conv_1/Conv_243:out0':
    qtype: u8
    quantizer: asymmetric_affine
    rounding: rtne
    max_value: 0.0
    min_value: 0.0
    scale: 1.0
    zero_point: 0
  '@Conv_/enc.14/conv_2/Conv_244:out0':
    qtype: u8
    quantizer: asymmetric_affine
    rounding: rtne
    max_value: 0.0
    min_value: 0.0
    scale: 1.0
    zero_point: 0
  '@Conv_/enc.13/conv_3/Conv_245:out0':
    qtype: u8
    quantizer: asymmetric_affine
    rounding: rtne
    max_value: 0.0
    min_value: 0.0
    scale: 1.0
    zero_point: 0
  '@Conv_/enc.12/conv_4/Conv_246:out0':
    qtype: u8
    quantizer: asymmetric_affine
    rounding: rtne
    max_value: 0.0
    min_value: 0.0
    scale: 1.0
    zero_point: 0
  '@Conv_/enc.11/conv_5/Conv_247:out0':
    qtype: u8
    quantizer: asymmetric_affine
    rounding: rtne
    max_value: 0.0
    min_value: 0.0
    scale: 1.0
    zero_point: 0
  '@Conv_/enc.10/conv_6/Conv_248:out0':
    qtype: u8
    quantizer: asymmetric_affine
    rounding: rtne
    max_value: 0.0
    min_value: 0.0
    scale: 1.0
    zero_point: 0
  '@Relu_/enc.10/fc.1_2/Relu_249:out0':
    qtype: u8
    quantizer: asymmetric_affine
    rounding: rtne
    max_value: 0.0
    min_value: 0.0
    scale: 1.0
    zero_point: 0
  '@Conv_/enc.9/conv_7/Conv_250:out0':
    qtype: u8
    quantizer: asymmetric_affine
    rounding: rtne
    max_value: 0.0
    min_value: 0.0
    scale: 1.0
    zero_point: 0
  '@GlobalAveragePool_/enc.9/mconv.23/GlobalAveragePool_251:out0':
    qtype: u8
    quantizer: asymmetric_affine
    rounding: rtne
    max_value: 0.0
    min_value: 0.0
    scale: 1.0
    zero_point: 0
  '@Conv_/enc.8/conv_8/Conv_252:out0':
    qtype: u8
    quantizer: asymmetric_affine
    rounding: rtne
    max_value: 0.0
    min_value: 0.0
    scale: 1.0
    zero_point: 0
  '@Relu_/enc.8/mconv.23/fc/fc.1/Relu_253:out0':
    qtype: u8
    quantizer: asymmetric_affine
    rounding: rtne
    max_value: 0.0
    min_value: 0.0
    scale: 1.0
    zero_point: 0
  '@Conv_/enc.7/conv_9/Conv_254:out0':
    qtype: u8
    quantizer: asymmetric_affine
    rounding: rtne
    max_value: 0.0
    min_value: 0.0
    scale: 1.0
    zero_point: 0
  '@Conv_/enc.7/mconv.23/fc/fc.2/Conv_255:out0':
    qtype: u8
    quantizer: asymmetric_affine
    rounding: rtne
    max_value: 0.0
    min_value: 0.0
    scale: 1.0
    zero_point: 0
  '@Mul_/enc.6/mconv.23/Mul_256:out0':
    qtype: u8
    quantizer: asymmetric_affine
    rounding: rtne
    max_value: 0.0
    min_value: 0.0
    scale: 1.0
    zero_point: 0
  '@Conv_/enc.6/conv_10/Conv_257:out0':
    qtype: u8
    quantizer: asymmetric_affine
    rounding: rtne
    max_value: 0.0
    min_value: 0.0
    scale: 1.0
    zero_point: 0
  '@Conv_/enc.15/conv/Conv_258:out0':
    qtype: u8
    quantizer: asymmetric_affine
    rounding: rtne
    max_value: 0.0
    min_value: 0.0
    scale: 1.0
    zero_point: 0
  '@Relu_/enc.14/fc.1/Relu_259:out0':
    qtype: u8
    quantizer: asymmetric_affine
    rounding: rtne
    max_value: 0.0
    min_value: 0.0
    scale: 1.0
    zero_point: 0
  '@Conv_/enc.13/conv_2/Conv_260:out0':
    qtype: u8
    quantizer: asymmetric_affine
    rounding: rtne
    max_value: 0.0
    min_value: 0.0
    scale: 1.0
    zero_point: 0
  '@Relu_/enc.12/fc.1_1/Relu_261:out0':
    qtype: u8
    quantizer: asymmetric_affine
    rounding: rtne
    max_value: 0.0
    min_value: 0.0
    scale: 1.0
    zero_point: 0
  '@Conv_/enc.11/conv_4/Conv_262:out0':
    qtype: u8
    quantizer: asymmetric_affine
    rounding: rtne
    max_value: 0.0
    min_value: 0.0
    scale: 1.0
    zero_point: 0
  '@Conv_/enc.10/conv_5/Conv_263:out0':
    qtype: u8
    quantizer: asymmetric_affine
    rounding: rtne
    max_value: 0.0
    min_value: 0.0
    scale: 1.0
    zero_point: 0
  '@Conv_/enc.9/conv_6/Conv_264:out0':
    qtype: u8
    quantizer: asymmetric_affine
    rounding: rtne
    max_value: 0.0
    min_value: 0.0
    scale: 1.0
    zero_point: 0
  '@Relu_/enc.9/fc.1_2/Relu_265:out0':
    qtype: u8
    quantizer: asymmetric_affine
    rounding: rtne
    max_value: 0.0
    min_value: 0.0
    scale: 1.0
    zero_point: 0
  '@Relu_/enc.8/fc.1_3/Relu_266:out0':
    qtype: u8
    quantizer: asymmetric_affine
    rounding: rtne
    max_value: 0.0
    min_value: 0.0
    scale: 1.0
    zero_point: 0
  '@Conv_/enc.8/mconv.23/fc/fc.0/Conv_267:out0':
    qtype: u8
    quantizer: asymmetric_affine
    rounding: rtne
    max_value: 0.0
    min_value: 0.0
    scale: 1.0
    zero_point: 0
  '@Conv_/enc.7/conv_8/Conv_268:out0':
    qtype: u8
    quantizer: asymmetric_affine
    rounding: rtne
    max_value: 0.0
    min_value: 0.0
    scale: 1.0
    zero_point: 0
  '@Relu_/enc.7/mconv.23/fc/fc.1/Relu_269:out0':
    qtype: u8
    quantizer: asymmetric_affine
    rounding: rtne
    max_value: 0.0
    min_value: 0.0
    scale: 1.0
    zero_point: 0
  '@Conv_/enc.6/conv_9/Conv_270:out0':
    qtype: u8
    quantizer: asymmetric_affine
    rounding: rtne
    max_value: 0.0
    min_value: 0.0
    scale: 1.0
    zero_point: 0
  '@Conv_/enc.6/mconv.23/fc/fc.2/Conv_271:out0':
    qtype: u8
    quantizer: asymmetric_affine
    rounding: rtne
    max_value: 0.0
    min_value: 0.0
    scale: 1.0
    zero_point: 0
  '@Add_/enc.5/Add_272:out0':
    qtype: u8
    quantizer: asymmetric_affine
    rounding: rtne
    max_value: 99999997952.0
    min_value: -99999997952.0
    scale: 784313728.0
    zero_point: 128
  '@Conv_/enc.5/conv_10/Conv_273:out0':
    qtype: u8
    quantizer: asymmetric_affine
    rounding: rtne
    max_value: 99999997952.0
    min_value: -99999997952.0
    scale: 784313728.0
    zero_point: 128
  '@Conv_/enc.14/conv_1/Conv_274:out0':
    qtype: u8
    quantizer: asymmetric_affine
    rounding: rtne
    max_value: 0.0
    min_value: 0.0
    scale: 1.0
    zero_point: 0
  '@Relu_/enc.13/fc.1/Relu_275:out0':
    qtype: u8
    quantizer: asymmetric_affine
    rounding: rtne
    max_value: 0.0
    min_value: 0.0
    scale: 1.0
    zero_point: 0
  '@Conv_/enc.12/conv_3/Conv_276:out0':
    qtype: u8
    quantizer: asymmetric_affine
    rounding: rtne
    max_value: 0.0
    min_value: 0.0
    scale: 1.0
    zero_point: 0
  '@Relu_/enc.11/fc.1_1/Relu_277:out0':
    qtype: u8
    quantizer: asymmetric_affine
    rounding: rtne
    max_value: 0.0
    min_value: 0.0
    scale: 1.0
    zero_point: 0
  '@Conv_/enc.10/conv_4/Conv_278:out0':
    qtype: u8
    quantizer: asymmetric_affine
    rounding: rtne
    max_value: 0.0
    min_value: 0.0
    scale: 1.0
    zero_point: 0
  '@Conv_/enc.9/conv_5/Conv_279:out0':
    qtype: u8
    quantizer: asymmetric_affine
    rounding: rtne
    max_value: 0.0
    min_value: 0.0
    scale: 1.0
    zero_point: 0
  '@Conv_/enc.8/conv_7/Conv_280:out0':
    qtype: u8
    quantizer: asymmetric_affine
    rounding: rtne
    max_value: 0.0
    min_value: 0.0
    scale: 1.0
    zero_point: 0
  '@GlobalAveragePool_/enc.8/mconv.23/GlobalAveragePool_281:out0':
    qtype: u8
    quantizer: asymmetric_affine
    rounding: rtne
    max_value: 0.0
    min_value: 0.0
    scale: 1.0
    zero_point: 0
  '@Relu_/enc.7/fc.1_3/Relu_282:out0':
    qtype: u8
    quantizer: asymmetric_affine
    rounding: rtne
    max_value: 0.0
    min_value: 0.0
    scale: 1.0
    zero_point: 0
  '@Conv_/enc.7/mconv.23/fc/fc.0/Conv_283:out0':
    qtype: u8
    quantizer: asymmetric_affine
    rounding: rtne
    max_value: 0.0
    min_value: 0.0
    scale: 1.0
    zero_point: 0
  '@Conv_/enc.6/conv_8/Conv_284:out0':
    qtype: u8
    quantizer: asymmetric_affine
    rounding: rtne
    max_value: 0.0
    min_value: 0.0
    scale: 1.0
    zero_point: 0
  '@Relu_/enc.6/mconv.23/fc/fc.1/Relu_285:out0':
    qtype: u8
    quantizer: asymmetric_affine
    rounding: rtne
    max_value: 0.0
    min_value: 0.0
    scale: 1.0
    zero_point: 0
  '@Mul_/enc.5/mconv.23/Mul_286:out0':
    qtype: u8
    quantizer: asymmetric_affine
    rounding: rtne
    max_value: 99999997952.0
    min_value: -99999997952.0
    scale: 784313728.0
    zero_point: 128
  '@Add_/enc.4/Add_287:out0':
    qtype: u8
    quantizer: asymmetric_affine
    rounding: rtne
    max_value: 99999997952.0
    min_value: -99999997952.0
    scale: 784313728.0
    zero_point: 128
  '@Conv_/enc.14/conv/Conv_288:out0':
    qtype: u8
    quantizer: asymmetric_affine
    rounding: rtne
    max_value: 0.0
    min_value: 0.0
    scale: 1.0
    zero_point: 0
  '@Conv_/enc.13/conv_1/Conv_289:out0':
    qtype: u8
    quantizer: asymmetric_affine
    rounding: rtne
    max_value: 0.0
    min_value: 0.0
    scale: 1.0
    zero_point: 0
  '@Conv_/enc.12/conv_2/Conv_290:out0':
    qtype: u8
    quantizer: asymmetric_affine
    rounding: rtne
    max_value: 0.0
    min_value: 0.0
    scale: 1.0
    zero_point: 0
  '@Conv_/enc.11/conv_3/Conv_291:out0':
    qtype: u8
    quantizer: asymmetric_affine
    rounding: rtne
    max_value: 0.0
    min_value: 0.0
    scale: 1.0
    zero_point: 0
  '@Relu_/enc.10/fc.1_1/Relu_292:out0':
    qtype: u8
    quantizer: asymmetric_affine
    rounding: rtne
    max_value: 0.0
    min_value: 0.0
    scale: 1.0
    zero_point: 0
  '@Conv_/enc.9/conv_4/Conv_293:out0':
    qtype: u8
    quantizer: asymmetric_affine
    rounding: rtne
    max_value: 0.0
    min_value: 0.0
    scale: 1.0
    zero_point: 0
  '@Conv_/enc.8/conv_6/Conv_294:out0':
    qtype: u8
    quantizer: asymmetric_affine
    rounding: rtne
    max_value: 0.0
    min_value: 0.0
    scale: 1.0
    zero_point: 0
  '@Relu_/enc.8/fc.1_2/Relu_295:out0':
    qtype: u8
    quantizer: asymmetric_affine
    rounding: rtne
    max_value: 0.0
    min_value: 0.0
    scale: 1.0
    zero_point: 0
  '@Conv_/enc.7/conv_7/Conv_296:out0':
    qtype: u8
    quantizer: asymmetric_affine
    rounding: rtne
    max_value: 0.0
    min_value: 0.0
    scale: 1.0
    zero_point: 0
  '@GlobalAveragePool_/enc.7/mconv.23/GlobalAveragePool_297:out0':
    qtype: u8
    quantizer: asymmetric_affine
    rounding: rtne
    max_value: 0.0
    min_value: 0.0
    scale: 1.0
    zero_point: 0
  '@Relu_/enc.6/fc.1_3/Relu_298:out0':
    qtype: u8
    quantizer: asymmetric_affine
    rounding: rtne
    max_value: 0.0
    min_value: 0.0
    scale: 1.0
    zero_point: 0
  '@Conv_/enc.6/mconv.23/fc/fc.0/Conv_299:out0':
    qtype: u8
    quantizer: asymmetric_affine
    rounding: rtne
    max_value: 0.0
    min_value: 0.0
    scale: 1.0
    zero_point: 0
  '@Conv_/enc.5/conv_9/Conv_300:out0':
    qtype: u8
    quantizer: asymmetric_affine
    rounding: rtne
    max_value: 99999997952.0
    min_value: -99999997952.0
    scale: 784313728.0
    zero_point: 128
  '@Conv_/enc.5/mconv.23/fc/fc.2/Conv_301:out0':
    qtype: u8
    quantizer: asymmetric_affine
    rounding: rtne
    max_value: 99999997952.0
    min_value: -99999997952.0
    scale: 784313728.0
    zero_point: 128
  '@Mul_/enc.4/mconv.23/Mul_302:out0':
    qtype: u8
    quantizer: asymmetric_affine
    rounding: rtne
    max_value: 99999997952.0
    min_value: -99999997952.0
    scale: 784313728.0
    zero_point: 128
  '@Conv_/enc.4/conv_10/Conv_303:out0':
    qtype: u8
    quantizer: asymmetric_affine
    rounding: rtne
    max_value: 5495436800.0
    min_value: -4838513152.0
    scale: 40525292.0
    zero_point: 119
  '@Add_/enc.3/Add_304:out0':
    qtype: u8
    quantizer: asymmetric_affine
    rounding: rtne
    max_value: 15625438208.0
    min_value: -14633835520.0
    scale: 118663816.0
    zero_point: 123
  '@Conv_/enc.13/conv/Conv_305:out0':
    qtype: u8
    quantizer: asymmetric_affine
    rounding: rtne
    max_value: 0.0
    min_value: 0.0
    scale: 1.0
    zero_point: 0
  '@Relu_/enc.12/fc.1/Relu_306:out0':
    qtype: u8
    quantizer: asymmetric_affine
    rounding: rtne
    max_value: 0.0
    min_value: 0.0
    scale: 1.0
    zero_point: 0
  '@Conv_/enc.11/conv_2/Conv_307:out0':
    qtype: u8
    quantizer: asymmetric_affine
    rounding: rtne
    max_value: 0.0
    min_value: 0.0
    scale: 1.0
    zero_point: 0
  '@Conv_/enc.10/conv_3/Conv_308:out0':
    qtype: u8
    quantizer: asymmetric_affine
    rounding: rtne
    max_value: 0.0
    min_value: 0.0
    scale: 1.0
    zero_point: 0
  '@Relu_/enc.9/fc.1_1/Relu_309:out0':
    qtype: u8
    quantizer: asymmetric_affine
    rounding: rtne
    max_value: 0.0
    min_value: 0.0
    scale: 1.0
    zero_point: 0
  '@Conv_/enc.8/conv_5/Conv_310:out0':
    qtype: u8
    quantizer: asymmetric_affine
    rounding: rtne
    max_value: 0.0
    min_value: 0.0
    scale: 1.0
    zero_point: 0
  '@Conv_/enc.7/conv_6/Conv_311:out0':
    qtype: u8
    quantizer: asymmetric_affine
    rounding: rtne
    max_value: 0.0
    min_value: 0.0
    scale: 1.0
    zero_point: 0
  '@Relu_/enc.7/fc.1_2/Relu_312:out0':
    qtype: u8
    quantizer: asymmetric_affine
    rounding: rtne
    max_value: 0.0
    min_value: 0.0
    scale: 1.0
    zero_point: 0
  '@Conv_/enc.6/conv_7/Conv_313:out0':
    qtype: u8
    quantizer: asymmetric_affine
    rounding: rtne
    max_value: 0.0
    min_value: 0.0
    scale: 1.0
    zero_point: 0
  '@GlobalAveragePool_/enc.6/mconv.23/GlobalAveragePool_314:out0':
    qtype: u8
    quantizer: asymmetric_affine
    rounding: rtne
    max_value: 0.0
    min_value: 0.0
    scale: 1.0
    zero_point: 0
  '@Conv_/enc.5/conv_8/Conv_315:out0':
    qtype: u8
    quantizer: asymmetric_affine
    rounding: rtne
    max_value: 99999997952.0
    min_value: -99999997952.0
    scale: 784313728.0
    zero_point: 128
  '@Relu_/enc.5/mconv.23/fc/fc.1/Relu_316:out0':
    qtype: u8
    quantizer: asymmetric_affine
    rounding: rtne
    max_value: 99999997952.0
    min_value: 0.0
    scale: 392156864.0
    zero_point: 0
  '@Conv_/enc.4/conv_9/Conv_317:out0':
    qtype: u8
    quantizer: asymmetric_affine
    rounding: rtne
    max_value: 48536928256.0
    min_value: -54138638336.0
    scale: 402649280.0
    zero_point: 134
  '@Conv_/enc.4/mconv.23/fc/fc.2/Conv_318:out0':
    qtype: u8
    quantizer: asymmetric_affine
    rounding: rtne
    max_value: 18311346176.0
    min_value: -29706899456.0
    scale: 188306832.0
    zero_point: 158
  '@Mul_/enc.3/mconv.23/Mul_319:out0':
    qtype: u8
    quantizer: asymmetric_affine
    rounding: rtne
    max_value: 15625426944.0
    min_value: -14633838592.0
    scale: 118663784.0
    zero_point: 123
  '@Conv_/enc.3/conv_10/Conv_320:out0':
    qtype: u8
    quantizer: asymmetric_affine
    rounding: rtne
    max_value: 23138.595703125
    min_value: -28387.119140625
    scale: 202.06163024902344
    zero_point: 140
  '@Add_/enc.2/Add_321:out0':
    qtype: u8
    quantizer: asymmetric_affine
    rounding: rtne
    max_value: 57373.2734375
    min_value: -22019.31640625
    scale: 311.343505859375
    zero_point: 71
  '@Conv_/enc.12/conv_1/Conv_322:out0':
    qtype: u8
    quantizer: asymmetric_affine
    rounding: rtne
    max_value: 0.0
    min_value: 0.0
    scale: 1.0
    zero_point: 0
  '@Relu_/enc.11/fc.1/Relu_323:out0':
    qtype: u8
    quantizer: asymmetric_affine
    rounding: rtne
    max_value: 0.0
    min_value: 0.0
    scale: 1.0
    zero_point: 0
  '@Conv_/enc.10/conv_2/Conv_324:out0':
    qtype: u8
    quantizer: asymmetric_affine
    rounding: rtne
    max_value: 0.0
    min_value: 0.0
    scale: 1.0
    zero_point: 0
  '@Conv_/enc.9/conv_3/Conv_325:out0':
    qtype: u8
    quantizer: asymmetric_affine
    rounding: rtne
    max_value: 0.0
    min_value: 0.0
    scale: 1.0
    zero_point: 0
  '@Conv_/enc.8/conv_4/Conv_326:out0':
    qtype: u8
    quantizer: asymmetric_affine
    rounding: rtne
    max_value: 0.0
    min_value: 0.0
    scale: 1.0
    zero_point: 0
  '@Conv_/enc.7/conv_5/Conv_327:out0':
    qtype: u8
    quantizer: asymmetric_affine
    rounding: rtne
    max_value: 0.0
    min_value: 0.0
    scale: 1.0
    zero_point: 0
  '@Conv_/enc.6/conv_6/Conv_328:out0':
    qtype: u8
    quantizer: asymmetric_affine
    rounding: rtne
    max_value: 0.0
    min_value: 0.0
    scale: 1.0
    zero_point: 0
  '@Relu_/enc.6/fc.1_2/Relu_329:out0':
    qtype: u8
    quantizer: asymmetric_affine
    rounding: rtne
    max_value: 0.0
    min_value: 0.0
    scale: 1.0
    zero_point: 0
  '@Relu_/enc.5/fc.1_3/Relu_330:out0':
    qtype: u8
    quantizer: asymmetric_affine
    rounding: rtne
    max_value: 99999997952.0
    min_value: 0.0
    scale: 392156864.0
    zero_point: 0
  '@Conv_/enc.5/mconv.23/fc/fc.0/Conv_331:out0':
    qtype: u8
    quantizer: asymmetric_affine
    rounding: rtne
    max_value: 99999997952.0
    min_value: 0.0
    scale: 392156864.0
    zero_point: 0
  '@Conv_/enc.4/conv_8/Conv_332:out0':
    qtype: u8
    quantizer: asymmetric_affine
    rounding: rtne
    max_value: 2920039936.0
    min_value: -6740510208.0
    scale: 37884512.0
    zero_point: 178
  '@Relu_/enc.4/mconv.23/fc/fc.1/Relu_333:out0':
    qtype: u8
    quantizer: asymmetric_affine
    rounding: rtne
    max_value: 41621188608.0
    min_value: 0.0
    scale: 163220352.0
    zero_point: 0
  '@Conv_/enc.3/conv_9/Conv_334:out0':
    qtype: u8
    quantizer: asymmetric_affine
    rounding: rtne
    max_value: 189718.9375
    min_value: -189204.359375
    scale: 1485.9737548828125
    zero_point: 127
  '@Conv_/enc.3/mconv.23/fc/fc.2/Conv_335:out0':
    qtype: u8
    quantizer: asymmetric_affine
    rounding: rtne
    max_value: 34630.33984375
    min_value: -150315.25
    scale: 725.27685546875
    zero_point: 207
  '@Mul_/enc.2/mconv.23/Mul_336:out0':
    qtype: u8
    quantizer: asymmetric_affine
    rounding: rtne
    max_value: 57377.30859375
    min_value: -22018.681640625
    scale: 311.3568420410156
    zero_point: 71
  '@Conv_/enc.2/conv_10/Conv_337:out0':
    qtype: u8
    quantizer: asymmetric_affine
    rounding: rtne
    max_value: 7.852067470550537
    min_value: -11.21535587310791
    scale: 0.07477420568466187
    zero_point: 150
  '@Conv_/enc.12/conv/Conv_338:out0':
    qtype: u8
    quantizer: asymmetric_affine
    rounding: rtne
    max_value: 0.0
    min_value: 0.0
    scale: 1.0
    zero_point: 0
  '@Conv_/enc.11/conv_1/Conv_339:out0':
    qtype: u8
    quantizer: asymmetric_affine
    rounding: rtne
    max_value: 0.0
    min_value: 0.0
    scale: 1.0
    zero_point: 0
  '@Relu_/enc.10/fc.1/Relu_340:out0':
    qtype: u8
    quantizer: asymmetric_affine
    rounding: rtne
    max_value: 0.0
    min_value: 0.0
    scale: 1.0
    zero_point: 0
  '@Conv_/enc.9/conv_2/Conv_341:out0':
    qtype: u8
    quantizer: asymmetric_affine
    rounding: rtne
    max_value: 0.0
    min_value: 0.0
    scale: 1.0
    zero_point: 0
  '@Relu_/enc.8/fc.1_1/Relu_342:out0':
    qtype: u8
    quantizer: asymmetric_affine
    rounding: rtne
    max_value: 0.0
    min_value: 0.0
    scale: 1.0
    zero_point: 0
  '@Conv_/enc.7/conv_4/Conv_343:out0':
    qtype: u8
    quantizer: asymmetric_affine
    rounding: rtne
    max_value: 0.0
    min_value: 0.0
    scale: 1.0
    zero_point: 0
  '@Conv_/enc.6/conv_5/Conv_344:out0':
    qtype: u8
    quantizer: asymmetric_affine
    rounding: rtne
    max_value: 0.0
    min_value: 0.0
    scale: 1.0
    zero_point: 0
  '@Conv_/enc.5/conv_7/Conv_345:out0':
    qtype: u8
    quantizer: asymmetric_affine
    rounding: rtne
    max_value: 99999997952.0
    min_value: 0.0
    scale: 392156864.0
    zero_point: 0
  '@GlobalAveragePool_/enc.5/mconv.23/GlobalAveragePool_346:out0':
    qtype: u8
    quantizer: asymmetric_affine
    rounding: rtne
    max_value: 99999997952.0
    min_value: -99999997952.0
    scale: 784313728.0
    zero_point: 128
  '@Relu_/enc.4/fc.1_3/Relu_347:out0':
    qtype: u8
    quantizer: asymmetric_affine
    rounding: rtne
    max_value: 4812801536.0
    min_value: 0.0
    scale: 18873732.0
    zero_point: 0
  '@Conv_/enc.4/mconv.23/fc/fc.0/Conv_348:out0':
    qtype: u8
    quantizer: asymmetric_affine
    rounding: rtne
    max_value: 41621188608.0
    min_value: 0.0
    scale: 163220352.0
    zero_point: 0
  '@Conv_/enc.3/conv_8/Conv_349:out0':
    qtype: u8
    quantizer: asymmetric_affine
    rounding: rtne
    max_value: 31145.658203125
    min_value: -30245.43359375
    scale: 240.7493896484375
    zero_point: 126
  '@Relu_/enc.3/mconv.23/fc/fc.1/Relu_350:out0':
    qtype: u8
    quantizer: asymmetric_affine
    rounding: rtne
    max_value: 174515.734375
    min_value: 0.0
    scale: 684.3754272460938
    zero_point: 0
  '@Conv_/enc.2/conv_9/Conv_351:out0':
    qtype: u8
    quantizer: asymmetric_affine
    rounding: rtne
    max_value: 126.39029693603516
    min_value: -300.7518310546875
    scale: 1.6750671863555908
    zero_point: 180
  '@Conv_/enc.2/mconv.23/fc/fc.2/Conv_352:out0':
    qtype: u8
    quantizer: asymmetric_affine
    rounding: rtne
    max_value: 93.83010864257812
    min_value: -222.41917419433594
    scale: 1.240193247795105
    zero_point: 179
  '@Add_/enc.1/Add_353:out0':
    qtype: u8
    quantizer: asymmetric_affine
    rounding: rtne
    max_value: 30.816591262817383
    min_value: -28.88601303100586
    scale: 0.23412786424160004
    zero_point: 123
  '@Conv_/enc.1/conv_10/Conv_354:out0':
    qtype: u8
    quantizer: asymmetric_affine
    rounding: rtne
    max_value: 0.9105716347694397
    min_value: -1.222940444946289
    scale: 0.008366714231669903
    zero_point: 146
  '@Conv_/enc.11/conv/Conv_355:out0':
    qtype: u8
    quantizer: asymmetric_affine
    rounding: rtne
    max_value: 0.0
    min_value: 0.0
    scale: 1.0
    zero_point: 0
  '@Conv_/enc.10/conv_1/Conv_356:out0':
    qtype: u8
    quantizer: asymmetric_affine
    rounding: rtne
    max_value: 0.0
    min_value: 0.0
    scale: 1.0
    zero_point: 0
  '@Relu_/enc.9/fc.1/Relu_357:out0':
    qtype: u8
    quantizer: asymmetric_affine
    rounding: rtne
    max_value: 0.0
    min_value: 0.0
    scale: 1.0
    zero_point: 0
  '@Conv_/enc.8/conv_3/Conv_358:out0':
    qtype: u8
    quantizer: asymmetric_affine
    rounding: rtne
    max_value: 0.0
    min_value: 0.0
    scale: 1.0
    zero_point: 0
  '@Relu_/enc.7/fc.1_1/Relu_359:out0':
    qtype: u8
    quantizer: asymmetric_affine
    rounding: rtne
    max_value: 0.0
    min_value: 0.0
    scale: 1.0
    zero_point: 0
  '@Conv_/enc.6/conv_4/Conv_360:out0':
    qtype: u8
    quantizer: asymmetric_affine
    rounding: rtne
    max_value: 0.0
    min_value: 0.0
    scale: 1.0
    zero_point: 0
  '@Conv_/enc.5/conv_6/Conv_361:out0':
    qtype: u8
    quantizer: asymmetric_affine
    rounding: rtne
    max_value: 99999997952.0
    min_value: -99999997952.0
    scale: 784313728.0
    zero_point: 128
  '@Relu_/enc.5/fc.1_2/Relu_362:out0':
    qtype: u8
    quantizer: asymmetric_affine
    rounding: rtne
    max_value: 99999997952.0
    min_value: 0.0
    scale: 392156864.0
    zero_point: 0
  '@Conv_/enc.4/conv_7/Conv_363:out0':
    qtype: u8
    quantizer: asymmetric_affine
    rounding: rtne
    max_value: 4812801536.0
    min_value: 0.0
    scale: 18873732.0
    zero_point: 0
  '@GlobalAveragePool_/enc.4/mconv.23/GlobalAveragePool_364:out0':
    qtype: u8
    quantizer: asymmetric_affine
    rounding: rtne
    max_value: 31110647808.0
    min_value: -27249950720.0
    scale: 228865088.0
    zero_point: 119
  '@Relu_/enc.3/fc.1_3/Relu_365:out0':
    qtype: u8
    quantizer: asymmetric_affine
    rounding: rtne
    max_value: 37740.30078125
    min_value: 0.0
    scale: 148.0011749267578
    zero_point: 0
  '@Conv_/enc.3/mconv.23/fc/fc.0/Conv_366:out0':
    qtype: u8
    quantizer: asymmetric_affine
    rounding: rtne
    max_value: 174515.734375
    min_value: 0.0
    scale: 684.3754272460938
    zero_point: 0
  '@Conv_/enc.2/conv_8/Conv_367:out0':
    qtype: u8
    quantizer: asymmetric_affine
    rounding: rtne
    max_value: 23.803138732910156
    min_value: -25.70611572265625
    scale: 0.19415393471717834
    zero_point: 132
  '@Relu_/enc.2/mconv.23/fc/fc.1/Relu_368:out0':
    qtype: u8
    quantizer: asymmetric_affine
    rounding: rtne
    max_value: 327.6766357421875
    min_value: 0.0
    scale: 1.2850064039230347
    zero_point: 0
  '@Mul_/enc.1/mconv.23/Mul_369:out0':
    qtype: u8
    quantizer: asymmetric_affine
    rounding: rtne
    max_value: 30.632368087768555
    min_value: -28.86737823486328
    scale: 0.23333235085010529
    zero_point: 124
  '@Mul_/enc.0/mconv.3/Mul_370:out0':
    qtype: u8
    quantizer: asymmetric_affine
    rounding: rtne
    max_value: 0.8671211004257202
    min_value: -0.9087050557136536
    scale: 0.006964024156332016
    zero_point: 130
  '@Conv_/enc.0/mconv.3/fc/fc.2/Conv_371:out0':
    qtype: u8
    quantizer: asymmetric_affine
    rounding: rtne
    max_value: 0.17613743245601654
    min_value: -0.17641277611255646
    scale: 0.0013825498754158616
    zero_point: 128
  '@Conv_/enc.10/conv/Conv_372:out0':
    qtype: u8
    quantizer: asymmetric_affine
    rounding: rtne
    max_value: 0.0
    min_value: 0.0
    scale: 1.0
    zero_point: 0
  '@Conv_/enc.9/conv_1/Conv_373:out0':
    qtype: u8
    quantizer: asymmetric_affine
    rounding: rtne
    max_value: 0.0
    min_value: 0.0
    scale: 1.0
    zero_point: 0
  '@Conv_/enc.8/conv_2/Conv_374:out0':
    qtype: u8
    quantizer: asymmetric_affine
    rounding: rtne
    max_value: 0.0
    min_value: 0.0
    scale: 1.0
    zero_point: 0
  '@Conv_/enc.7/conv_3/Conv_375:out0':
    qtype: u8
    quantizer: asymmetric_affine
    rounding: rtne
    max_value: 0.0
    min_value: 0.0
    scale: 1.0
    zero_point: 0
  '@Relu_/enc.6/fc.1_1/Relu_376:out0':
    qtype: u8
    quantizer: asymmetric_affine
    rounding: rtne
    max_value: 0.0
    min_value: 0.0
    scale: 1.0
    zero_point: 0
  '@Conv_/enc.5/conv_5/Conv_377:out0':
    qtype: u8
    quantizer: asymmetric_affine
    rounding: rtne
    max_value: 99999997952.0
    min_value: 0.0
    scale: 392156864.0
    zero_point: 0
  '@Conv_/enc.4/conv_6/Conv_378:out0':
    qtype: u8
    quantizer: asymmetric_affine
    rounding: rtne
    max_value: 2271207680.0
    min_value: -1678455296.0
    scale: 15488874.0
    zero_point: 108
  '@Relu_/enc.4/fc.1_2/Relu_379:out0':
    qtype: u8
    quantizer: asymmetric_affine
    rounding: rtne
    max_value: 2951352576.0
    min_value: 0.0
    scale: 11573932.0
    zero_point: 0
  '@Conv_/enc.3/conv_7/Conv_380:out0':
    qtype: u8
    quantizer: asymmetric_affine
    rounding: rtne
    max_value: 37740.30078125
    min_value: 0.0
    scale: 148.0011749267578
    zero_point: 0
  '@GlobalAveragePool_/enc.3/mconv.23/GlobalAveragePool_381:out0':
    qtype: u8
    quantizer: asymmetric_affine
    rounding: rtne
    max_value: 105540.3828125
    min_value: -120450.453125
    scale: 886.2385864257812
    zero_point: 136
  '@Relu_/enc.2/fc.1_3/Relu_382:out0':
    qtype: u8
    quantizer: asymmetric_affine
    rounding: rtne
    max_value: 18.84513282775879
    min_value: 0.0
    scale: 0.07390248030424118
    zero_point: 0
  '@Conv_/enc.2/mconv.23/fc/fc.0/Conv_383:out0':
    qtype: u8
    quantizer: asymmetric_affine
    rounding: rtne
    max_value: 327.6766357421875
    min_value: 0.0
    scale: 1.2850064039230347
    zero_point: 0
  '@Conv_/enc.1/conv_9/Conv_384:out0':
    qtype: u8
    quantizer: asymmetric_affine
    rounding: rtne
    max_value: 5.784010887145996
    min_value: -5.2260355949401855
    scale: 0.04317665100097656
    zero_point: 121
  '@Conv_/enc.1/mconv.23/fc/fc.2/Conv_385:out0':
    qtype: u8
    quantizer: asymmetric_affine
    rounding: rtne
    max_value: 3.903108835220337
    min_value: -6.537569522857666
    scale: 0.04094383865594864
    zero_point: 160
  '@Conv_/enc.0/conv_1/Conv_386:out0':
    qtype: u8
    quantizer: asymmetric_affine
    rounding: rtne
    max_value: 5.724023818969727
    min_value: -7.876687049865723
    scale: 0.05333612114191055
    zero_point: 148
  '@Relu_/enc.0/mconv.3/fc/fc.1/Relu_387:out0':
    qtype: u8
    quantizer: asymmetric_affine
    rounding: rtne
    max_value: 0.06202185899019241
    min_value: 0.0
    scale: 0.00024322298122569919
    zero_point: 0
  '@Conv_/enc.0/mconv.3/fc/fc.0/Conv_388:out0':
    qtype: u8
    quantizer: asymmetric_affine
    rounding: rtne
    max_value: 0.06202185899019241
    min_value: 0.0
    scale: 0.00024322298122569919
    zero_point: 0
  '@Conv_/enc.9/conv/Conv_389:out0':
    qtype: u8
    quantizer: asymmetric_affine
    rounding: rtne
    max_value: 0.0
    min_value: 0.0
    scale: 1.0
    zero_point: 0
  '@Relu_/enc.8/fc.1/Relu_390:out0':
    qtype: u8
    quantizer: asymmetric_affine
    rounding: rtne
    max_value: 0.0
    min_value: 0.0
    scale: 1.0
    zero_point: 0
  '@Conv_/enc.7/conv_2/Conv_391:out0':
    qtype: u8
    quantizer: asymmetric_affine
    rounding: rtne
    max_value: 0.0
    min_value: 0.0
    scale: 1.0
    zero_point: 0
  '@Conv_/enc.6/conv_3/Conv_392:out0':
    qtype: u8
    quantizer: asymmetric_affine
    rounding: rtne
    max_value: 0.0
    min_value: 0.0
    scale: 1.0
    zero_point: 0
  '@Conv_/enc.5/conv_4/Conv_393:out0':
    qtype: u8
    quantizer: asymmetric_affine
    rounding: rtne
    max_value: 99999997952.0
    min_value: -99999997952.0
    scale: 784313728.0
    zero_point: 128
  '@Conv_/enc.4/conv_5/Conv_394:out0':
    qtype: u8
    quantizer: asymmetric_affine
    rounding: rtne
    max_value: 2951352576.0
    min_value: 0.0
    scale: 11573932.0
    zero_point: 0
  '@Conv_/enc.3/conv_6/Conv_395:out0':
    qtype: u8
    quantizer: asymmetric_affine
    rounding: rtne
    max_value: 15136.2353515625
    min_value: -14544.419921875
    scale: 116.39472961425781
    zero_point: 125
  '@Relu_/enc.3/fc.1_2/Relu_396:out0':
    qtype: u8
    quantizer: asymmetric_affine
    rounding: rtne
    max_value: 19460.55078125
    min_value: 0.0
    scale: 76.31588745117188
    zero_point: 0
  '@Conv_/enc.2/conv_7/Conv_397:out0':
    qtype: u8
    quantizer: asymmetric_affine
    rounding: rtne
    max_value: 18.84513282775879
    min_value: 0.0
    scale: 0.07390248030424118
    zero_point: 0
  '@GlobalAveragePool_/enc.2/mconv.23/GlobalAveragePool_398:out0':
    qtype: u8
    quantizer: asymmetric_affine
    rounding: rtne
    max_value: 58.7249870300293
    min_value: -204.07606506347656
    scale: 1.0305923223495483
    zero_point: 198
  '@Conv_/enc.1/conv_8/Conv_399:out0':
    qtype: u8
    quantizer: asymmetric_affine
    rounding: rtne
    max_value: 0.6722888350486755
    min_value: -1.0099966526031494
    scale: 0.0065971980802714825
    zero_point: 153
  '@Relu_/enc.1/mconv.23/fc/fc.1/Relu_400:out0':
    qtype: u8
    quantizer: asymmetric_affine
    rounding: rtne
    max_value: 8.244743347167969
    min_value: 0.0
    scale: 0.03233232721686363
    zero_point: 0
  '@Conv_/enc.0/conv/Conv_401:out0':
    qtype: u8
    quantizer: asymmetric_affine
    rounding: rtne
    max_value: 1.8740642070770264
    min_value: -1.8140395879745483
    scale: 0.014463151805102825
    zero_point: 125
  '@GlobalAveragePool_/enc.0/mconv.3/GlobalAveragePool_402:out0':
    qtype: u8
    quantizer: asymmetric_affine
    rounding: rtne
    max_value: 1.4608992338180542
    min_value: -0.43877649307250977
    scale: 0.007449708878993988
    zero_point: 59
  '@Conv_/enc.1/mconv.23/fc/fc.0/Conv_403:out0':
    qtype: u8
    quantizer: asymmetric_affine
    rounding: rtne
    max_value: 8.244743347167969
    min_value: 0.0
    scale: 0.03233232721686363
    zero_point: 0
  '@Conv_/enc.8/conv_1/Conv_404:out0':
    qtype: u8
    quantizer: asymmetric_affine
    rounding: rtne
    max_value: 0.0
    min_value: 0.0
    scale: 1.0
    zero_point: 0
  '@Relu_/enc.7/fc.1/Relu_405:out0':
    qtype: u8
    quantizer: asymmetric_affine
    rounding: rtne
    max_value: 0.0
    min_value: 0.0
    scale: 1.0
    zero_point: 0
  '@Conv_/enc.6/conv_2/Conv_406:out0':
    qtype: u8
    quantizer: asymmetric_affine
    rounding: rtne
    max_value: 0.0
    min_value: 0.0
    scale: 1.0
    zero_point: 0
  '@Relu_/enc.5/fc.1_1/Relu_407:out0':
    qtype: u8
    quantizer: asymmetric_affine
    rounding: rtne
    max_value: 99999997952.0
    min_value: 0.0
    scale: 392156864.0
    zero_point: 0
  '@Conv_/enc.4/conv_4/Conv_408:out0':
    qtype: u8
    quantizer: asymmetric_affine
    rounding: rtne
    max_value: 1511239296.0
    min_value: -2681533952.0
    scale: 16442248.0
    zero_point: 163
  '@Conv_/enc.3/conv_5/Conv_409:out0':
    qtype: u8
    quantizer: asymmetric_affine
    rounding: rtne
    max_value: 19460.55078125
    min_value: 0.0
    scale: 76.31588745117188
    zero_point: 0
  '@Conv_/enc.2/conv_6/Conv_410:out0':
    qtype: u8
    quantizer: asymmetric_affine
    rounding: rtne
    max_value: 10.345117568969727
    min_value: -9.518372535705566
    scale: 0.07789604365825653
    zero_point: 122
  '@Relu_/enc.2/fc.1_2/Relu_411:out0':
    qtype: u8
    quantizer: asymmetric_affine
    rounding: rtne
    max_value: 17.327808380126953
    min_value: 0.0
    scale: 0.06795219331979752
    zero_point: 0
  '@Relu_/enc.1/fc.1_3/Relu_412:out0':
    qtype: u8
    quantizer: asymmetric_affine
    rounding: rtne
    max_value: 1.2879667282104492
    min_value: 0.0
    scale: 0.005050850100815296
    zero_point: 0
  '@GlobalAveragePool_/enc.1/mconv.23/GlobalAveragePool_413:out0':
    qtype: u8
    quantizer: asymmetric_affine
    rounding: rtne
    max_value: 4.507351875305176
    min_value: -3.3607022762298584
    scale: 0.03085511550307274
    zero_point: 109
  '@Conv_/enc.8/conv/Conv_414:out0':
    qtype: u8
    quantizer: asymmetric_affine
    rounding: rtne
    max_value: 0.0
    min_value: 0.0
    scale: 1.0
    zero_point: 0
  '@Conv_/enc.7/conv_1/Conv_415:out0':
    qtype: u8
    quantizer: asymmetric_affine
    rounding: rtne
    max_value: 0.0
    min_value: 0.0
    scale: 1.0
    zero_point: 0
  '@Relu_/enc.6/fc.1/Relu_416:out0':
    qtype: u8
    quantizer: asymmetric_affine
    rounding: rtne
    max_value: 0.0
    min_value: 0.0
    scale: 1.0
    zero_point: 0
  '@Conv_/enc.5/conv_3/Conv_417:out0':
    qtype: u8
    quantizer: asymmetric_affine
    rounding: rtne
    max_value: 99999997952.0
    min_value: 0.0
    scale: 392156864.0
    zero_point: 0
  '@Relu_/enc.4/fc.1_1/Relu_418:out0':
    qtype: u8
    quantizer: asymmetric_affine
    rounding: rtne
    max_value: 3102823168.0
    min_value: 0.0
    scale: 12167934.0
    zero_point: 0
  '@Conv_/enc.3/conv_4/Conv_419:out0':
    qtype: u8
    quantizer: asymmetric_affine
    rounding: rtne
    max_value: 8651.337890625
    min_value: -15995.6728515625
    scale: 96.65494537353516
    zero_point: 165
  '@Conv_/enc.2/conv_5/Conv_420:out0':
    qtype: u8
    quantizer: asymmetric_affine
    rounding: rtne
    max_value: 17.327808380126953
    min_value: 0.0
    scale: 0.06795219331979752
    zero_point: 0
  '@Conv_/enc.1/conv_7/Conv_421:out0':
    qtype: u8
    quantizer: asymmetric_affine
    rounding: rtne
    max_value: 1.2879667282104492
    min_value: 0.0
    scale: 0.005050850100815296
    zero_point: 0
  '@Conv_/enc.1/conv_6/Conv_422:out0':
    qtype: u8
    quantizer: asymmetric_affine
    rounding: rtne
    max_value: 0.48000288009643555
    min_value: -0.2594006657600403
    scale: 0.002899621846154332
    zero_point: 89
  '@Relu_/enc.1/fc.1_2/Relu_423:out0':
    qtype: u8
    quantizer: asymmetric_affine
    rounding: rtne
    max_value: 1.3033798933029175
    min_value: 0.0
    scale: 0.005111293867230415
    zero_point: 0
  '@Conv_/enc.7/conv/Conv_424:out0':
    qtype: u8
    quantizer: asymmetric_affine
    rounding: rtne
    max_value: 0.0
    min_value: 0.0
    scale: 1.0
    zero_point: 0
  '@Conv_/enc.6/conv_1/Conv_425:out0':
    qtype: u8
    quantizer: asymmetric_affine
    rounding: rtne
    max_value: 0.0
    min_value: 0.0
    scale: 1.0
    zero_point: 0
  '@Conv_/enc.5/conv_2/Conv_426:out0':
    qtype: u8
    quantizer: asymmetric_affine
    rounding: rtne
    max_value: 99999997952.0
    min_value: -99999997952.0
    scale: 784313728.0
    zero_point: 128
  '@Conv_/enc.4/conv_3/Conv_427:out0':
    qtype: u8
    quantizer: asymmetric_affine
    rounding: rtne
    max_value: 3102823168.0
    min_value: 0.0
    scale: 12167934.0
    zero_point: 0
  '@Relu_/enc.3/fc.1_1/Relu_428:out0':
    qtype: u8
    quantizer: asymmetric_affine
    rounding: rtne
    max_value: 26799.498046875
    min_value: 0.0
    scale: 105.0960693359375
    zero_point: 0
  '@Conv_/enc.2/conv_4/Conv_429:out0':
    qtype: u8
    quantizer: asymmetric_affine
    rounding: rtne
    max_value: 6.696029186248779
    min_value: -5.986408710479736
    scale: 0.04973505064845085
    zero_point: 120
  '@Conv_/enc.1/conv_5/Conv_430:out0':
    qtype: u8
    quantizer: asymmetric_affine
    rounding: rtne
    max_value: 1.3033798933029175
    min_value: 0.0
    scale: 0.005111293867230415
    zero_point: 0
  '@Conv_/enc.1/conv_4/Conv_431:out0':
    qtype: u8
    quantizer: asymmetric_affine
    rounding: rtne
    max_value: 0.277008593082428
    min_value: -0.3638458847999573
    scale: 0.002513154875487089
    zero_point: 145
  '@Conv_/enc.6/conv/Conv_432:out0':
    qtype: u8
    quantizer: asymmetric_affine
    rounding: rtne
    max_value: 0.0
    min_value: 0.0
    scale: 1.0
    zero_point: 0
  '@Relu_/enc.5/fc.1/Relu_433:out0':
    qtype: u8
    quantizer: asymmetric_affine
    rounding: rtne
    max_value: 99999997952.0
    min_value: 0.0
    scale: 392156864.0
    zero_point: 0
  '@Conv_/enc.4/conv_2/Conv_434:out0':
    qtype: u8
    quantizer: asymmetric_affine
    rounding: rtne
    max_value: 1182628608.0
    min_value: -1967709824.0
    scale: 12354269.0
    zero_point: 159
  '@Conv_/enc.3/conv_3/Conv_435:out0':
    qtype: u8
    quantizer: asymmetric_affine
    rounding: rtne
    max_value: 26799.498046875
    min_value: 0.0
    scale: 105.0960693359375
    zero_point: 0
  '@Relu_/enc.2/fc.1_1/Relu_436:out0':
    qtype: u8
    quantizer: asymmetric_affine
    rounding: rtne
    max_value: 14.452725410461426
    min_value: 0.0
    scale: 0.056677356362342834
    zero_point: 0
  '@Relu_/enc.1/fc.1_1/Relu_437:out0':
    qtype: u8
    quantizer: asymmetric_affine
    rounding: rtne
    max_value: 1.7822465896606445
    min_value: 0.0
    scale: 0.0069892024621367455
    zero_point: 0
  '@Conv_/enc.1/conv_3/Conv_438:out0':
    qtype: u8
    quantizer: asymmetric_affine
    rounding: rtne
    max_value: 1.7822465896606445
    min_value: 0.0
    scale: 0.0069892024621367455
    zero_point: 0
  '@Conv_/enc.5/conv_1/Conv_439:out0':
    qtype: u8
    quantizer: asymmetric_affine
    rounding: rtne
    max_value: 99999997952.0
    min_value: 0.0
    scale: 392156864.0
    zero_point: 0
  '@Relu_/enc.4/fc.1/Relu_440:out0':
    qtype: u8
    quantizer: asymmetric_affine
    rounding: rtne
    max_value: 3638099456.0
    min_value: 0.0
    scale: 14267057.0
    zero_point: 0
  '@Conv_/enc.3/conv_2/Conv_441:out0':
    qtype: u8
    quantizer: asymmetric_affine
    rounding: rtne
    max_value: 12923.2568359375
    min_value: -15725.693359375
    scale: 112.34882354736328
    zero_point: 140
  '@Conv_/enc.2/conv_3/Conv_442:out0':
    qtype: u8
    quantizer: asymmetric_affine
    rounding: rtne
    max_value: 14.452725410461426
    min_value: 0.0
    scale: 0.056677356362342834
    zero_point: 0
  '@Conv_/enc.1/conv_2/Conv_443:out0':
    qtype: u8
    quantizer: asymmetric_affine
    rounding: rtne
    max_value: 0.28774866461753845
    min_value: -0.3748282790184021
    scale: 0.002598340855911374
    zero_point: 144
  '@Conv_/enc.5/conv/Conv_444:out0':
    qtype: u8
    quantizer: asymmetric_affine
    rounding: rtne
    max_value: 99999997952.0
    min_value: -99999997952.0
    scale: 784313728.0
    zero_point: 128
  '@Conv_/enc.4/conv_1/Conv_445:out0':
    qtype: u8
    quantizer: asymmetric_affine
    rounding: rtne
    max_value: 3638099456.0
    min_value: 0.0
    scale: 14267057.0
    zero_point: 0
  '@Relu_/enc.3/fc.1/Relu_446:out0':
    qtype: u8
    quantizer: asymmetric_affine
    rounding: rtne
    max_value: 38444.19921875
    min_value: 0.0
    scale: 150.76156616210938
    zero_point: 0
  '@Conv_/enc.2/conv_2/Conv_447:out0':
    qtype: u8
    quantizer: asymmetric_affine
    rounding: rtne
    max_value: 6.918820381164551
    min_value: -8.340020179748535
    scale: 0.059838589280843735
    zero_point: 139
  '@Relu_/enc.1/fc.1/Relu_448:out0':
    qtype: u8
    quantizer: asymmetric_affine
    rounding: rtne
    max_value: 0.9998742938041687
    min_value: 0.0
    scale: 0.003921075724065304
    zero_point: 0
  '@Conv_/enc.1/conv_1/Conv_449:out0':
    qtype: u8
    quantizer: asymmetric_affine
    rounding: rtne
    max_value: 0.9998742938041687
    min_value: 0.0
    scale: 0.003921075724065304
    zero_point: 0
  '@Conv_/enc.4/conv/Conv_450:out0':
    qtype: u8
    quantizer: asymmetric_affine
    rounding: rtne
    max_value: 1738715136.0
    min_value: -4053926656.0
    scale: 22716244.0
    zero_point: 178
  '@Conv_/enc.3/conv_1/Conv_451:out0':
    qtype: u8
    quantizer: asymmetric_affine
    rounding: rtne
    max_value: 38444.19921875
    min_value: 0.0
    scale: 150.76156616210938
    zero_point: 0
  '@Relu_/enc.2/fc.1/Relu_452:out0':
    qtype: u8
    quantizer: asymmetric_affine
    rounding: rtne
    max_value: 21.704055786132812
    min_value: 0.0
    scale: 0.08511394262313843
    zero_point: 0
  '@Conv_/enc.1/conv/Conv_453:out0':
    qtype: u8
    quantizer: asymmetric_affine
    rounding: rtne
    max_value: 0.2777992784976959
    min_value: -0.2674262225627899
    scale: 0.0021381392143666744
    zero_point: 125
  '@Conv_/enc.2/conv_1/Conv_454:out0':
    qtype: u8
    quantizer: asymmetric_affine
    rounding: rtne
    max_value: 21.704055786132812
    min_value: 0.0
    scale: 0.08511394262313843
    zero_point: 0
  '@Conv_/enc.3/conv/Conv_455:out0':
    qtype: u8
    quantizer: asymmetric_affine
    rounding: rtne
    max_value: 24504.654296875
    min_value: -38608.72265625
    scale: 247.50343322753906
    zero_point: 156
  '@Conv_/enc.2/conv/Conv_456:out0':
    qtype: u8
    quantizer: asymmetric_affine
    rounding: rtne
    max_value: 8.878826141357422
    min_value: -14.478840827941895
    scale: 0.09159868955612183
    zero_point: 158
  '@audio_signal_457:out0':
    qtype: u8
    quantizer: asymmetric_affine
    rounding: rtne
    max_value: 3.874817371368408
    min_value: -4.00498104095459
    scale: 0.030901169404387474
    zero_point: 130
  '@attach_Conv_/dec.0/Conv/out0_0_acuity_mark_perm_458:out0':
    qtype: u8
    quantizer: asymmetric_affine
    rounding: rtne
    max_value: 0.0
    min_value: 0.0
    scale: 1.0
    zero_point: 0
  '@Conv_/enc.0/conv/Conv_401_acuity_mark_perm_459:out0':
    qtype: u8
    quantizer: asymmetric_affine
    rounding: rtne
    max_value: 3.874817371368408
    min_value: -4.00498104095459
    scale: 0.030901169404387474
    zero_point: 130
  '@Conv_/dec.0/Conv_1:weight':
    qtype: u8
    quantizer: asymmetric_affine
    rounding: rtne
    max_value: 0.379395991563797
    min_value: -0.23408329486846924
    scale: 0.0024058010894805193
    zero_point: 97
  '@Conv_/dec.0/Conv_1:bias':
    qtype: i32
    quantizer: asymmetric_affine
    rounding: rtne
    max_value: 5166418.497594199
    min_value: -5166418.5
    scale: 0.0024058010894805193
    zero_point: 0
  '@Conv_/enc.22/conv_1/Conv_3:weight':
    qtype: u8
    quantizer: asymmetric_affine
    rounding: rtne
    max_value: 13.021865844726562
    min_value: -11.525135040283203
    scale: 0.09626274555921555
    zero_point: 120
  '@Conv_/enc.22/conv_1/Conv_3:bias':
    qtype: i32
    quantizer: asymmetric_affine
    rounding: rtne
    max_value: 206722671.90373725
    min_value: -206722672.0
    scale: 0.09626274555921555
    zero_point: 0
  '@Conv_/enc.22/mconv.3/fc/fc.2/Conv_4:weight':
    qtype: u8
    quantizer: asymmetric_affine
    rounding: rtne
    max_value: 0.6270701885223389
    min_value: -0.5418184399604797
    scale: 0.004583876579999924
    zero_point: 118
  '@Conv_/enc.22/mconv.3/fc/fc.2/Conv_4:bias':
    qtype: i32
    quantizer: asymmetric_affine
    rounding: rtne
    max_value: 9843799.995416123
    min_value: -9843800.0
    scale: 0.004583876579999924
    zero_point: 0
  '@Conv_/enc.22/conv/Conv_5:weight':
    qtype: u8
    quantizer: asymmetric_affine
    rounding: rtne
    max_value: 0.49181973934173584
    min_value: -0.5253158211708069
    scale: 0.003988767042756081
    zero_point: 132
  '@Conv_/enc.22/conv/Conv_5:bias':
    qtype: i32
    quantizer: asymmetric_affine
    rounding: rtne
    max_value: 8565811.996011233
    min_value: -8565812.0
    scale: 0.003988767042756081
    zero_point: 0
  '@Conv_/enc.22/mconv.3/fc/fc.0/Conv_8:weight':
    qtype: u8
    quantizer: asymmetric_affine
    rounding: rtne
    max_value: 0.4889865219593048
    min_value: -0.45616450905799866
    scale: 0.003706474555656314
    zero_point: 123
  '@Conv_/enc.22/mconv.3/fc/fc.0/Conv_8:bias':
    qtype: i32
    quantizer: asymmetric_affine
    rounding: rtne
    max_value: 7959593.496293525
    min_value: -7959593.5
    scale: 0.003706474555656314
    zero_point: 0
  '@Conv_/enc.21/conv_10/Conv_10:weight':
    qtype: u8
    quantizer: asymmetric_affine
    rounding: rtne
    max_value: 3.6483728885650635
    min_value: -5.054023742675781
    scale: 0.034127045422792435
    zero_point: 148
  '@Conv_/enc.21/conv_10/Conv_10:bias':
    qtype: i32
    quantizer: asymmetric_affine
    rounding: rtne
    max_value: 73287271.96587296
    min_value: -73287272.0
    scale: 0.034127045422792435
    zero_point: 0
  '@Conv_/enc.21/conv_9/Conv_12:weight':
    qtype: u8
    quantizer: asymmetric_affine
    rounding: rtne
    max_value: 4.480329990386963
    min_value: -4.156894683837891
    scale: 0.03387146815657616
    zero_point: 123
  '@Conv_/enc.21/conv_9/Conv_12:bias':
    qtype: i32
    quantizer: asymmetric_affine
    rounding: rtne
    max_value: 72738423.96612853
    min_value: -72738424.0
    scale: 0.03387146815657616
    zero_point: 0
  '@Conv_/enc.21/mconv.23/fc/fc.2/Conv_13:weight':
    qtype: u8
    quantizer: asymmetric_affine
    rounding: rtne
    max_value: 0.19711308181285858
    min_value: -0.22810113430023193
    scale: 0.0016675067599862814
    zero_point: 137
  '@Conv_/enc.21/mconv.23/fc/fc.2/Conv_13:bias':
    qtype: i32
    quantizer: asymmetric_affine
    rounding: rtne
    max_value: 3580943.498332493
    min_value: -3580943.5
    scale: 0.0016675067599862814
    zero_point: 0
  '@Conv_/enc.20/conv_10/Conv_15:weight':
    qtype: u8
    quantizer: asymmetric_affine
    rounding: rtne
    max_value: 1.6489063501358032
    min_value: -8.169197082519531
    scale: 0.038502369076013565
    zero_point: 212
  '@Conv_/enc.20/conv_10/Conv_15:bias':
    qtype: i32
    quantizer: asymmetric_affine
    rounding: rtne
    max_value: 82683207.96149763
    min_value: -82683208.0
    scale: 0.038502369076013565
    zero_point: 0
  '@Conv_/enc.21/conv_8/Conv_16:weight':
    qtype: u8
    quantizer: asymmetric_affine
    rounding: rtne
    max_value: 0.5275654792785645
    min_value: -0.4179576337337494
    scale: 0.0037079339381307364
    zero_point: 113
  '@Conv_/enc.21/conv_8/Conv_16:bias':
    qtype: i32
    quantizer: asymmetric_affine
    rounding: rtne
    max_value: 7962727.496292066
    min_value: -7962727.5
    scale: 0.0037079339381307364
    zero_point: 0
  '@Conv_/enc.21/mconv.23/fc/fc.0/Conv_21:weight':
    qtype: u8
    quantizer: asymmetric_affine
    rounding: rtne
    max_value: 0.7313186526298523
    min_value: -0.781688928604126
    scale: 0.005933363456279039
    zero_point: 132
  '@Conv_/enc.21/mconv.23/fc/fc.0/Conv_21:bias':
    qtype: i32
    quantizer: asymmetric_affine
    rounding: rtne
    max_value: 12741800.994066637
    min_value: -12741801.0
    scale: 0.005933363456279039
    zero_point: 0
  '@Conv_/enc.20/conv_9/Conv_22:weight':
    qtype: u8
    quantizer: asymmetric_affine
    rounding: rtne
    max_value: 2.312796115875244
    min_value: -2.592148542404175
    scale: 0.019235076382756233
    zero_point: 135
  '@Conv_/enc.20/conv_9/Conv_22:bias':
    qtype: i32
    quantizer: asymmetric_affine
    rounding: rtne
    max_value: 41307011.980764925
    min_value: -41307012.0
    scale: 0.019235076382756233
    zero_point: 0
  '@Conv_/enc.20/mconv.23/fc/fc.2/Conv_23:weight':
    qtype: u8
    quantizer: asymmetric_affine
    rounding: rtne
    max_value: 0.23606832325458527
    min_value: -0.17165450751781464
    scale: 0.001598913106136024
    zero_point: 107
  '@Conv_/enc.20/mconv.23/fc/fc.2/Conv_23:bias':
    qtype: i32
    quantizer: asymmetric_affine
    rounding: rtne
    max_value: 3433639.748401087
    min_value: -3433639.75
    scale: 0.001598913106136024
    zero_point: 0
  '@Conv_/enc.19/conv_10/Conv_25:weight':
    qtype: u8
    quantizer: asymmetric_affine
    rounding: rtne
    max_value: 1.6696723699569702
    min_value: -0.7298009991645813
    scale: 0.009409699589014053
    zero_point: 78
  '@Conv_/enc.19/conv_10/Conv_25:bias':
    qtype: i32
    quantizer: asymmetric_affine
    rounding: rtne
    max_value: 20207175.9905903
    min_value: -20207176.0
    scale: 0.009409699589014053
    zero_point: 0
  '@Conv_/enc.21/conv_7/Conv_26:weight':
    qtype: u8
    quantizer: asymmetric_affine
    rounding: rtne
    max_value: 2.2217884063720703
    min_value: -2.8114101886749268
    scale: 0.019738033413887024
    zero_point: 142
  '@Conv_/enc.21/conv_7/Conv_26:bias':
    qtype: i32
    quantizer: asymmetric_affine
    rounding: rtne
    max_value: 42387103.98026197
    min_value: -42387104.0
    scale: 0.019738033413887024
    zero_point: 0
  '@Conv_/enc.20/conv_8/Conv_28:weight':
    qtype: u8
    quantizer: asymmetric_affine
    rounding: rtne
    max_value: 0.3812035024166107
    min_value: -0.4602094888687134
    scale: 0.0032996588852256536
    zero_point: 139
  '@Conv_/enc.20/conv_8/Conv_28:bias':
    qtype: i32
    quantizer: asymmetric_affine
    rounding: rtne
    max_value: 7085963.496700341
    min_value: -7085963.5
    scale: 0.0032996588852256536
    zero_point: 0
  '@Conv_/enc.19/conv_9/Conv_30:weight':
    qtype: u8
    quantizer: asymmetric_affine
    rounding: rtne
    max_value: 19.00372886657715
    min_value: -14.345273971557617
    scale: 0.1307803988456726
    zero_point: 110
  '@Conv_/enc.19/conv_9/Conv_30:bias':
    qtype: i32
    quantizer: asymmetric_affine
    rounding: rtne
    max_value: 280848767.8692196
    min_value: -280848768.0
    scale: 0.1307803988456726
    zero_point: 0
  '@Conv_/enc.19/mconv.23/fc/fc.2/Conv_31:weight':
    qtype: u8
    quantizer: asymmetric_affine
    rounding: rtne
    max_value: 0.4972500801086426
    min_value: -0.5341052412986755
    scale: 0.004044530913233757
    zero_point: 132
  '@Conv_/enc.19/mconv.23/fc/fc.2/Conv_31:bias':
    qtype: i32
    quantizer: asymmetric_affine
    rounding: rtne
    max_value: 8685563.99595547
    min_value: -8685564.0
    scale: 0.004044530913233757
    zero_point: 0
  '@Conv_/enc.21/conv_6/Conv_33:weight':
    qtype: u8
    quantizer: asymmetric_affine
    rounding: rtne
    max_value: 0.37286365032196045
    min_value: -0.45764657855033875
    scale: 0.0032569030299782753
    zero_point: 141
  '@Conv_/enc.21/conv_6/Conv_33:bias':
    qtype: i32
    quantizer: asymmetric_affine
    rounding: rtne
    max_value: 6994145.996743097
    min_value: -6994146.0
    scale: 0.0032569030299782753
    zero_point: 0
  '@Conv_/enc.20/mconv.23/fc/fc.0/Conv_36:weight':
    qtype: u8
    quantizer: asymmetric_affine
    rounding: rtne
    max_value: 3.2213571071624756
    min_value: -1.9470669031143188
    scale: 0.020268330350518227
    zero_point: 96
  '@Conv_/enc.20/mconv.23/fc/fc.0/Conv_36:bias':
    qtype: i32
    quantizer: asymmetric_affine
    rounding: rtne
    max_value: 43525907.97973167
    min_value: -43525908.0
    scale: 0.020268330350518227
    zero_point: 0
  '@Conv_/enc.19/conv_8/Conv_37:weight':
    qtype: u8
    quantizer: asymmetric_affine
    rounding: rtne
    max_value: 0.4730786383152008
    min_value: -0.402706503868103
    scale: 0.0034344515297561884
    zero_point: 117
  '@Conv_/enc.19/conv_8/Conv_37:bias':
    qtype: i32
    quantizer: asymmetric_affine
    rounding: rtne
    max_value: 7375428.496565549
    min_value: -7375428.5
    scale: 0.0034344515297561884
    zero_point: 0
  '@Conv_/enc.18/conv_10/Conv_40:weight':
    qtype: u8
    quantizer: asymmetric_affine
    rounding: rtne
    max_value: 0.6191108226776123
    min_value: -0.6160100102424622
    scale: 0.004843610804527998
    zero_point: 127
  '@Conv_/enc.18/conv_10/Conv_40:bias':
    qtype: i32
    quantizer: asymmetric_affine
    rounding: rtne
    max_value: 10401574.995156389
    min_value: -10401575.0
    scale: 0.004843610804527998
    zero_point: 0
  '@Conv_/enc.21/conv_5/Conv_41:weight':
    qtype: u8
    quantizer: asymmetric_affine
    rounding: rtne
    max_value: 1.4332706928253174
    min_value: -2.124730110168457
    scale: 0.013952944427728653
    zero_point: 152
  '@Conv_/enc.21/conv_5/Conv_41:bias':
    qtype: i32
    quantizer: asymmetric_affine
    rounding: rtne
    max_value: 29963719.986047056
    min_value: -29963720.0
    scale: 0.013952944427728653
    zero_point: 0
  '@Conv_/enc.20/conv_7/Conv_42:weight':
    qtype: u8
    quantizer: asymmetric_affine
    rounding: rtne
    max_value: 1.5099881887435913
    min_value: -1.4694525003433228
    scale: 0.011684081517159939
    zero_point: 126
  '@Conv_/enc.20/conv_7/Conv_42:bias':
    qtype: i32
    quantizer: asymmetric_affine
    rounding: rtne
    max_value: 25091373.988315918
    min_value: -25091374.0
    scale: 0.011684081517159939
    zero_point: 0
  '@Conv_/enc.19/mconv.23/fc/fc.0/Conv_45:weight':
    qtype: u8
    quantizer: asymmetric_affine
    rounding: rtne
    max_value: 1.731490969657898
    min_value: -1.161719799041748
    scale: 0.011345924809575081
    zero_point: 102
  '@Conv_/enc.19/mconv.23/fc/fc.0/Conv_45:bias':
    qtype: i32
    quantizer: asymmetric_affine
    rounding: rtne
    max_value: 24365187.988654077
    min_value: -24365188.0
    scale: 0.011345924809575081
    zero_point: 0
  '@Conv_/enc.18/conv_9/Conv_46:weight':
    qtype: u8
    quantizer: asymmetric_affine
    rounding: rtne
    max_value: 18.717281341552734
    min_value: -8.057756423950195
    scale: 0.10500014573335648
    zero_point: 77
  '@Conv_/enc.18/conv_9/Conv_46:bias':
    qtype: i32
    quantizer: asymmetric_affine
    rounding: rtne
    max_value: 225486095.89499986
    min_value: -225486096.0
    scale: 0.10500014573335648
    zero_point: 0
  '@Conv_/enc.18/mconv.23/fc/fc.2/Conv_47:weight':
    qtype: u8
    quantizer: asymmetric_affine
    rounding: rtne
    max_value: 0.38546717166900635
    min_value: -0.707395076751709
    scale: 0.00428573414683342
    zero_point: 165
  '@Conv_/enc.18/mconv.23/fc/fc.2/Conv_47:bias':
    qtype: i32
    quantizer: asymmetric_affine
    rounding: rtne
    max_value: 9203543.995714266
    min_value: -9203544.0
    scale: 0.00428573414683342
    zero_point: 0
  '@Conv_/enc.21/conv_4/Conv_49:weight':
    qtype: u8
    quantizer: asymmetric_affine
    rounding: rtne
    max_value: 0.33516088128089905
    min_value: -0.4731914699077606
    scale: 0.0031700092367827892
    zero_point: 149
  '@Conv_/enc.21/conv_4/Conv_49:bias':
    qtype: i32
    quantizer: asymmetric_affine
    rounding: rtne
    max_value: 6807542.99682999
    min_value: -6807543.0
    scale: 0.0031700092367827892
    zero_point: 0
  '@Conv_/enc.20/conv_6/Conv_50:weight':
    qtype: u8
    quantizer: asymmetric_affine
    rounding: rtne
    max_value: 0.3183423578739166
    min_value: -0.41187265515327454
    scale: 0.0028635882772505283
    zero_point: 144
  '@Conv_/enc.20/conv_6/Conv_50:bias':
    qtype: i32
    quantizer: asymmetric_affine
    rounding: rtne
    max_value: 6149508.997136412
    min_value: -6149509.0
    scale: 0.0028635882772505283
    zero_point: 0
  '@Conv_/enc.19/conv_7/Conv_52:weight':
    qtype: u8
    quantizer: asymmetric_affine
    rounding: rtne
    max_value: 5.633670806884766
    min_value: -8.692095756530762
    scale: 0.0561794750392437
    zero_point: 155
  '@Conv_/enc.19/conv_7/Conv_52:bias':
    qtype: i32
    quantizer: asymmetric_affine
    rounding: rtne
    max_value: 120644503.94382052
    min_value: -120644504.0
    scale: 0.0561794750392437
    zero_point: 0
  '@Conv_/enc.18/conv_8/Conv_54:weight':
    qtype: u8
    quantizer: asymmetric_affine
    rounding: rtne
    max_value: 0.37360680103302
    min_value: -0.40116801857948303
    scale: 0.0030383325647562742
    zero_point: 132
  '@Conv_/enc.18/conv_8/Conv_54:bias':
    qtype: i32
    quantizer: asymmetric_affine
    rounding: rtne
    max_value: 6524769.496961667
    min_value: -6524769.5
    scale: 0.0030383325647562742
    zero_point: 0
  '@Conv_/enc.17/conv_10/Conv_57:weight':
    qtype: u8
