# !!!This file disallow TABs!!!
version: 2
quantize_parameters:
  '@attach_Add_/lm_head/Add/out0_0:out0':
    qtype: u8
    quantizer: asymmetric_affine
    rounding: rtne
    max_value: 67.6522216796875
    min_value: -55.541168212890625
    scale: 0.48311132192611694
    zero_point: 115
  '@Add_/wav2vec2/encoder/layers.11/final_layer_norm/Add_1_4:out0':
    qtype: u8
    quantizer: asymmetric_affine
    rounding: rtne
    max_value: 3.220707893371582
    min_value: -2.9616239070892334
    scale: 0.024244438856840134
    zero_point: 122
  '@Add_/wav2vec2/encoder/layers.11/Add_1_6:out0':
    qtype: u8
    quantizer: asymmetric_affine
    rounding: rtne
    max_value: 3287.973388671875
    min_value: -3139.45654296875
    scale: 25.20560646057129
    zero_point: 125
  '@Add_/wav2vec2/encoder/layers.11/layer_norm/Add_1_8:out0':
    qtype: u8
    quantizer: asymmetric_affine
    rounding: rtne
    max_value: 3.344895839691162
    min_value: -3.180318832397461
    scale: 0.025589076802134514
    zero_point: 124
  '@Add_/wav2vec2/encoder/layers.11/Add_11:out0':
    qtype: u8
    quantizer: asymmetric_affine
    rounding: rtne
    max_value: 2542.28662109375
    min_value: -2352.381591796875
    scale: 19.19477653503418
    zero_point: 123
  '@Mul_/wav2vec2/encoder/layers.11/feed_forward/intermediate_act_fn/Mul_1_13:out0':
    qtype: u8
    quantizer: asymmetric_affine
    rounding: rtne
    max_value: 97.35881042480469
    min_value: -0.16996538639068604
    scale: 0.38246580958366394
    zero_point: 0
  '@Add_/wav2vec2/encoder/layers.10/final_layer_norm/Add_1_15:out0':
    qtype: u8
    quantizer: asymmetric_affine
    rounding: rtne
    max_value: 3.1538195610046387
    min_value: -3.2967066764831543
    scale: 0.025296181440353394
    zero_point: 130
  '@Add_/wav2vec2/encoder/layers.10/Add_1_20:out0':
    qtype: u8
    quantizer: asymmetric_affine
    rounding: rtne
    max_value: 3453.27001953125
    min_value: -3590.8857421875
    scale: 27.6241397857666
    zero_point: 130
  '@Reshape_/wav2vec2/encoder/layers.11/attention/Reshape_7_22:out0':
    qtype: u8
    quantizer: asymmetric_affine
    rounding: rtne
    max_value: 89.91706848144531
    min_value: -86.78875732421875
    scale: 0.6929640173912048
    zero_point: 125
  '@Transpose_/wav2vec2/encoder/layers.11/attention/Transpose_4_25:out0':
    qtype: u8
    quantizer: asymmetric_affine
    rounding: rtne
    max_value: 89.91706848144531
    min_value: -86.78875732421875
    scale: 0.6929640173912048
    zero_point: 125
  '@Add_/wav2vec2/encoder/layers.10/layer_norm/Add_1_27:out0':
    qtype: u8
    quantizer: asymmetric_affine
    rounding: rtne
    max_value: 3.7431931495666504
    min_value: -2.819976329803467
    scale: 0.02573791891336441
    zero_point: 110
  '@Reshape_/wav2vec2/encoder/layers.11/attention/Reshape_6_30:out0':
    qtype: u8
    quantizer: asymmetric_affine
    rounding: rtne
    max_value: 89.91706848144531
    min_value: -86.78875732421875
    scale: 0.6929640173912048
    zero_point: 125
  '@Add_/wav2vec2/encoder/layers.10/Add_31:out0':
    qtype: u8
    quantizer: asymmetric_affine
    rounding: rtne
    max_value: 2959.3369140625
    min_value: -2255.150390625
    scale: 20.4489688873291
    zero_point: 110
  '@Mul_/wav2vec2/encoder/layers.10/feed_forward/intermediate_act_fn/Mul_1_33:out0':
    qtype: u8
    quantizer: asymmetric_affine
    rounding: rtne
    max_value: 97.86294555664062
    min_value: -0.16996601223945618
    scale: 0.3844428062438965
    zero_point: 0
  '@MatMul_/wav2vec2/encoder/layers.11/attention/MatMul_1_35:out0':
    qtype: u8
    quantizer: asymmetric_affine
    rounding: rtne
    max_value: 89.91706848144531
    min_value: -86.78875732421875
    scale: 0.6929640173912048
    zero_point: 125
  '@Add_/wav2vec2/encoder/layers.9/final_layer_norm/Add_1_36:out0':
    qtype: u8
    quantizer: asymmetric_affine
    rounding: rtne
    max_value: 3.3569414615631104
    min_value: -2.533474922180176
    scale: 0.02309967204928398
    zero_point: 110
  '@Softmax_/wav2vec2/encoder/layers.11/attention/Softmax_41:out0':
    qtype: u8
    quantizer: asymmetric_affine
    rounding: rtne
    max_value: 0.004107329063117504
    min_value: 0.0
    scale: 1.61071729962714e-05
    zero_point: 0
  '@Reshape_/wav2vec2/encoder/layers.11/attention/Reshape_5_42:out0':
    qtype: u8
    quantizer: asymmetric_affine
    rounding: rtne
    max_value: 89.91707611083984
    min_value: -86.78877258300781
    scale: 0.6929640769958496
    zero_point: 125
  '@Add_/wav2vec2/encoder/layers.9/Add_1_43:out0':
    qtype: u8
    quantizer: asymmetric_affine
    rounding: rtne
    max_value: 3474.795654296875
    min_value: -2700.378662109375
    scale: 24.21636962890625
    zero_point: 112
  '@Reshape_/wav2vec2/encoder/layers.10/attention/Reshape_7_45:out0':
    qtype: u8
    quantizer: asymmetric_affine
    rounding: rtne
    max_value: 80.02250671386719
    min_value: -79.2395248413086
    scale: 0.6245569586753845
    zero_point: 127
  '@Transpose_/wav2vec2/encoder/layers.10/attention/Transpose_4_48:out0':
    qtype: u8
    quantizer: asymmetric_affine
    rounding: rtne
    max_value: 80.02250671386719
    min_value: -79.2395248413086
    scale: 0.6245569586753845
    zero_point: 127
  '@Transpose_/wav2vec2/encoder/layers.11/attention/Transpose_1_51:out0':
    qtype: u8
    quantizer: asymmetric_affine
    rounding: rtne
    max_value: 89.91707611083984
    min_value: -86.78877258300781
    scale: 0.6929640769958496
    zero_point: 125
  '@Add_/wav2vec2/encoder/layers.9/layer_norm/Add_1_52:out0':
    qtype: u8
    quantizer: asymmetric_affine
    rounding: rtne
    max_value: 3.10579776763916
    min_value: -3.0155673027038574
    scale: 0.024005353450775146
    zero_point: 126
  '@Reshape_/wav2vec2/encoder/layers.10/attention/Reshape_6_55:out0':
    qtype: u8
    quantizer: asymmetric_affine
    rounding: rtne
    max_value: 80.02250671386719
    min_value: -79.2395248413086
    scale: 0.6245569586753845
    zero_point: 127
  '@Reshape_/wav2vec2/encoder/layers.11/attention/Reshape_3_56:out0':
    qtype: u8
    quantizer: asymmetric_affine
    rounding: rtne
    max_value: 150.00381469726562
    min_value: -153.7701416015625
    scale: 1.1912704706192017
    zero_point: 129
  '@Transpose_/wav2vec2/encoder/layers.11/attention/Transpose_3_57:out0':
    qtype: u8
    quantizer: asymmetric_affine
    rounding: rtne
    max_value: 99.35670471191406
    min_value: -85.55327606201172
    scale: 0.7251371741294861
    zero_point: 118
  '@Reshape_/wav2vec2/encoder/layers.11/attention/Reshape_1_58:out0':
    qtype: u8
    quantizer: asymmetric_affine
    rounding: rtne
    max_value: 89.91707611083984
    min_value: -86.78877258300781
    scale: 0.6929640769958496
    zero_point: 125
  '@Add_/wav2vec2/encoder/layers.9/Add_59:out0':
    qtype: u8
    quantizer: asymmetric_affine
    rounding: rtne
    max_value: 2298.336669921875
    min_value: -2162.3447265625
    scale: 17.492868423461914
    zero_point: 124
  '@Mul_/wav2vec2/encoder/layers.9/feed_forward/intermediate_act_fn/Mul_1_61:out0':
    qtype: u8
    quantizer: asymmetric_affine
    rounding: rtne
    max_value: 93.07194519042969
    min_value: -0.16997121274471283
    scale: 0.3656545579433441
    zero_point: 0
  '@MatMul_/wav2vec2/encoder/layers.10/attention/MatMul_1_63:out0':
    qtype: u8
    quantizer: asymmetric_affine
    rounding: rtne
    max_value: 80.02250671386719
    min_value: -79.2395248413086
    scale: 0.6245569586753845
    zero_point: 127
  '@Transpose_/wav2vec2/encoder/layers.11/attention/Transpose_2_64:out0':
    qtype: u8
    quantizer: asymmetric_affine
    rounding: rtne
    max_value: 150.00381469726562
    min_value: -153.7701416015625
    scale: 1.1912704706192017
    zero_point: 129
  '@Reshape_/wav2vec2/encoder/layers.11/attention/Reshape_4_65:out0':
    qtype: u8
    quantizer: asymmetric_affine
    rounding: rtne
    max_value: 99.35670471191406
    min_value: -85.55327606201172
    scale: 0.7251371741294861
    zero_point: 118
  '@Add_/wav2vec2/encoder/layers.8/final_layer_norm/Add_1_67:out0':
    qtype: u8
    quantizer: asymmetric_affine
    rounding: rtne
    max_value: 3.162745952606201
    min_value: -3.38403582572937
    scale: 0.025673653930425644
    zero_point: 132
  '@Softmax_/wav2vec2/encoder/layers.10/attention/Softmax_72:out0':
    qtype: u8
    quantizer: asymmetric_affine
    rounding: rtne
    max_value: 0.25861838459968567
    min_value: 0.0
    scale: 0.0010141897946596146
    zero_point: 0
  '@Reshape_/wav2vec2/encoder/layers.10/attention/Reshape_5_73:out0':
    qtype: u8
    quantizer: asymmetric_affine
    rounding: rtne
    max_value: 80.04009246826172
    min_value: -79.24188232421875
    scale: 0.6246352195739746
    zero_point: 127
  '@Reshape_/wav2vec2/encoder/layers.11/attention/Reshape_2_74:out0':
    qtype: u8
    quantizer: asymmetric_affine
    rounding: rtne
    max_value: 150.00381469726562
    min_value: -153.7701416015625
    scale: 1.1912704706192017
    zero_point: 129
  '@Transpose_/wav2vec2/encoder/layers.11/attention/Transpose_75:out0':
    qtype: u8
    quantizer: asymmetric_affine
    rounding: rtne
    max_value: 99.35670471191406
    min_value: -85.55327606201172
    scale: 0.7251371741294861
    zero_point: 118
  '@Add_/wav2vec2/encoder/layers.8/Add_1_78:out0':
    qtype: u8
    quantizer: asymmetric_affine
    rounding: rtne
    max_value: 3410.08056640625
    min_value: -3623.69580078125
    scale: 27.583436965942383
    zero_point: 131
  '@Reshape_/wav2vec2/encoder/layers.9/attention/Reshape_7_80:out0':
    qtype: u8
    quantizer: asymmetric_affine
    rounding: rtne
    max_value: 74.84766387939453
    min_value: -93.72657775878906
    scale: 0.6610754728317261
    zero_point: 142
  '@Transpose_/wav2vec2/encoder/layers.9/attention/Transpose_4_83:out0':
    qtype: u8
    quantizer: asymmetric_affine
    rounding: rtne
    max_value: 74.84766387939453
    min_value: -93.72657775878906
    scale: 0.6610754728317261
    zero_point: 142
  '@Transpose_/wav2vec2/encoder/layers.10/attention/Transpose_1_86:out0':
    qtype: u8
    quantizer: asymmetric_affine
    rounding: rtne
    max_value: 80.04009246826172
    min_value: -79.24188232421875
    scale: 0.6246352195739746
    zero_point: 127
  '@Mul_/wav2vec2/encoder/layers.11/attention/Mul_87:out0':
    qtype: u8
    quantizer: asymmetric_affine
    rounding: rtne
    max_value: 150.00381469726562
    min_value: -153.7701416015625
    scale: 1.1912704706192017
    zero_point: 129
  '@Reshape_/wav2vec2/encoder/layers.11/attention/Reshape_88:out0':
    qtype: u8
    quantizer: asymmetric_affine
    rounding: rtne
    max_value: 99.35670471191406
    min_value: -85.55327606201172
    scale: 0.7251371741294861
    zero_point: 118
  '@Add_/wav2vec2/encoder/layers.8/layer_norm/Add_1_91:out0':
    qtype: u8
    quantizer: asymmetric_affine
    rounding: rtne
    max_value: 3.200165033340454
    min_value: -3.4049744606018066
    scale: 0.025902507826685905
    zero_point: 131
  '@Reshape_/wav2vec2/encoder/layers.9/attention/Reshape_6_94:out0':
    qtype: u8
    quantizer: asymmetric_affine
    rounding: rtne
    max_value: 74.84766387939453
    min_value: -93.72657775878906
    scale: 0.6610754728317261
    zero_point: 142
  '@Reshape_/wav2vec2/encoder/layers.10/attention/Reshape_3_95:out0':
    qtype: u8
    quantizer: asymmetric_affine
    rounding: rtne
    max_value: 176.02061462402344
    min_value: -202.78904724121094
    scale: 1.4855281114578247
    zero_point: 137
  '@Transpose_/wav2vec2/encoder/layers.10/attention/Transpose_3_96:out0':
    qtype: u8
    quantizer: asymmetric_affine
    rounding: rtne
    max_value: 76.69413757324219
    min_value: -97.60875701904297
    scale: 0.6835407614707947
    zero_point: 143
  '@Reshape_/wav2vec2/encoder/layers.10/attention/Reshape_1_97:out0':
    qtype: u8
    quantizer: asymmetric_affine
    rounding: rtne
    max_value: 80.04009246826172
    min_value: -79.24188232421875
    scale: 0.6246352195739746
    zero_point: 127
  '@Constant_/wav2vec2/encoder/layers.11/attention/Constant_99:out0':
    qtype: u8
    quantizer: asymmetric_affine
    rounding: rtne
    max_value: 1.7231124639511108
    min_value: 0.0
    scale: 0.006757303606718779
    zero_point: 0
  '@Add_/wav2vec2/encoder/layers.8/Add_102:out0':
    qtype: u8
    quantizer: asymmetric_affine
    rounding: rtne
    max_value: 2268.488525390625
    min_value: -2520.485595703125
    scale: 18.780290603637695
    zero_point: 134
  '@Mul_/wav2vec2/encoder/layers.8/feed_forward/intermediate_act_fn/Mul_1_104:out0':
    qtype: u8
    quantizer: asymmetric_affine
    rounding: rtne
    max_value: 90.94999694824219
    min_value: -0.16997124254703522
    scale: 0.3573331832885742
    zero_point: 0
  '@MatMul_/wav2vec2/encoder/layers.9/attention/MatMul_1_106:out0':
    qtype: u8
    quantizer: asymmetric_affine
    rounding: rtne
    max_value: 74.84766387939453
    min_value: -93.72657775878906
    scale: 0.6610754728317261
    zero_point: 142
  '@Transpose_/wav2vec2/encoder/layers.10/attention/Transpose_2_107:out0':
    qtype: u8
    quantizer: asymmetric_affine
    rounding: rtne
    max_value: 176.02061462402344
    min_value: -202.78904724121094
    scale: 1.4855281114578247
    zero_point: 137
  '@Reshape_/wav2vec2/encoder/layers.10/attention/Reshape_4_108:out0':
    qtype: u8
    quantizer: asymmetric_affine
    rounding: rtne
    max_value: 76.69413757324219
    min_value: -97.60875701904297
    scale: 0.6835407614707947
    zero_point: 143
  '@Add_/wav2vec2/encoder/layers.7/final_layer_norm/Add_1_114:out0':
    qtype: u8
    quantizer: asymmetric_affine
    rounding: rtne
    max_value: 3.235841989517212
    min_value: -2.9486844539642334
    scale: 0.02425304427742958
    zero_point: 122
  '@Softmax_/wav2vec2/encoder/layers.9/attention/Softmax_119:out0':
    qtype: u8
    quantizer: asymmetric_affine
    rounding: rtne
    max_value: 0.5045232176780701
    min_value: 0.0
    scale: 0.0019785223994404078
    zero_point: 0
  '@Reshape_/wav2vec2/encoder/layers.9/attention/Reshape_5_120:out0':
    qtype: u8
    quantizer: asymmetric_affine
    rounding: rtne
    max_value: 74.84843444824219
    min_value: -94.08250427246094
    scale: 0.6624742746353149
    zero_point: 142
  '@Reshape_/wav2vec2/encoder/layers.10/attention/Reshape_2_121:out0':
    qtype: u8
    quantizer: asymmetric_affine
    rounding: rtne
    max_value: 176.02061462402344
    min_value: -202.78904724121094
    scale: 1.4855281114578247
    zero_point: 137
  '@Transpose_/wav2vec2/encoder/layers.10/attention/Transpose_122:out0':
    qtype: u8
    quantizer: asymmetric_affine
    rounding: rtne
    max_value: 76.69413757324219
    min_value: -97.60875701904297
    scale: 0.6835407614707947
    zero_point: 143
  '@Add_/wav2vec2/encoder/layers.7/Add_1_126:out0':
    qtype: u8
    quantizer: asymmetric_affine
    rounding: rtne
    max_value: 3442.73486328125
    min_value: -3205.50244140625
    scale: 26.071517944335938
    zero_point: 123
  '@Reshape_/wav2vec2/encoder/layers.8/attention/Reshape_7_128:out0':
    qtype: u8
    quantizer: asymmetric_affine
    rounding: rtne
    max_value: 85.09527587890625
    min_value: -87.50210571289062
    scale: 0.6768524646759033
    zero_point: 129
  '@Transpose_/wav2vec2/encoder/layers.8/attention/Transpose_4_131:out0':
    qtype: u8
    quantizer: asymmetric_affine
    rounding: rtne
    max_value: 85.09527587890625
    min_value: -87.50210571289062
    scale: 0.6768524646759033
    zero_point: 129
  '@Transpose_/wav2vec2/encoder/layers.9/attention/Transpose_1_134:out0':
    qtype: u8
    quantizer: asymmetric_affine
    rounding: rtne
    max_value: 74.84843444824219
    min_value: -94.08250427246094
    scale: 0.6624742746353149
    zero_point: 142
  '@Mul_/wav2vec2/encoder/layers.10/attention/Mul_135:out0':
    qtype: u8
    quantizer: asymmetric_affine
    rounding: rtne
    max_value: 176.02061462402344
    min_value: -202.78904724121094
    scale: 1.4855281114578247
    zero_point: 137
  '@Reshape_/wav2vec2/encoder/layers.10/attention/Reshape_136:out0':
    qtype: u8
    quantizer: asymmetric_affine
    rounding: rtne
    max_value: 76.69413757324219
    min_value: -97.60875701904297
    scale: 0.6835407614707947
    zero_point: 143
  '@Add_/wav2vec2/encoder/layers.7/layer_norm/Add_1_138:out0':
    qtype: u8
    quantizer: asymmetric_affine
    rounding: rtne
    max_value: 3.80065655708313
    min_value: -2.880296468734741
    scale: 0.026199815794825554
    zero_point: 110
  '@Reshape_/wav2vec2/encoder/layers.8/attention/Reshape_6_141:out0':
    qtype: u8
    quantizer: asymmetric_affine
    rounding: rtne
    max_value: 85.09527587890625
    min_value: -87.50210571289062
    scale: 0.6768524646759033
    zero_point: 129
  '@Reshape_/wav2vec2/encoder/layers.9/attention/Reshape_3_142:out0':
    qtype: u8
    quantizer: asymmetric_affine
    rounding: rtne
    max_value: 9.37131404876709
    min_value: -8.185260772705078
    scale: 0.06884931772947311
    zero_point: 119
  '@Transpose_/wav2vec2/encoder/layers.9/attention/Transpose_3_143:out0':
    qtype: u8
    quantizer: asymmetric_affine
    rounding: rtne
    max_value: 75.89810180664062
    min_value: -84.04586029052734
    scale: 0.627231240272522
    zero_point: 134
  '@Reshape_/wav2vec2/encoder/layers.9/attention/Reshape_1_144:out0':
    qtype: u8
    quantizer: asymmetric_affine
    rounding: rtne
    max_value: 74.84843444824219
    min_value: -94.08250427246094
    scale: 0.6624742746353149
    zero_point: 142
  '@Constant_/wav2vec2/encoder/layers.10/attention/Constant_146:out0':
    qtype: u8
    quantizer: asymmetric_affine
    rounding: rtne
    max_value: 0.0
    min_value: -2.1582436561584473
    scale: 0.00846370030194521
    zero_point: 255
  '@Add_/wav2vec2/encoder/layers.7/Add_149:out0':
    qtype: u8
    quantizer: asymmetric_affine
    rounding: rtne
    max_value: 2806.94189453125
    min_value: -2089.4443359375
    scale: 19.201515197753906
    zero_point: 109
  '@Mul_/wav2vec2/encoder/layers.7/feed_forward/intermediate_act_fn/Mul_1_151:out0':
    qtype: u8
    quantizer: asymmetric_affine
    rounding: rtne
    max_value: 104.85874938964844
    min_value: -0.16997122764587402
    scale: 0.4118773341178894
    zero_point: 0
  '@MatMul_/wav2vec2/encoder/layers.8/attention/MatMul_1_153:out0':
    qtype: u8
    quantizer: asymmetric_affine
    rounding: rtne
    max_value: 85.09527587890625
    min_value: -87.50210571289062
    scale: 0.6768524646759033
    zero_point: 129
  '@Transpose_/wav2vec2/encoder/layers.9/attention/Transpose_2_154:out0':
    qtype: u8
    quantizer: asymmetric_affine
    rounding: rtne
    max_value: 9.37131404876709
    min_value: -8.185260772705078
    scale: 0.06884931772947311
    zero_point: 119
  '@Reshape_/wav2vec2/encoder/layers.9/attention/Reshape_4_155:out0':
    qtype: u8
    quantizer: asymmetric_affine
    rounding: rtne
    max_value: 75.89810180664062
    min_value: -84.04586029052734
    scale: 0.627231240272522
    zero_point: 134
  '@Add_/wav2vec2/encoder/layers.6/final_layer_norm/Add_1_161:out0':
    qtype: u8
    quantizer: asymmetric_affine
    rounding: rtne
    max_value: 3.0100715160369873
    min_value: -3.8334267139434814
    scale: 0.026837248355150223
    zero_point: 143
  '@Softmax_/wav2vec2/encoder/layers.8/attention/Softmax_166:out0':
    qtype: u8
    quantizer: asymmetric_affine
    rounding: rtne
    max_value: 1.0
    min_value: 0.0
    scale: 0.003921568859368563
    zero_point: 0
  '@Reshape_/wav2vec2/encoder/layers.8/attention/Reshape_5_167:out0':
    qtype: u8
    quantizer: asymmetric_affine
    rounding: rtne
    max_value: 86.90579223632812
    min_value: -88.85089111328125
    scale: 0.689241886138916
    zero_point: 129
  '@Reshape_/wav2vec2/encoder/layers.9/attention/Reshape_2_168:out0':
    qtype: u8
    quantizer: asymmetric_affine
    rounding: rtne
    max_value: 9.37131404876709
    min_value: -8.185260772705078
    scale: 0.06884931772947311
    zero_point: 119
  '@Transpose_/wav2vec2/encoder/layers.9/attention/Transpose_169:out0':
    qtype: u8
    quantizer: asymmetric_affine
    rounding: rtne
    max_value: 75.89810180664062
    min_value: -84.04586029052734
    scale: 0.627231240272522
    zero_point: 134
  '@Add_/wav2vec2/encoder/layers.6/Add_1_173:out0':
    qtype: u8
    quantizer: asymmetric_affine
    rounding: rtne
    max_value: 3270.198974609375
    min_value: -4333.2001953125
    scale: 29.81725311279297
    zero_point: 145
  '@Reshape_/wav2vec2/encoder/layers.7/attention/Reshape_7_175:out0':
    qtype: u8
    quantizer: asymmetric_affine
    rounding: rtne
    max_value: 93.21460723876953
    min_value: -90.24590301513672
    scale: 0.719452977180481
    zero_point: 125
  '@Transpose_/wav2vec2/encoder/layers.7/attention/Transpose_4_178:out0':
    qtype: u8
    quantizer: asymmetric_affine
    rounding: rtne
    max_value: 93.21460723876953
    min_value: -90.24590301513672
    scale: 0.719452977180481
    zero_point: 125
  '@Transpose_/wav2vec2/encoder/layers.8/attention/Transpose_1_181:out0':
    qtype: u8
    quantizer: asymmetric_affine
    rounding: rtne
    max_value: 86.90579223632812
    min_value: -88.85089111328125
    scale: 0.689241886138916
    zero_point: 129
  '@Mul_/wav2vec2/encoder/layers.9/attention/Mul_182:out0':
    qtype: u8
    quantizer: asymmetric_affine
    rounding: rtne
    max_value: 9.37131404876709
    min_value: -8.185260772705078
    scale: 0.06884931772947311
    zero_point: 119
  '@Reshape_/wav2vec2/encoder/layers.9/attention/Reshape_183:out0':
    qtype: u8
    quantizer: asymmetric_affine
    rounding: rtne
    max_value: 75.89810180664062
    min_value: -84.04586029052734
    scale: 0.627231240272522
    zero_point: 134
  '@Add_/wav2vec2/encoder/layers.6/layer_norm/Add_1_185:out0':
    qtype: u8
    quantizer: asymmetric_affine
    rounding: rtne
    max_value: 2.9583053588867188
    min_value: -3.971642255783081
    scale: 0.0271762665361166
    zero_point: 146
  '@Reshape_/wav2vec2/encoder/layers.7/attention/Reshape_6_188:out0':
    qtype: u8
    quantizer: asymmetric_affine
    rounding: rtne
    max_value: 93.21460723876953
    min_value: -90.24590301513672
    scale: 0.719452977180481
    zero_point: 125
  '@Reshape_/wav2vec2/encoder/layers.8/attention/Reshape_3_189:out0':
    qtype: u8
    quantizer: asymmetric_affine
    rounding: rtne
    max_value: 131.5994873046875
    min_value: -132.14404296875
    scale: 1.0342884063720703
    zero_point: 128
  '@Transpose_/wav2vec2/encoder/layers.8/attention/Transpose_3_190:out0':
    qtype: u8
    quantizer: asymmetric_affine
    rounding: rtne
    max_value: 113.77761840820312
    min_value: -80.10125732421875
    scale: 0.7603093385696411
    zero_point: 105
  '@Reshape_/wav2vec2/encoder/layers.8/attention/Reshape_1_191:out0':
    qtype: u8
    quantizer: asymmetric_affine
    rounding: rtne
    max_value: 86.90579223632812
    min_value: -88.85089111328125
    scale: 0.689241886138916
    zero_point: 129
  '@Constant_/wav2vec2/encoder/layers.9/attention/Constant_193:out0':
    qtype: u8
    quantizer: asymmetric_affine
    rounding: rtne
    max_value: 0.10556287318468094
    min_value: 0.0
    scale: 0.00041397204040549695
    zero_point: 0
  '@Add_/wav2vec2/encoder/layers.6/Add_196:out0':
    qtype: u8
    quantizer: asymmetric_affine
    rounding: rtne
    max_value: 2297.731689453125
    min_value: -3124.297607421875
    scale: 21.262859344482422
    zero_point: 147
  '@Mul_/wav2vec2/encoder/layers.6/feed_forward/intermediate_act_fn/Mul_1_198:out0':
    qtype: u8
    quantizer: asymmetric_affine
    rounding: rtne
    max_value: 114.13435363769531
    min_value: -0.16997122764587402
    scale: 0.44825223088264465
    zero_point: 0
  '@MatMul_/wav2vec2/encoder/layers.7/attention/MatMul_1_200:out0':
    qtype: u8
    quantizer: asymmetric_affine
    rounding: rtne
    max_value: 93.21460723876953
    min_value: -90.24590301513672
    scale: 0.719452977180481
    zero_point: 125
  '@Transpose_/wav2vec2/encoder/layers.8/attention/Transpose_2_201:out0':
    qtype: u8
    quantizer: asymmetric_affine
    rounding: rtne
    max_value: 131.5994873046875
    min_value: -132.14404296875
    scale: 1.0342884063720703
    zero_point: 128
  '@Reshape_/wav2vec2/encoder/layers.8/attention/Reshape_4_202:out0':
    qtype: u8
    quantizer: asymmetric_affine
    rounding: rtne
    max_value: 113.77761840820312
    min_value: -80.10125732421875
    scale: 0.7603093385696411
    zero_point: 105
  '@Add_/wav2vec2/encoder/layers.5/final_layer_norm/Add_1_208:out0':
    qtype: u8
    quantizer: asymmetric_affine
    rounding: rtne
    max_value: 3.1319596767425537
    min_value: -3.0066308975219727
    scale: 0.024072906002402306
    zero_point: 125
  '@Softmax_/wav2vec2/encoder/layers.7/attention/Softmax_213:out0':
    qtype: u8
    quantizer: asymmetric_affine
    rounding: rtne
    max_value: 1.0
    min_value: 0.0
    scale: 0.003921568859368563
    zero_point: 0
  '@Reshape_/wav2vec2/encoder/layers.7/attention/Reshape_5_214:out0':
    qtype: u8
    quantizer: asymmetric_affine
    rounding: rtne
    max_value: 98.24263000488281
    min_value: -92.1708755493164
    scale: 0.7467196583747864
    zero_point: 123
  '@Reshape_/wav2vec2/encoder/layers.8/attention/Reshape_2_215:out0':
    qtype: u8
    quantizer: asymmetric_affine
    rounding: rtne
    max_value: 131.5994873046875
    min_value: -132.14404296875
    scale: 1.0342884063720703
    zero_point: 128
  '@Transpose_/wav2vec2/encoder/layers.8/attention/Transpose_216:out0':
    qtype: u8
    quantizer: asymmetric_affine
    rounding: rtne
    max_value: 113.77761840820312
    min_value: -80.10125732421875
    scale: 0.7603093385696411
    zero_point: 105
  '@Add_/wav2vec2/encoder/layers.5/Add_1_220:out0':
    qtype: u8
    quantizer: asymmetric_affine
    rounding: rtne
    max_value: 3293.81884765625
    min_value: -3233.7646484375
    scale: 25.598365783691406
    zero_point: 126
  '@Reshape_/wav2vec2/encoder/layers.6/attention/Reshape_7_222:out0':
    qtype: u8
    quantizer: asymmetric_affine
    rounding: rtne
    max_value: 89.97057342529297
    min_value: -93.72493743896484
    scale: 0.7203745245933533
    zero_point: 130
  '@Transpose_/wav2vec2/encoder/layers.6/attention/Transpose_4_225:out0':
    qtype: u8
    quantizer: asymmetric_affine
    rounding: rtne
    max_value: 89.97057342529297
    min_value: -93.72493743896484
    scale: 0.7203745245933533
    zero_point: 130
  '@Transpose_/wav2vec2/encoder/layers.7/attention/Transpose_1_228:out0':
    qtype: u8
    quantizer: asymmetric_affine
    rounding: rtne
    max_value: 98.24263000488281
    min_value: -92.1708755493164
    scale: 0.7467196583747864
    zero_point: 123
  '@Mul_/wav2vec2/encoder/layers.8/attention/Mul_229:out0':
    qtype: u8
    quantizer: asymmetric_affine
    rounding: rtne
    max_value: 131.5994873046875
    min_value: -132.14404296875
    scale: 1.0342884063720703
    zero_point: 128
  '@Reshape_/wav2vec2/encoder/layers.8/attention/Reshape_230:out0':
    qtype: u8
    quantizer: asymmetric_affine
    rounding: rtne
    max_value: 113.77761840820312
    min_value: -80.10125732421875
    scale: 0.7603093385696411
    zero_point: 105
  '@Add_/wav2vec2/encoder/layers.5/layer_norm/Add_1_232:out0':
    qtype: u8
    quantizer: asymmetric_affine
    rounding: rtne
    max_value: 3.345132827758789
    min_value: -3.0298876762390137
    scale: 0.025000080466270447
    zero_point: 121
  '@Reshape_/wav2vec2/encoder/layers.6/attention/Reshape_6_235:out0':
    qtype: u8
    quantizer: asymmetric_affine
    rounding: rtne
    max_value: 89.97057342529297
    min_value: -93.72493743896484
    scale: 0.7203745245933533
    zero_point: 130
  '@Reshape_/wav2vec2/encoder/layers.7/attention/Reshape_3_236:out0':
    qtype: u8
    quantizer: asymmetric_affine
    rounding: rtne
    max_value: 22.006620407104492
    min_value: -21.4174861907959
    scale: 0.17029061913490295
    zero_point: 126
  '@Transpose_/wav2vec2/encoder/layers.7/attention/Transpose_3_237:out0':
    qtype: u8
    quantizer: asymmetric_affine
    rounding: rtne
    max_value: 96.7374496459961
    min_value: -91.5334701538086
    scale: 0.7383173108100891
    zero_point: 124
  '@Reshape_/wav2vec2/encoder/layers.7/attention/Reshape_1_238:out0':
    qtype: u8
    quantizer: asymmetric_affine
    rounding: rtne
    max_value: 98.24263000488281
    min_value: -92.1708755493164
    scale: 0.7467196583747864
    zero_point: 123
  '@Constant_/wav2vec2/encoder/layers.8/attention/Constant_240:out0':
    qtype: u8
    quantizer: asymmetric_affine
    rounding: rtne
    max_value: 1.525530219078064
    min_value: 0.0
    scale: 0.005982471629977226
    zero_point: 0
  '@Add_/wav2vec2/encoder/layers.5/Add_243:out0':
    qtype: u8
    quantizer: asymmetric_affine
    rounding: rtne
    max_value: 2569.763916015625
    min_value: -2328.291015625
    scale: 19.208057403564453
    zero_point: 121
  '@Mul_/wav2vec2/encoder/layers.5/feed_forward/intermediate_act_fn/Mul_1_245:out0':
    qtype: u8
    quantizer: asymmetric_affine
    rounding: rtne
    max_value: 110.60147094726562
    min_value: -0.16997122764587402
    scale: 0.43439778685569763
    zero_point: 0
  '@MatMul_/wav2vec2/encoder/layers.6/attention/MatMul_1_247:out0':
    qtype: u8
    quantizer: asymmetric_affine
    rounding: rtne
    max_value: 89.97057342529297
    min_value: -93.72493743896484
    scale: 0.7203745245933533
    zero_point: 130
  '@Transpose_/wav2vec2/encoder/layers.7/attention/Transpose_2_248:out0':
    qtype: u8
    quantizer: asymmetric_affine
    rounding: rtne
    max_value: 22.006620407104492
    min_value: -21.4174861907959
    scale: 0.17029061913490295
    zero_point: 126
  '@Reshape_/wav2vec2/encoder/layers.7/attention/Reshape_4_249:out0':
    qtype: u8
    quantizer: asymmetric_affine
    rounding: rtne
    max_value: 96.7374496459961
    min_value: -91.5334701538086
    scale: 0.7383173108100891
    zero_point: 124
  '@Add_/wav2vec2/encoder/layers.4/final_layer_norm/Add_1_255:out0':
    qtype: u8
    quantizer: asymmetric_affine
    rounding: rtne
    max_value: 3.676764488220215
    min_value: -3.927279233932495
    scale: 0.029819780960679054
    zero_point: 132
  '@Softmax_/wav2vec2/encoder/layers.6/attention/Softmax_260:out0':
    qtype: u8
    quantizer: asymmetric_affine
    rounding: rtne
    max_value: 1.0
    min_value: 0.0
    scale: 0.003921568859368563
    zero_point: 0
  '@Reshape_/wav2vec2/encoder/layers.6/attention/Reshape_5_261:out0':
    qtype: u8
    quantizer: asymmetric_affine
    rounding: rtne
    max_value: 93.12721252441406
    min_value: -96.68312072753906
    scale: 0.744354248046875
    zero_point: 130
  '@Reshape_/wav2vec2/encoder/layers.7/attention/Reshape_2_262:out0':
    qtype: u8
    quantizer: asymmetric_affine
    rounding: rtne
    max_value: 22.006620407104492
    min_value: -21.4174861907959
    scale: 0.17029061913490295
    zero_point: 126
  '@Transpose_/wav2vec2/encoder/layers.7/attention/Transpose_263:out0':
    qtype: u8
    quantizer: asymmetric_affine
    rounding: rtne
    max_value: 96.7374496459961
    min_value: -91.5334701538086
    scale: 0.7383173108100891
    zero_point: 124
  '@Add_/wav2vec2/encoder/layers.4/Add_1_267:out0':
    qtype: u8
    quantizer: asymmetric_affine
    rounding: rtne
    max_value: 4175.8583984375
    min_value: -4372.91162109375
    scale: 33.52458572387695
    zero_point: 130
  '@Reshape_/wav2vec2/encoder/layers.5/attention/Reshape_7_269:out0':
    qtype: u8
    quantizer: asymmetric_affine
    rounding: rtne
    max_value: 94.28412628173828
    min_value: -100.96891021728516
    scale: 0.7656981945037842
    zero_point: 132
  '@Transpose_/wav2vec2/encoder/layers.5/attention/Transpose_4_272:out0':
    qtype: u8
    quantizer: asymmetric_affine
    rounding: rtne
    max_value: 94.28412628173828
    min_value: -100.96891021728516
    scale: 0.7656981945037842
    zero_point: 132
  '@Transpose_/wav2vec2/encoder/layers.6/attention/Transpose_1_275:out0':
    qtype: u8
    quantizer: asymmetric_affine
    rounding: rtne
    max_value: 93.12721252441406
    min_value: -96.68312072753906
    scale: 0.744354248046875
    zero_point: 130
  '@Mul_/wav2vec2/encoder/layers.7/attention/Mul_276:out0':
    qtype: u8
    quantizer: asymmetric_affine
    rounding: rtne
    max_value: 22.006620407104492
    min_value: -21.4174861907959
    scale: 0.17029061913490295
    zero_point: 126
  '@Reshape_/wav2vec2/encoder/layers.7/attention/Reshape_277:out0':
    qtype: u8
    quantizer: asymmetric_affine
    rounding: rtne
    max_value: 96.7374496459961
    min_value: -91.5334701538086
    scale: 0.7383173108100891
    zero_point: 124
  '@Add_/wav2vec2/encoder/layers.4/layer_norm/Add_1_279:out0':
    qtype: u8
    quantizer: asymmetric_affine
    rounding: rtne
    max_value: 3.6660048961639404
    min_value: -4.305673122406006
    scale: 0.03126148134469986
    zero_point: 138
  '@Reshape_/wav2vec2/encoder/layers.5/attention/Reshape_6_282:out0':
    qtype: u8
    quantizer: asymmetric_affine
    rounding: rtne
    max_value: 94.28412628173828
    min_value: -100.96891021728516
    scale: 0.7656981945037842
    zero_point: 132
  '@Reshape_/wav2vec2/encoder/layers.6/attention/Reshape_3_283:out0':
    qtype: u8
    quantizer: asymmetric_affine
    rounding: rtne
    max_value: 125.0718002319336
    min_value: -142.05250549316406
    scale: 1.0475462675094604
    zero_point: 136
  '@Transpose_/wav2vec2/encoder/layers.6/attention/Transpose_3_284:out0':
    qtype: u8
    quantizer: asymmetric_affine
    rounding: rtne
    max_value: 120.70606994628906
    min_value: -103.32150268554688
    scale: 0.878539502620697
    zero_point: 118
  '@Reshape_/wav2vec2/encoder/layers.6/attention/Reshape_1_285:out0':
    qtype: u8
    quantizer: asymmetric_affine
    rounding: rtne
    max_value: 93.12721252441406
    min_value: -96.68312072753906
    scale: 0.744354248046875
    zero_point: 130
  '@Constant_/wav2vec2/encoder/layers.7/attention/Constant_287:out0':
    qtype: u8
    quantizer: asymmetric_affine
    rounding: rtne
    max_value: 0.21950960159301758
    min_value: 0.0
    scale: 0.000860821979586035
    zero_point: 0
  '@Add_/wav2vec2/encoder/layers.4/Add_290:out0':
    qtype: u8
    quantizer: asymmetric_affine
    rounding: rtne
    max_value: 2862.85400390625
    min_value: -3282.363525390625
    scale: 24.098894119262695
    zero_point: 136
  '@Mul_/wav2vec2/encoder/layers.4/feed_forward/intermediate_act_fn/Mul_1_292:out0':
    qtype: u8
    quantizer: asymmetric_affine
    rounding: rtne
    max_value: 119.38206481933594
    min_value: -0.16997122764587402
    scale: 0.46883150935173035
    zero_point: 0
  '@MatMul_/wav2vec2/encoder/layers.5/attention/MatMul_1_294:out0':
    qtype: u8
    quantizer: asymmetric_affine
    rounding: rtne
    max_value: 94.28412628173828
    min_value: -100.96891021728516
    scale: 0.7656981945037842
    zero_point: 132
  '@Transpose_/wav2vec2/encoder/layers.6/attention/Transpose_2_295:out0':
    qtype: u8
    quantizer: asymmetric_affine
    rounding: rtne
    max_value: 125.0718002319336
    min_value: -142.05250549316406
    scale: 1.0475462675094604
    zero_point: 136
  '@Reshape_/wav2vec2/encoder/layers.6/attention/Reshape_4_296:out0':
    qtype: u8
    quantizer: asymmetric_affine
    rounding: rtne
    max_value: 120.70606994628906
    min_value: -103.32150268554688
    scale: 0.878539502620697
    zero_point: 118
  '@Add_/wav2vec2/encoder/layers.3/final_layer_norm/Add_1_302:out0':
    qtype: u8
    quantizer: asymmetric_affine
    rounding: rtne
    max_value: 3.6118674278259277
    min_value: -3.6118674278259277
    scale: 0.028328372165560722
    zero_point: 128
  '@Softmax_/wav2vec2/encoder/layers.5/attention/Softmax_307:out0':
    qtype: u8
    quantizer: asymmetric_affine
    rounding: rtne
    max_value: 1.0
    min_value: 0.0
    scale: 0.003921568859368563
    zero_point: 0
  '@Reshape_/wav2vec2/encoder/layers.5/attention/Reshape_5_308:out0':
    qtype: u8
    quantizer: asymmetric_affine
    rounding: rtne
    max_value: 103.56615447998047
    min_value: -118.1286392211914
    scale: 0.8693913221359253
    zero_point: 136
  '@Reshape_/wav2vec2/encoder/layers.6/attention/Reshape_2_309:out0':
    qtype: u8
    quantizer: asymmetric_affine
    rounding: rtne
    max_value: 125.0718002319336
    min_value: -142.05250549316406
    scale: 1.0475462675094604
    zero_point: 136
  '@Transpose_/wav2vec2/encoder/layers.6/attention/Transpose_310:out0':
    qtype: u8
    quantizer: asymmetric_affine
    rounding: rtne
    max_value: 120.70606994628906
    min_value: -103.32150268554688
    scale: 0.878539502620697
    zero_point: 118
  '@Add_/wav2vec2/encoder/layers.3/Add_1_314:out0':
    qtype: u8
    quantizer: asymmetric_affine
    rounding: rtne
    max_value: 4282.93408203125
    min_value: -4370.3798828125
    scale: 33.934566497802734
    zero_point: 129
  '@Reshape_/wav2vec2/encoder/layers.4/attention/Reshape_7_316:out0':
    qtype: u8
    quantizer: asymmetric_affine
    rounding: rtne
    max_value: 99.55615997314453
    min_value: -84.92784881591797
    scale: 0.723466694355011
    zero_point: 117
  '@Transpose_/wav2vec2/encoder/layers.4/attention/Transpose_4_319:out0':
    qtype: u8
    quantizer: asymmetric_affine
    rounding: rtne
    max_value: 99.55615997314453
    min_value: -84.92784881591797
    scale: 0.723466694355011
    zero_point: 117
  '@Transpose_/wav2vec2/encoder/layers.5/attention/Transpose_1_322:out0':
    qtype: u8
    quantizer: asymmetric_affine
    rounding: rtne
    max_value: 103.56615447998047
    min_value: -118.1286392211914
    scale: 0.8693913221359253
    zero_point: 136
  '@Mul_/wav2vec2/encoder/layers.6/attention/Mul_323:out0':
    qtype: u8
    quantizer: asymmetric_affine
    rounding: rtne
    max_value: 125.0718002319336
    min_value: -142.05250549316406
    scale: 1.0475462675094604
    zero_point: 136
  '@Reshape_/wav2vec2/encoder/layers.6/attention/Reshape_324:out0':
    qtype: u8
    quantizer: asymmetric_affine
    rounding: rtne
    max_value: 120.70606994628906
    min_value: -103.32150268554688
    scale: 0.878539502620697
    zero_point: 118
  '@Add_/wav2vec2/encoder/layers.3/layer_norm/Add_1_326:out0':
    qtype: u8
    quantizer: asymmetric_affine
    rounding: rtne
    max_value: 3.8839008808135986
    min_value: -3.701385498046875
    scale: 0.029746219515800476
    zero_point: 124
  '@Reshape_/wav2vec2/encoder/layers.4/attention/Reshape_6_329:out0':
    qtype: u8
    quantizer: asymmetric_affine
    rounding: rtne
    max_value: 99.55615997314453
    min_value: -84.92784881591797
    scale: 0.723466694355011
    zero_point: 117
  '@Reshape_/wav2vec2/encoder/layers.5/attention/Reshape_3_330:out0':
    qtype: u8
    quantizer: asymmetric_affine
    rounding: rtne
    max_value: 84.61497497558594
    min_value: -57.99979782104492
    scale: 0.5592736601829529
    zero_point: 104
  '@Transpose_/wav2vec2/encoder/layers.5/attention/Transpose_3_331:out0':
    qtype: u8
    quantizer: asymmetric_affine
    rounding: rtne
    max_value: 102.79010009765625
    min_value: -93.89371490478516
    scale: 0.7713090777397156
    zero_point: 122
  '@Reshape_/wav2vec2/encoder/layers.5/attention/Reshape_1_332:out0':
    qtype: u8
    quantizer: asymmetric_affine
    rounding: rtne
    max_value: 103.56615447998047
    min_value: -118.1286392211914
    scale: 0.8693913221359253
    zero_point: 136
  '@Constant_/wav2vec2/encoder/layers.6/attention/Constant_334:out0':
    qtype: u8
    quantizer: asymmetric_affine
    rounding: rtne
    max_value: 0.0
    min_value: -1.258628249168396
    scale: 0.0049357968382537365
    zero_point: 255
  '@Add_/wav2vec2/encoder/layers.3/Add_337:out0':
    qtype: u8
    quantizer: asymmetric_affine
    rounding: rtne
    max_value: 3199.30078125
    min_value: -3047.039306640625
    scale: 24.495450973510742
    zero_point: 124
  '@Mul_/wav2vec2/encoder/layers.3/feed_forward/intermediate_act_fn/Mul_1_339:out0':
    qtype: u8
    quantizer: asymmetric_affine
    rounding: rtne
    max_value: 122.86507415771484
    min_value: -0.16997122764587402
    scale: 0.4824903607368469
    zero_point: 0
  '@MatMul_/wav2vec2/encoder/layers.4/attention/MatMul_1_341:out0':
    qtype: u8
    quantizer: asymmetric_affine
    rounding: rtne
    max_value: 99.55615997314453
    min_value: -84.92784881591797
    scale: 0.723466694355011
    zero_point: 117
  '@Transpose_/wav2vec2/encoder/layers.5/attention/Transpose_2_342:out0':
    qtype: u8
    quantizer: asymmetric_affine
    rounding: rtne
    max_value: 84.61497497558594
    min_value: -57.99979782104492
    scale: 0.5592736601829529
    zero_point: 104
  '@Reshape_/wav2vec2/encoder/layers.5/attention/Reshape_4_343:out0':
    qtype: u8
    quantizer: asymmetric_affine
    rounding: rtne
    max_value: 102.79010009765625
    min_value: -93.89371490478516
    scale: 0.7713090777397156
    zero_point: 122
  '@Add_/wav2vec2/encoder/layers.2/final_layer_norm/Add_1_349:out0':
    qtype: u8
    quantizer: asymmetric_affine
    rounding: rtne
    max_value: 3.860276699066162
    min_value: -4.325395584106445
    scale: 0.032100677490234375
    zero_point: 135
  '@Softmax_/wav2vec2/encoder/layers.4/attention/Softmax_354:out0':
    qtype: u8
    quantizer: asymmetric_affine
    rounding: rtne
    max_value: 1.0
    min_value: 0.0
    scale: 0.003921568859368563
    zero_point: 0
  '@Reshape_/wav2vec2/encoder/layers.4/attention/Reshape_5_355:out0':
    qtype: u8
    quantizer: asymmetric_affine
    rounding: rtne
    max_value: 107.65731811523438
    min_value: -98.36405944824219
    scale: 0.8079269528388977
    zero_point: 122
  '@Reshape_/wav2vec2/encoder/layers.5/attention/Reshape_2_356:out0':
    qtype: u8
    quantizer: asymmetric_affine
    rounding: rtne
    max_value: 84.61497497558594
    min_value: -57.99979782104492
    scale: 0.5592736601829529
    zero_point: 104
  '@Transpose_/wav2vec2/encoder/layers.5/attention/Transpose_357:out0':
    qtype: u8
    quantizer: asymmetric_affine
    rounding: rtne
    max_value: 102.79010009765625
    min_value: -93.89371490478516
    scale: 0.7713090777397156
    zero_point: 122
  '@Add_/wav2vec2/encoder/layers.2/Add_1_361:out0':
    qtype: u8
    quantizer: asymmetric_affine
    rounding: rtne
    max_value: 4363.2822265625
    min_value: -4731.33984375
    scale: 35.665184020996094
    zero_point: 133
  '@Reshape_/wav2vec2/encoder/layers.3/attention/Reshape_7_363:out0':
    qtype: u8
    quantizer: asymmetric_affine
    rounding: rtne
    max_value: 100.49298858642578
    min_value: -108.2129898071289
    scale: 0.8184548020362854
    zero_point: 132
  '@Transpose_/wav2vec2/encoder/layers.3/attention/Transpose_4_366:out0':
    qtype: u8
    quantizer: asymmetric_affine
    rounding: rtne
    max_value: 100.49298858642578
    min_value: -108.2129898071289
    scale: 0.8184548020362854
    zero_point: 132
  '@Transpose_/wav2vec2/encoder/layers.4/attention/Transpose_1_369:out0':
    qtype: u8
    quantizer: asymmetric_affine
    rounding: rtne
    max_value: 107.65731811523438
    min_value: -98.36405944824219
    scale: 0.8079269528388977
    zero_point: 122
  '@Mul_/wav2vec2/encoder/layers.5/attention/Mul_370:out0':
    qtype: u8
    quantizer: asymmetric_affine
    rounding: rtne
    max_value: 84.61497497558594
    min_value: -57.99979782104492
    scale: 0.5592736601829529
    zero_point: 104
  '@Reshape_/wav2vec2/encoder/layers.5/attention/Reshape_371:out0':
    qtype: u8
    quantizer: asymmetric_affine
    rounding: rtne
    max_value: 102.79010009765625
    min_value: -93.89371490478516
    scale: 0.7713090777397156
    zero_point: 122
  '@Add_/wav2vec2/encoder/layers.2/layer_norm/Add_1_373:out0':
    qtype: u8
    quantizer: asymmetric_affine
    rounding: rtne
    max_value: 4.763514041900635
    min_value: -4.541422367095947
    scale: 0.03648994490504265
    zero_point: 124
  '@Reshape_/wav2vec2/encoder/layers.3/attention/Reshape_6_376:out0':
    qtype: u8
    quantizer: asymmetric_affine
    rounding: rtne
    max_value: 100.49298858642578
    min_value: -108.2129898071289
    scale: 0.8184548020362854
    zero_point: 132
  '@Reshape_/wav2vec2/encoder/layers.4/attention/Reshape_3_377:out0':
    qtype: u8
    quantizer: asymmetric_affine
    rounding: rtne
    max_value: 46.754180908203125
    min_value: -35.84629821777344
    scale: 0.3239234387874603
    zero_point: 111
  '@Transpose_/wav2vec2/encoder/layers.4/attention/Transpose_3_378:out0':
    qtype: u8
    quantizer: asymmetric_affine
    rounding: rtne
    max_value: 99.73899841308594
    min_value: -107.65478515625
    scale: 0.8133089542388916
    zero_point: 132
  '@Reshape_/wav2vec2/encoder/layers.4/attention/Reshape_1_379:out0':
    qtype: u8
    quantizer: asymmetric_affine
    rounding: rtne
    max_value: 107.65731811523438
    min_value: -98.36405944824219
    scale: 0.8079269528388977
    zero_point: 122
  '@Constant_/wav2vec2/encoder/layers.5/attention/Constant_381:out0':
    qtype: u8
    quantizer: asymmetric_affine
    rounding: rtne
    max_value: 0.0
    min_value: -0.6868405938148499
    scale: 0.002693492453545332
    zero_point: 255
  '@Add_/wav2vec2/encoder/layers.2/Add_384:out0':
    qtype: u8
    quantizer: asymmetric_affine
    rounding: rtne
    max_value: 3646.302978515625
    min_value: -3404.83251953125
    scale: 27.651512145996094
    zero_point: 123
  '@Mul_/wav2vec2/encoder/layers.2/feed_forward/intermediate_act_fn/Mul_1_386:out0':
    qtype: u8
    quantizer: asymmetric_affine
    rounding: rtne
    max_value: 118.04690551757812
    min_value: -0.16997122764587402
    scale: 0.46359556913375854
    zero_point: 0
  '@MatMul_/wav2vec2/encoder/layers.3/attention/MatMul_1_388:out0':
    qtype: u8
    quantizer: asymmetric_affine
    rounding: rtne
    max_value: 100.49298858642578
    min_value: -108.2129898071289
    scale: 0.8184548020362854
    zero_point: 132
  '@Transpose_/wav2vec2/encoder/layers.4/attention/Transpose_2_389:out0':
    qtype: u8
    quantizer: asymmetric_affine
    rounding: rtne
    max_value: 46.754180908203125
    min_value: -35.84629821777344
    scale: 0.3239234387874603
    zero_point: 111
  '@Reshape_/wav2vec2/encoder/layers.4/attention/Reshape_4_390:out0':
    qtype: u8
    quantizer: asymmetric_affine
    rounding: rtne
    max_value: 99.73899841308594
    min_value: -107.65478515625
    scale: 0.8133089542388916
    zero_point: 132
  '@Add_/wav2vec2/encoder/layers.1/final_layer_norm/Add_1_396:out0':
    qtype: u8
    quantizer: asymmetric_affine
    rounding: rtne
    max_value: 4.028252601623535
    min_value: -4.028252601623535
    scale: 0.03159413859248161
    zero_point: 128
  '@Softmax_/wav2vec2/encoder/layers.3/attention/Softmax_401:out0':
    qtype: u8
    quantizer: asymmetric_affine
    rounding: rtne
    max_value: 1.0
    min_value: 0.0
    scale: 0.003921568859368563
    zero_point: 0
  '@Reshape_/wav2vec2/encoder/layers.3/attention/Reshape_5_402:out0':
    qtype: u8
    quantizer: asymmetric_affine
    rounding: rtne
    max_value: 115.85706329345703
    min_value: -110.69624328613281
    scale: 0.8884443640708923
    zero_point: 125
  '@Reshape_/wav2vec2/encoder/layers.4/attention/Reshape_2_403:out0':
    qtype: u8
    quantizer: asymmetric_affine
    rounding: rtne
    max_value: 46.754180908203125
    min_value: -35.84629821777344
    scale: 0.3239234387874603
    zero_point: 111
  '@Transpose_/wav2vec2/encoder/layers.4/attention/Transpose_404:out0':
    qtype: u8
    quantizer: asymmetric_affine
    rounding: rtne
    max_value: 99.73899841308594
    min_value: -107.65478515625
    scale: 0.8133089542388916
    zero_point: 132
  '@Add_/wav2vec2/encoder/layers.1/Add_1_408:out0':
    qtype: u8
    quantizer: asymmetric_affine
    rounding: rtne
    max_value: 4984.64013671875
    min_value: -4454.96533203125
    scale: 37.01805877685547
    zero_point: 120
  '@Reshape_/wav2vec2/encoder/layers.2/attention/Reshape_7_410:out0':
    qtype: u8
    quantizer: asymmetric_affine
    rounding: rtne
    max_value: 124.52334594726562
    min_value: -118.9552001953125
    scale: 0.9548178315162659
    zero_point: 125
  '@Transpose_/wav2vec2/encoder/layers.2/attention/Transpose_4_413:out0':
    qtype: u8
    quantizer: asymmetric_affine
    rounding: rtne
    max_value: 124.52334594726562
    min_value: -118.9552001953125
    scale: 0.9548178315162659
    zero_point: 125
  '@Transpose_/wav2vec2/encoder/layers.3/attention/Transpose_1_416:out0':
    qtype: u8
    quantizer: asymmetric_affine
    rounding: rtne
    max_value: 115.85706329345703
    min_value: -110.69624328613281
    scale: 0.8884443640708923
    zero_point: 125
  '@Mul_/wav2vec2/encoder/layers.4/attention/Mul_417:out0':
    qtype: u8
    quantizer: asymmetric_affine
    rounding: rtne
    max_value: 46.754180908203125
    min_value: -35.84629821777344
    scale: 0.3239234387874603
    zero_point: 111
  '@Reshape_/wav2vec2/encoder/layers.4/attention/Reshape_418:out0':
    qtype: u8
    quantizer: asymmetric_affine
    rounding: rtne
    max_value: 99.73899841308594
    min_value: -107.65478515625
    scale: 0.8133089542388916
    zero_point: 132
  '@Add_/wav2vec2/encoder/layers.1/layer_norm/Add_1_420:out0':
    qtype: u8
    quantizer: asymmetric_affine
    rounding: rtne
    max_value: 4.169467449188232
    min_value: -4.321761608123779
    scale: 0.03329893574118614
    zero_point: 130
  '@Reshape_/wav2vec2/encoder/layers.2/attention/Reshape_6_423:out0':
    qtype: u8
    quantizer: asymmetric_affine
    rounding: rtne
    max_value: 124.52334594726562
    min_value: -118.9552001953125
    scale: 0.9548178315162659
    zero_point: 125
  '@Reshape_/wav2vec2/encoder/layers.3/attention/Reshape_3_424:out0':
    qtype: u8
    quantizer: asymmetric_affine
    rounding: rtne
    max_value: 145.77915954589844
    min_value: -125.3479995727539
    scale: 1.0632437467575073
    zero_point: 118
  '@Transpose_/wav2vec2/encoder/layers.3/attention/Transpose_3_425:out0':
    qtype: u8
    quantizer: asymmetric_affine
    rounding: rtne
    max_value: 111.93675231933594
    min_value: -117.48117065429688
    scale: 0.899678111076355
    zero_point: 131
  '@Reshape_/wav2vec2/encoder/layers.3/attention/Reshape_1_426:out0':
    qtype: u8
    quantizer: asymmetric_affine
    rounding: rtne
    max_value: 115.85706329345703
    min_value: -110.69624328613281
    scale: 0.8884443640708923
    zero_point: 125
  '@Constant_/wav2vec2/encoder/layers.4/attention/Constant_428:out0':
    qtype: u8
    quantizer: asymmetric_affine
    rounding: rtne
    max_value: 0.0
    min_value: -0.3616108000278473
    scale: 0.0014180815778672695
    zero_point: 255
  '@Add_/wav2vec2/encoder/layers.1/Add_431:out0':
    qtype: u8
    quantizer: asymmetric_affine
    rounding: rtne
    max_value: 3090.0986328125
    min_value: -3379.443359375
    scale: 25.370752334594727
    zero_point: 133
  '@Mul_/wav2vec2/encoder/layers.1/feed_forward/intermediate_act_fn/Mul_1_433:out0':
    qtype: u8
    quantizer: asymmetric_affine
    rounding: rtne
    max_value: 110.450927734375
    min_value: -0.16997121274471283
    scale: 0.4338074326515198
    zero_point: 0
  '@MatMul_/wav2vec2/encoder/layers.2/attention/MatMul_1_435:out0':
    qtype: u8
    quantizer: asymmetric_affine
    rounding: rtne
    max_value: 124.52334594726562
    min_value: -118.9552001953125
    scale: 0.9548178315162659
    zero_point: 125
  '@Transpose_/wav2vec2/encoder/layers.3/attention/Transpose_2_436:out0':
    qtype: u8
    quantizer: asymmetric_affine
    rounding: rtne
    max_value: 145.77915954589844
    min_value: -125.3479995727539
    scale: 1.0632437467575073
    zero_point: 118
  '@Reshape_/wav2vec2/encoder/layers.3/attention/Reshape_4_437:out0':
    qtype: u8
    quantizer: asymmetric_affine
    rounding: rtne
    max_value: 111.93675231933594
    min_value: -117.48117065429688
    scale: 0.899678111076355
    zero_point: 131
  '@Add_/wav2vec2/encoder/layers.0/final_layer_norm/Add_1_443:out0':
    qtype: u8
    quantizer: asymmetric_affine
    rounding: rtne
    max_value: 4.074051856994629
    min_value: -4.168826580047607
    scale: 0.03232501074671745
    zero_point: 129
  '@Softmax_/wav2vec2/encoder/layers.2/attention/Softmax_448:out0':
    qtype: u8
    quantizer: asymmetric_affine
    rounding: rtne
    max_value: 1.0
    min_value: 0.0
    scale: 0.003921568859368563
    zero_point: 0
  '@Reshape_/wav2vec2/encoder/layers.2/attention/Reshape_5_449:out0':
    qtype: u8
    quantizer: asymmetric_affine
    rounding: rtne
    max_value: 124.52334594726562
    min_value: -127.1641616821289
    scale: 0.9870098233222961
    zero_point: 129
  '@Reshape_/wav2vec2/encoder/layers.3/attention/Reshape_2_450:out0':
    qtype: u8
    quantizer: asymmetric_affine
    rounding: rtne
    max_value: 145.77915954589844
    min_value: -125.3479995727539
    scale: 1.0632437467575073
    zero_point: 118
  '@Transpose_/wav2vec2/encoder/layers.3/attention/Transpose_451:out0':
    qtype: u8
    quantizer: asymmetric_affine
    rounding: rtne
    max_value: 111.93675231933594
    min_value: -117.48117065429688
    scale: 0.899678111076355
    zero_point: 131
  '@Add_/wav2vec2/encoder/layers.0/Add_1_455:out0':
    qtype: u8
    quantizer: asymmetric_affine
    rounding: rtne
    max_value: 4369.05908203125
    min_value: -4205.521484375
    scale: 33.62580490112305
    zero_point: 125
  '@Reshape_/wav2vec2/encoder/layers.1/attention/Reshape_7_457:out0':
    qtype: u8
    quantizer: asymmetric_affine
    rounding: rtne
    max_value: 107.85553741455078
    min_value: -126.82203674316406
    scale: 0.9203042387962341
    zero_point: 138
  '@Transpose_/wav2vec2/encoder/layers.1/attention/Transpose_4_460:out0':
    qtype: u8
    quantizer: asymmetric_affine
    rounding: rtne
    max_value: 107.85553741455078
    min_value: -126.82203674316406
    scale: 0.9203042387962341
    zero_point: 138
  '@Transpose_/wav2vec2/encoder/layers.2/attention/Transpose_1_463:out0':
    qtype: u8
    quantizer: asymmetric_affine
    rounding: rtne
    max_value: 124.52334594726562
    min_value: -127.1641616821289
    scale: 0.9870098233222961
    zero_point: 129
  '@Mul_/wav2vec2/encoder/layers.3/attention/Mul_464:out0':
    qtype: u8
    quantizer: asymmetric_affine
    rounding: rtne
    max_value: 145.77915954589844
    min_value: -125.3479995727539
    scale: 1.0632437467575073
    zero_point: 118
  '@Reshape_/wav2vec2/encoder/layers.3/attention/Reshape_465:out0':
    qtype: u8
    quantizer: asymmetric_affine
    rounding: rtne
    max_value: 111.93675231933594
    min_value: -117.48117065429688
    scale: 0.899678111076355
    zero_point: 131
  '@Add_/wav2vec2/encoder/layers.0/layer_norm/Add_1_467:out0':
    qtype: u8
    quantizer: asymmetric_affine
    rounding: rtne
    max_value: 3.9138057231903076
    min_value: -3.9138057231903076
    scale: 0.03069651499390602
    zero_point: 128
  '@Reshape_/wav2vec2/encoder/layers.1/attention/Reshape_6_470:out0':
    qtype: u8
    quantizer: asymmetric_affine
    rounding: rtne
    max_value: 107.85553741455078
    min_value: -126.82203674316406
    scale: 0.9203042387962341
    zero_point: 138
  '@Reshape_/wav2vec2/encoder/layers.2/attention/Reshape_3_471:out0':
    qtype: u8
    quantizer: asymmetric_affine
    rounding: rtne
    max_value: 186.7838897705078
    min_value: -177.11268615722656
    scale: 1.4270453453063965
    zero_point: 124
  '@Transpose_/wav2vec2/encoder/layers.2/attention/Transpose_3_472:out0':
    qtype: u8
    quantizer: asymmetric_affine
    rounding: rtne
    max_value: 125.05755615234375
    min_value: -125.96212768554688
    scale: 0.984390914440155
    zero_point: 128
  '@Reshape_/wav2vec2/encoder/layers.2/attention/Reshape_1_473:out0':
    qtype: u8
    quantizer: asymmetric_affine
    rounding: rtne
    max_value: 124.52334594726562
    min_value: -127.1641616821289
    scale: 0.9870098233222961
    zero_point: 129
  '@Constant_/wav2vec2/encoder/layers.3/attention/Constant_475:out0':
    qtype: u8
    quantizer: asymmetric_affine
    rounding: rtne
    max_value: 0.0
    min_value: -1.2684601545333862
    scale: 0.004974353592842817
    zero_point: 255
  '@Add_/wav2vec2/encoder/layers.0/Add_478:out0':
    qtype: u8
    quantizer: asymmetric_affine
    rounding: rtne
    max_value: 3293.764892578125
    min_value: -3121.59814453125
    scale: 25.158287048339844
    zero_point: 124
  '@Mul_/wav2vec2/encoder/layers.0/feed_forward/intermediate_act_fn/Mul_1_480:out0':
    qtype: u8
    quantizer: asymmetric_affine
    rounding: rtne
    max_value: 116.6327896118164
    min_value: -0.16997121274471283
    scale: 0.45805004239082336
    zero_point: 0
  '@MatMul_/wav2vec2/encoder/layers.1/attention/MatMul_1_482:out0':
    qtype: u8
    quantizer: asymmetric_affine
    rounding: rtne
    max_value: 107.85553741455078
    min_value: -126.82203674316406
    scale: 0.9203042387962341
    zero_point: 138
  '@Transpose_/wav2vec2/encoder/layers.2/attention/Transpose_2_483:out0':
    qtype: u8
    quantizer: asymmetric_affine
    rounding: rtne
    max_value: 186.7838897705078
    min_value: -177.11268615722656
    scale: 1.4270453453063965
    zero_point: 124
  '@Reshape_/wav2vec2/encoder/layers.2/attention/Reshape_4_484:out0':
    qtype: u8
    quantizer: asymmetric_affine
    rounding: rtne
    max_value: 125.05755615234375
    min_value: -125.96212768554688
    scale: 0.984390914440155
    zero_point: 128
  '@Add_/wav2vec2/encoder/layer_norm/Add_1_490:out0':
    qtype: u8
    quantizer: asymmetric_affine
    rounding: rtne
    max_value: 7.588944911956787
    min_value: -0.826203465461731
    scale: 0.033000584691762924
    zero_point: 25
  '@Softmax_/wav2vec2/encoder/layers.1/attention/Softmax_495:out0':
    qtype: u8
    quantizer: asymmetric_affine
    rounding: rtne
    max_value: 1.0
    min_value: 0.0
    scale: 0.003921568859368563
    zero_point: 0
  '@Reshape_/wav2vec2/encoder/layers.1/attention/Reshape_5_496:out0':
    qtype: u8
    quantizer: asymmetric_affine
    rounding: rtne
    max_value: 124.22349548339844
    min_value: -126.82203674316406
    scale: 0.984492301940918
    zero_point: 129
  '@Reshape_/wav2vec2/encoder/layers.2/attention/Reshape_2_497:out0':
    qtype: u8
    quantizer: asymmetric_affine
    rounding: rtne
    max_value: 186.7838897705078
    min_value: -177.11268615722656
    scale: 1.4270453453063965
    zero_point: 124
  '@Transpose_/wav2vec2/encoder/layers.2/attention/Transpose_498:out0':
    qtype: u8
    quantizer: asymmetric_affine
    rounding: rtne
    max_value: 125.05755615234375
    min_value: -125.96212768554688
    scale: 0.984390914440155
    zero_point: 128
  '@Add_/wav2vec2/encoder/Add_502:out0':
    qtype: u8
    quantizer: asymmetric_affine
    rounding: rtne
    max_value: 8653.3330078125
    min_value: -96.0937271118164
    scale: 34.31147766113281
    zero_point: 3
  '@Reshape_/wav2vec2/encoder/layers.0/attention/Reshape_7_504:out0':
    qtype: u8
    quantizer: asymmetric_affine
    rounding: rtne
    max_value: 109.23770141601562
    min_value: -111.19856262207031
    scale: 0.8644559383392334
    zero_point: 129
  '@Transpose_/wav2vec2/encoder/layers.0/attention/Transpose_4_507:out0':
    qtype: u8
    quantizer: asymmetric_affine
    rounding: rtne
    max_value: 109.23770141601562
    min_value: -111.19856262207031
    scale: 0.8644559383392334
    zero_point: 129
  '@Transpose_/wav2vec2/encoder/layers.1/attention/Transpose_1_510:out0':
    qtype: u8
    quantizer: asymmetric_affine
    rounding: rtne
    max_value: 124.22349548339844
    min_value: -126.82203674316406
    scale: 0.984492301940918
    zero_point: 129
  '@Mul_/wav2vec2/encoder/layers.2/attention/Mul_511:out0':
    qtype: u8
    quantizer: asymmetric_affine
    rounding: rtne
    max_value: 186.7838897705078
    min_value: -177.11268615722656
    scale: 1.4270453453063965
    zero_point: 124
  '@Reshape_/wav2vec2/encoder/layers.2/attention/Reshape_512:out0':
    qtype: u8
    quantizer: asymmetric_affine
    rounding: rtne
    max_value: 125.05755615234375
    min_value: -125.96212768554688
    scale: 0.984390914440155
    zero_point: 128
  '@Mul_/wav2vec2/encoder/pos_conv_embed/activation/Mul_1_515:out0':
    qtype: u8
    quantizer: asymmetric_affine
    rounding: rtne
    max_value: 8607.4501953125
    min_value: -0.16969247162342072
    scale: 33.755374908447266
    zero_point: 0
  '@Reshape_/wav2vec2/encoder/layers.0/attention/Reshape_6_516:out0':
    qtype: u8
    quantizer: asymmetric_affine
    rounding: rtne
    max_value: 109.23770141601562
    min_value: -111.19856262207031
    scale: 0.8644559383392334
    zero_point: 129
  '@Reshape_/wav2vec2/encoder/layers.1/attention/Reshape_3_517:out0':
    qtype: u8
    quantizer: asymmetric_affine
    rounding: rtne
    max_value: 170.66761779785156
    min_value: -176.38619995117188
    scale: 1.3609954118728638
    zero_point: 130
  '@Transpose_/wav2vec2/encoder/layers.1/attention/Transpose_3_518:out0':
    qtype: u8
    quantizer: asymmetric_affine
    rounding: rtne
    max_value: 117.21876525878906
    min_value: -120.1502456665039
    scale: 0.9308589100837708
    zero_point: 129
  '@Reshape_/wav2vec2/encoder/layers.1/attention/Reshape_1_519:out0':
    qtype: u8
    quantizer: asymmetric_affine
    rounding: rtne
    max_value: 124.22349548339844
    min_value: -126.82203674316406
    scale: 0.984492301940918
    zero_point: 129
  '@Constant_/wav2vec2/encoder/layers.2/attention/Constant_521:out0':
    qtype: u8
    quantizer: asymmetric_affine
    rounding: rtne
    max_value: 0.0
    min_value: -1.5733827352523804
    scale: 0.006170128472149372
    zero_point: 255
  '@Slice_/wav2vec2/encoder/pos_conv_embed/padding/Slice_526:out0':
    qtype: u8
    quantizer: asymmetric_affine
    rounding: rtne
    max_value: 8607.4501953125
    min_value: -8449.0234375
    scale: 66.88813018798828
    zero_point: 126
  '@Conv_/wav2vec2/encoder/pos_conv_embed/conv/Conv_527:out0':
    qtype: u8
    quantizer: asymmetric_affine
    rounding: rtne
    max_value: 8607.4501953125
    min_value: -8449.0234375
    scale: 66.88813018798828
    zero_point: 126
  '@MatMul_/wav2vec2/encoder/layers.0/attention/MatMul_1_528:out0':
    qtype: u8
    quantizer: asymmetric_affine
    rounding: rtne
    max_value: 109.23770141601562
    min_value: -111.19856262207031
    scale: 0.8644559383392334
    zero_point: 129
  '@Transpose_/wav2vec2/encoder/layers.1/attention/Transpose_2_529:out0':
    qtype: u8
    quantizer: asymmetric_affine
    rounding: rtne
    max_value: 170.66761779785156
    min_value: -176.38619995117188
    scale: 1.3609954118728638
    zero_point: 130
  '@Reshape_/wav2vec2/encoder/layers.1/attention/Reshape_4_530:out0':
    qtype: u8
    quantizer: asymmetric_affine
    rounding: rtne
    max_value: 117.21876525878906
    min_value: -120.1502456665039
    scale: 0.9308589100837708
    zero_point: 129
  '@Add_/wav2vec2/feature_projection/layer_norm/Add_1_536:out0':
    qtype: u8
    quantizer: asymmetric_affine
    rounding: rtne
    max_value: 5.88340950012207
    min_value: -0.7566931843757629
    scale: 0.026039618998765945
    zero_point: 29
  '@Softmax_/wav2vec2/encoder/layers.0/attention/Softmax_539:out0':
    qtype: u8
    quantizer: asymmetric_affine
    rounding: rtne
    max_value: 1.0
    min_value: 0.0
    scale: 0.003921568859368563
    zero_point: 0
  '@Reshape_/wav2vec2/encoder/layers.0/attention/Reshape_5_540:out0':
    qtype: u8
    quantizer: asymmetric_affine
    rounding: rtne
    max_value: 123.58698272705078
    min_value: -120.73152160644531
    scale: 0.9581118226051331
    zero_point: 126
  '@Reshape_/wav2vec2/encoder/layers.1/attention/Reshape_2_541:out0':
    qtype: u8
    quantizer: asymmetric_affine
    rounding: rtne
    max_value: 170.66761779785156
    min_value: -176.38619995117188
    scale: 1.3609954118728638
    zero_point: 130
  '@Transpose_/wav2vec2/encoder/layers.1/attention/Transpose_542:out0':
    qtype: u8
    quantizer: asymmetric_affine
    rounding: rtne
    max_value: 117.21876525878906
    min_value: -120.1502456665039
    scale: 0.9308589100837708
    zero_point: 129
  '@Mul_/wav2vec2/feature_extractor/conv_layers.6/activation/Mul_1_547:out0':
    qtype: u8
    quantizer: asymmetric_affine
    rounding: rtne
    max_value: 2161722368.0
    min_value: -0.0
    scale: 8477343.0
    zero_point: 0
  '@Conv_/wav2vec2/feature_extractor/conv_layers.6/conv/Conv_548:out0':
    qtype: u8
    quantizer: asymmetric_affine
    rounding: rtne
    max_value: 2161722368.0
    min_value: -2239187968.0
    scale: 17258472.0
    zero_point: 130
  '@Transpose_/wav2vec2/encoder/layers.0/attention/Transpose_1_550:out0':
    qtype: u8
    quantizer: asymmetric_affine
    rounding: rtne
    max_value: 123.58698272705078
    min_value: -120.73152160644531
    scale: 0.9581118226051331
    zero_point: 126
  '@Mul_/wav2vec2/encoder/layers.1/attention/Mul_551:out0':
    qtype: u8
    quantizer: asymmetric_affine
    rounding: rtne
    max_value: 170.66761779785156
    min_value: -176.38619995117188
    scale: 1.3609954118728638
    zero_point: 130
  '@Reshape_/wav2vec2/encoder/layers.1/attention/Reshape_552:out0':
    qtype: u8
    quantizer: asymmetric_affine
    rounding: rtne
    max_value: 117.21876525878906
    min_value: -120.1502456665039
    scale: 0.9308589100837708
    zero_point: 129
  '@Mul_/wav2vec2/feature_extractor/conv_layers.5/activation/Mul_1_555:out0':
    qtype: u8
    quantizer: asymmetric_affine
    rounding: rtne
    max_value: 117566664.0
    min_value: -0.0
    scale: 461045.75
    zero_point: 0
  '@Reshape_/wav2vec2/encoder/layers.0/attention/Reshape_3_556:out0':
    qtype: u8
    quantizer: asymmetric_affine
    rounding: rtne
    max_value: 58.34090042114258
    min_value: -56.015159606933594
    scale: 0.44845515489578247
    zero_point: 125
  '@Transpose_/wav2vec2/encoder/layers.0/attention/Transpose_3_557:out0':
    qtype: u8
    quantizer: asymmetric_affine
    rounding: rtne
    max_value: 118.01679992675781
    min_value: -109.71240234375
    scale: 0.8930556774139404
    zero_point: 123
  '@Reshape_/wav2vec2/encoder/layers.0/attention/Reshape_1_558:out0':
    qtype: u8
    quantizer: asymmetric_affine
    rounding: rtne
    max_value: 123.58698272705078
    min_value: -120.73152160644531
    scale: 0.9581118226051331
    zero_point: 126
  '@Constant_/wav2vec2/encoder/layers.1/attention/Constant_560:out0':
    qtype: u8
    quantizer: asymmetric_affine
    rounding: rtne
    max_value: 0.0
    min_value: -1.332910418510437
    scale: 0.005227099638432264
    zero_point: 255
  '@Conv_/wav2vec2/feature_extractor/conv_layers.5/conv/Conv_564:out0':
    qtype: u8
    quantizer: asymmetric_affine
    rounding: rtne
    max_value: 117566664.0
    min_value: -100980112.0
    scale: 857046.1875
    zero_point: 118
  '@Mul_/wav2vec2/feature_extractor/conv_layers.4/activation/Mul_1_565:out0':
    qtype: u8
    quantizer: asymmetric_affine
    rounding: rtne
    max_value: 5508630.0
    min_value: -0.14264866709709167
    scale: 21602.470703125
    zero_point: 0
  '@Transpose_/wav2vec2/encoder/layers.0/attention/Transpose_2_566:out0':
    qtype: u8
    quantizer: asymmetric_affine
    rounding: rtne
    max_value: 58.34090042114258
    min_value: -56.015159606933594
    scale: 0.44845515489578247
    zero_point: 125
  '@Reshape_/wav2vec2/encoder/layers.0/attention/Reshape_4_567:out0':
    qtype: u8
    quantizer: asymmetric_affine
    rounding: rtne
    max_value: 118.01679992675781
    min_value: -109.71240234375
    scale: 0.8930556774139404
    zero_point: 123
  '@Conv_/wav2vec2/feature_extractor/conv_layers.4/conv/Conv_572:out0':
    qtype: u8
    quantizer: asymmetric_affine
    rounding: rtne
    max_value: 5932243.5
    min_value: -5932243.5
    scale: 46527.3984375
    zero_point: 128
  '@Mul_/wav2vec2/feature_extractor/conv_layers.3/activation/Mul_1_573:out0':
    qtype: u8
    quantizer: asymmetric_affine
    rounding: rtne
    max_value: 233115.703125
    min_value: -0.16997112333774567
    scale: 914.179931640625
    zero_point: 0
  '@Reshape_/wav2vec2/encoder/layers.0/attention/Reshape_2_574:out0':
    qtype: u8
    quantizer: asymmetric_affine
    rounding: rtne
    max_value: 58.34090042114258
    min_value: -56.015159606933594
    scale: 0.44845515489578247
    zero_point: 125
  '@Transpose_/wav2vec2/encoder/layers.0/attention/Transpose_575:out0':
    qtype: u8
    quantizer: asymmetric_affine
    rounding: rtne
    max_value: 118.01679992675781
    min_value: -109.71240234375
    scale: 0.8930556774139404
    zero_point: 123
  '@Reshape_/wav2vec2/encoder/layers.0/attention/Reshape_577:out0':
    qtype: u8
    quantizer: asymmetric_affine
    rounding: rtne
    max_value: 118.01679992675781
    min_value: -109.71240234375
    scale: 0.8930556774139404
    zero_point: 123
  '@Conv_/wav2vec2/feature_extractor/conv_layers.3/conv/Conv_579:out0':
    qtype: u8
    quantizer: asymmetric_affine
    rounding: rtne
    max_value: 216469.21875
    min_value: -216469.21875
    scale: 1697.7978515625
    zero_point: 127
  '@Mul_/wav2vec2/feature_extractor/conv_layers.2/activation/Mul_1_580:out0':
    qtype: u8
    quantizer: asymmetric_affine
    rounding: rtne
    max_value: 6849.375
    min_value: -0.16997119784355164
    scale: 26.860960006713867
    zero_point: 0
  '@Mul_/wav2vec2/encoder/layers.0/attention/Mul_581:out0':
    qtype: u8
    quantizer: asymmetric_affine
    rounding: rtne
    max_value: 58.34090042114258
    min_value: -56.015159606933594
    scale: 0.44845515489578247
    zero_point: 125
  '@Conv_/wav2vec2/feature_extractor/conv_layers.2/conv/Conv_583:out0':
    qtype: u8
    quantizer: asymmetric_affine
    rounding: rtne
    max_value: 6849.375
    min_value: -6849.375
    scale: 53.72058868408203
    zero_point: 128
  '@Mul_/wav2vec2/feature_extractor/conv_layers.1/activation/Mul_1_584:out0':
    qtype: u8
    quantizer: asymmetric_affine
    rounding: rtne
    max_value: 307.8832702636719
    min_value: -0.16997124254703522
    scale: 1.2080519199371338
    zero_point: 0
  '@Constant_/wav2vec2/encoder/layers.0/attention/Constant_586:out0':
    qtype: u8
    quantizer: asymmetric_affine
    rounding: rtne
    max_value: 0.501864492893219
    min_value: 0.0
    scale: 0.001968096010386944
    zero_point: 0
  '@Conv_/wav2vec2/feature_extractor/conv_layers.1/conv/Conv_589:out0':
    qtype: u8
    quantizer: asymmetric_affine
    rounding: rtne
    max_value: 304.6561584472656
    min_value: -304.6561584472656
    scale: 2.3894600868225098
    zero_point: 128
  '@Mul_/wav2vec2/feature_extractor/conv_layers.0/activation/Mul_1_590:out0':
    qtype: u8
    quantizer: asymmetric_affine
    rounding: rtne
    max_value: 9.901320457458496
    min_value: -0.16997124254703522
    scale: 0.03949526324868202
    zero_point: 4
  '@Reshape_/wav2vec2/feature_extractor/conv_layers.0/layer_norm/Reshape_1_598:out0':
    qtype: u8
    quantizer: asymmetric_affine
    rounding: rtne
    max_value: 13.200989723205566
    min_value: -13.200989723205566
    scale: 0.1035371720790863
    zero_point: 128
  '@InstanceNormalization_/wav2vec2/feature_extractor/conv_layers.0/layer_norm/InstanceNormalization_600:out0':
    qtype: u8
    quantizer: asymmetric_affine
    rounding: rtne
    max_value: 13.200989723205566
    min_value: -13.200989723205566
    scale: 0.1035371720790863
    zero_point: 128
  '@Reshape_/wav2vec2/feature_extractor/conv_layers.0/layer_norm/Reshape_601:out0':
    qtype: u8
    quantizer: asymmetric_affine
    rounding: rtne
    max_value: 4.587167739868164
    min_value: -4.587167739868164
    scale: 0.03597778454422951
    zero_point: 128
  '@Conv_/wav2vec2/feature_extractor/conv_layers.0/conv/Conv_602:out0':
    qtype: u8
    quantizer: asymmetric_affine
    rounding: rtne
    max_value: 4.587167739868164
    min_value: -4.587167739868164
    scale: 0.03597778454422951
    zero_point: 128
  '@Unsqueeze_/wav2vec2/feature_extractor/Unsqueeze_603:out0':
    qtype: u8
    quantizer: asymmetric_affine
    rounding: rtne
    max_value: 0.387939453125
    min_value: -0.339111328125
    scale: 0.0028511795680969954
    zero_point: 119
  '@input_values_604:out0':
    qtype: u8
    quantizer: asymmetric_affine
    rounding: rtne
    max_value: 0.387939453125
    min_value: -0.339111328125
    scale: 0.0028511795680969954
    zero_point: 119
  '@Mul_/wav2vec2/feature_extractor/conv_layers.0/layer_norm/Mul_597_acuity_mark_perm_608:out0':
    qtype: u8
    quantizer: asymmetric_affine
    rounding: rtne
    max_value: 13.200989723205566
    min_value: -13.200989723205566
    scale: 0.1035371720790863
    zero_point: 128
  '@Reshape_/wav2vec2/feature_extractor/conv_layers.0/layer_norm/Reshape_1_598_acuity_mark_perm_609:out0':
    qtype: u8
    quantizer: asymmetric_affine
    rounding: rtne
    max_value: 13.200989723205566
    min_value: -13.200989723205566
    scale: 0.1035371720790863
    zero_point: 128
  '@InstanceNormalization_/wav2vec2/feature_extractor/conv_layers.0/layer_norm/InstanceNormalization_600_acuity_mark_perm_610:out0':
    qtype: u8
    quantizer: asymmetric_affine
    rounding: rtne
    max_value: 4.587167739868164
    min_value: -4.587167739868164
    scale: 0.03597778454422951
    zero_point: 128
  '@Reshape_/wav2vec2/feature_extractor/conv_layers.0/layer_norm/Reshape_601_acuity_mark_perm_611:out0':
    qtype: u8
    quantizer: asymmetric_affine
    rounding: rtne
    max_value: 4.587167739868164
    min_value: -4.587167739868164
    scale: 0.03597778454422951
    zero_point: 128
  '@Conv_/wav2vec2/feature_extractor/conv_layers.0/conv/Conv_602_acuity_mark_perm_612:out0':
    qtype: u8
    quantizer: asymmetric_affine
    rounding: rtne
    max_value: 0.387939453125
    min_value: -0.339111328125
    scale: 0.0028511795680969954
    zero_point: 119
  '@reshape_613:out0':
    qtype: u8
    quantizer: asymmetric_affine
    rounding: rtne
    max_value: 3.220707893371582
    min_value: -2.9616239070892334
    scale: 0.024244438856840134
    zero_point: 122
  '@fullconnect_614:out0':
    qtype: u8
    quantizer: asymmetric_affine
    rounding: rtne
    max_value: 67.6522216796875
    min_value: -55.541168212890625
    scale: 0.48311132192611694
    zero_point: 115
  '@reshape_615:out0':
    qtype: u8
    quantizer: asymmetric_affine
    rounding: rtne
    max_value: 67.6522216796875
    min_value: -55.541168212890625
    scale: 0.48311132192611694
    zero_point: 115
  '@reshape_616:out0':
    qtype: u8
    quantizer: asymmetric_affine
    rounding: rtne
    max_value: 97.35881042480469
    min_value: -0.16996538639068604
    scale: 0.38246580958366394
    zero_point: 0
  '@fullconnect_617:out0':
    qtype: u8
    quantizer: asymmetric_affine
    rounding: rtne
    max_value: 3288.35693359375
    min_value: -3138.8720703125
    scale: 25.204818725585938
    zero_point: 125
  '@reshape_618:out0':
    qtype: u8
    quantizer: asymmetric_affine
    rounding: rtne
    max_value: 3288.35693359375
    min_value: -3138.8720703125
    scale: 25.204818725585938
    zero_point: 125
  '@reshape_619:out0':
    qtype: u8
    quantizer: asymmetric_affine
    rounding: rtne
    max_value: 89.91706848144531
    min_value: -86.78875732421875
    scale: 0.6929640173912048
    zero_point: 125
  '@fullconnect_620:out0':
    qtype: u8
    quantizer: asymmetric_affine
    rounding: rtne
    max_value: 2541.7919921875
    min_value: -2351.435546875
    scale: 19.18912696838379
    zero_point: 123
  '@reshape_621:out0':
    qtype: u8
    quantizer: asymmetric_affine
    rounding: rtne
    max_value: 2541.7919921875
    min_value: -2351.435546875
    scale: 19.18912696838379
    zero_point: 123
  '@reshape_622:out0':
    qtype: u8
    quantizer: asymmetric_affine
    rounding: rtne
    max_value: 3.344895839691162
    min_value: -3.180318832397461
    scale: 0.025589076802134514
    zero_point: 124
  '@fullconnect_623:out0':
    qtype: u8
    quantizer: asymmetric_affine
    rounding: rtne
    max_value: 97.35881042480469
    min_value: -99.3669204711914
    scale: 0.7714734673500061
    zero_point: 129
  '@reshape_624:out0':
    qtype: u8
    quantizer: asymmetric_affine
    rounding: rtne
    max_value: 97.35881042480469
    min_value: -99.3669204711914
    scale: 0.7714734673500061
    zero_point: 129
  '@reshape_625:out0':
    qtype: u8
    quantizer: asymmetric_affine
    rounding: rtne
    max_value: 97.86294555664062
    min_value: -0.16996601223945618
    scale: 0.3844428062438965
    zero_point: 0
  '@fullconnect_626:out0':
    qtype: u8
    quantizer: asymmetric_affine
    rounding: rtne
    max_value: 3452.947509765625
    min_value: -3590.169921875
    scale: 27.620067596435547
    zero_point: 130
  '@reshape_627:out0':
    qtype: u8
    quantizer: asymmetric_affine
    rounding: rtne
    max_value: 3452.947509765625
    min_value: -3590.169921875
    scale: 27.620067596435547
    zero_point: 130
  '@reshape_628:out0':
    qtype: u8
    quantizer: asymmetric_affine
    rounding: rtne
    max_value: 80.02250671386719
    min_value: -79.2395248413086
    scale: 0.6245569586753845
    zero_point: 127
  '@fullconnect_629:out0':
    qtype: u8
    quantizer: asymmetric_affine
    rounding: rtne
    max_value: 2958.93798828125
    min_value: -2253.303955078125
    scale: 20.44016456604004
    zero_point: 110
  '@reshape_630:out0':
    qtype: u8
    quantizer: asymmetric_affine
    rounding: rtne
    max_value: 2958.93798828125
    min_value: -2253.303955078125
    scale: 20.44016456604004
    zero_point: 110
  '@reshape_631:out0':
    qtype: u8
    quantizer: asymmetric_affine
    rounding: rtne
    max_value: 3.7431931495666504
    min_value: -2.819976329803467
    scale: 0.02573791891336441
    zero_point: 110
  '@fullconnect_632:out0':
    qtype: u8
    quantizer: asymmetric_affine
    rounding: rtne
    max_value: 97.86294555664062
    min_value: -85.06895446777344
    scale: 0.7173799872398376
    zero_point: 119
  '@reshape_633:out0':
    qtype: u8
    quantizer: asymmetric_affine
    rounding: rtne
    max_value: 97.86294555664062
    min_value: -85.06895446777344
    scale: 0.7173799872398376
    zero_point: 119
  '@reshape_634:out0':
    qtype: u8
    quantizer: asymmetric_affine
    rounding: rtne
    max_value: 93.07194519042969
    min_value: -0.16997121274471283
    scale: 0.3656545579433441
    zero_point: 0
  '@fullconnect_635:out0':
    qtype: u8
    quantizer: asymmetric_affine
    rounding: rtne
    max_value: 3474.53759765625
    min_value: -2702.234375
    scale: 24.22263526916504
    zero_point: 112
  '@reshape_636:out0':
    qtype: u8
    quantizer: asymmetric_affine
    rounding: rtne
    max_value: 3474.53759765625
    min_value: -2702.234375
    scale: 24.22263526916504
    zero_point: 112
  '@reshape_637:out0':
    qtype: u8
    quantizer: asymmetric_affine
    rounding: rtne
    max_value: 74.84766387939453
    min_value: -93.72657775878906
    scale: 0.6610754728317261
    zero_point: 142
  '@fullconnect_638:out0':
    qtype: u8
    quantizer: asymmetric_affine
    rounding: rtne
    max_value: 2298.17333984375
    min_value: -2163.156005859375
    scale: 17.49540901184082
    zero_point: 124
  '@reshape_639:out0':
    qtype: u8
    quantizer: asymmetric_affine
    rounding: rtne
    max_value: 2298.17333984375
    min_value: -2163.156005859375
    scale: 17.49540901184082
    zero_point: 124
  '@reshape_640:out0':
    qtype: u8
    quantizer: asymmetric_affine
    rounding: rtne
    max_value: 3.10579776763916
    min_value: -3.0155673027038574
    scale: 0.024005353450775146
    zero_point: 126
  '@fullconnect_641:out0':
    qtype: u8
    quantizer: asymmetric_affine
    rounding: rtne
    max_value: 93.07194519042969
    min_value: -106.49229431152344
    scale: 0.7826048731803894
    zero_point: 136
  '@reshape_642:out0':
    qtype: u8
    quantizer: asymmetric_affine
    rounding: rtne
    max_value: 93.07194519042969
    min_value: -106.49229431152344
    scale: 0.7826048731803894
    zero_point: 136
  '@reshape_643:out0':
    qtype: u8
    quantizer: asymmetric_affine
    rounding: rtne
    max_value: 3.1538195610046387
    min_value: -3.2967066764831543
    scale: 0.025296181440353394
    zero_point: 130
  '@fullconnect_644:out0':
    qtype: u8
    quantizer: asymmetric_affine
    rounding: rtne
    max_value: 89.91707611083984
    min_value: -86.78877258300781
    scale: 0.6929640769958496
    zero_point: 125
  '@reshape_645:out0':
    qtype: u8
    quantizer: asymmetric_affine
    rounding: rtne
    max_value: 89.91707611083984
    min_value: -86.78877258300781
    scale: 0.6929640769958496
    zero_point: 125
  '@reshape_646:out0':
    qtype: u8
    quantizer: asymmetric_affine
    rounding: rtne
    max_value: 90.94999694824219
    min_value: -0.16997124254703522
    scale: 0.3573331832885742
    zero_point: 0
  '@fullconnect_647:out0':
    qtype: u8
    quantizer: asymmetric_affine
    rounding: rtne
    max_value: 3412.926513671875
    min_value: -3623.670166015625
    scale: 27.594497680664062
    zero_point: 131
  '@reshape_648:out0':
    qtype: u8
    quantizer: asymmetric_affine
    rounding: rtne
    max_value: 3412.926513671875
    min_value: -3623.670166015625
    scale: 27.594497680664062
    zero_point: 131
  '@reshape_649:out0':
    qtype: u8
    quantizer: asymmetric_affine
    rounding: rtne
    max_value: 3.1538195610046387
    min_value: -3.2967066764831543
    scale: 0.025296181440353394
    zero_point: 130
  '@fullconnect_650:out0':
    qtype: u8
    quantizer: asymmetric_affine
    rounding: rtne
    max_value: 99.35670471191406
    min_value: -85.55327606201172
    scale: 0.7251371741294861
    zero_point: 118
  '@reshape_651:out0':
    qtype: u8
    quantizer: asymmetric_affine
    rounding: rtne
    max_value: 99.35670471191406
    min_value: -85.55327606201172
    scale: 0.7251371741294861
    zero_point: 118
  '@reshape_652:out0':
    qtype: u8
    quantizer: asymmetric_affine
    rounding: rtne
    max_value: 3.1538195610046387
    min_value: -3.2967066764831543
    scale: 0.025296181440353394
    zero_point: 130
  '@fullconnect_653:out0':
    qtype: u8
    quantizer: asymmetric_affine
    rounding: rtne
    max_value: 87.05399322509766
    min_value: -89.23976135253906
    scale: 0.6913480758666992
    zero_point: 129
  '@reshape_654:out0':
    qtype: u8
    quantizer: asymmetric_affine
    rounding: rtne
    max_value: 87.05399322509766
    min_value: -89.23976135253906
    scale: 0.6913480758666992
    zero_point: 129
  '@reshape_655:out0':
    qtype: u8
    quantizer: asymmetric_affine
    rounding: rtne
    max_value: 85.09527587890625
    min_value: -87.50210571289062
    scale: 0.6768524646759033
    zero_point: 129
  '@fullconnect_656:out0':
    qtype: u8
    quantizer: asymmetric_affine
    rounding: rtne
    max_value: 2269.239501953125
    min_value: -2520.03515625
    scale: 18.78146743774414
    zero_point: 134
  '@reshape_657:out0':
    qtype: u8
    quantizer: asymmetric_affine
    rounding: rtne
    max_value: 2269.239501953125
    min_value: -2520.03515625
    scale: 18.78146743774414
    zero_point: 134
  '@reshape_658:out0':
    qtype: u8
    quantizer: asymmetric_affine
    rounding: rtne
    max_value: 3.200165033340454
    min_value: -3.4049744606018066
    scale: 0.025902507826685905
    zero_point: 131
  '@fullconnect_659:out0':
    qtype: u8
    quantizer: asymmetric_affine
    rounding: rtne
    max_value: 90.94999694824219
    min_value: -101.40373229980469
    scale: 0.7543283700942993
    zero_point: 134
  '@reshape_660:out0':
    qtype: u8
    quantizer: asymmetric_affine
    rounding: rtne
    max_value: 90.94999694824219
    min_value: -101.40373229980469
    scale: 0.7543283700942993
    zero_point: 134
  '@reshape_661:out0':
    qtype: u8
    quantizer: asymmetric_affine
    rounding: rtne
    max_value: 3.3569414615631104
    min_value: -2.533474922180176
    scale: 0.02309967204928398
    zero_point: 110
  '@fullconnect_662:out0':
    qtype: u8
    quantizer: asymmetric_affine
    rounding: rtne
    max_value: 80.04009246826172
    min_value: -79.24188232421875
    scale: 0.6246352195739746
    zero_point: 127
  '@reshape_663:out0':
    qtype: u8
    quantizer: asymmetric_affine
    rounding: rtne
    max_value: 80.04009246826172
    min_value: -79.24188232421875
    scale: 0.6246352195739746
    zero_point: 127
  '@reshape_664:out0':
    qtype: u8
    quantizer: asymmetric_affine
    rounding: rtne
    max_value: 104.85874938964844
    min_value: -0.16997122764587402
    scale: 0.4118773341178894
    zero_point: 0
  '@fullconnect_665:out0':
    qtype: u8
    quantizer: asymmetric_affine
    rounding: rtne
    max_value: 3442.18408203125
    min_value: -3204.7373046875
    scale: 26.06635856628418
    zero_point: 123
  '@reshape_666:out0':
    qtype: u8
    quantizer: asymmetric_affine
    rounding: rtne
    max_value: 3442.18408203125
    min_value: -3204.7373046875
    scale: 26.06635856628418
    zero_point: 123
  '@reshape_667:out0':
    qtype: u8
    quantizer: asymmetric_affine
    rounding: rtne
    max_value: 3.3569414615631104
    min_value: -2.533474922180176
    scale: 0.02309967204928398
    zero_point: 110
  '@fullconnect_668:out0':
    qtype: u8
    quantizer: asymmetric_affine
    rounding: rtne
    max_value: 76.69413757324219
    min_value: -97.60875701904297
    scale: 0.6835407614707947
    zero_point: 143
  '@reshape_669:out0':
    qtype: u8
    quantizer: asymmetric_affine
    rounding: rtne
    max_value: 76.69413757324219
    min_value: -97.60875701904297
    scale: 0.6835407614707947
    zero_point: 143
  '@reshape_670:out0':
    qtype: u8
    quantizer: asymmetric_affine
    rounding: rtne
    max_value: 3.3569414615631104
    min_value: -2.533474922180176
    scale: 0.02309967204928398
    zero_point: 110
  '@fullconnect_671:out0':
    qtype: u8
    quantizer: asymmetric_affine
    rounding: rtne
    max_value: 93.96022033691406
    min_value: -81.55734252929688
    scale: 0.6883041858673096
    zero_point: 118
  '@reshape_672:out0':
    qtype: u8
    quantizer: asymmetric_affine
    rounding: rtne
    max_value: 93.96022033691406
    min_value: -81.55734252929688
    scale: 0.6883041858673096
    zero_point: 118
  '@reshape_673:out0':
    qtype: u8
    quantizer: asymmetric_affine
    rounding: rtne
    max_value: 93.21460723876953
    min_value: -90.24590301513672
    scale: 0.719452977180481
    zero_point: 125
  '@fullconnect_674:out0':
    qtype: u8
    quantizer: asymmetric_affine
    rounding: rtne
    max_value: 2807.56787109375
    min_value: -2089.317626953125
    scale: 19.203474044799805
    zero_point: 109
  '@reshape_675:out0':
    qtype: u8
    quantizer: asymmetric_affine
    rounding: rtne
    max_value: 2807.56787109375
    min_value: -2089.317626953125
    scale: 19.203474044799805
    zero_point: 109
  '@reshape_676:out0':
    qtype: u8
    quantizer: asymmetric_affine
    rounding: rtne
    max_value: 3.80065655708313
    min_value: -2.880296468734741
    scale: 0.026199815794825554
    zero_point: 110
  '@fullconnect_677:out0':
    qtype: u8
    quantizer: asymmetric_affine
    rounding: rtne
    max_value: 104.85874938964844
    min_value: -95.72312927246094
    scale: 0.7865955829620361
    zero_point: 122
  '@reshape_678:out0':
    qtype: u8
    quantizer: asymmetric_affine
    rounding: rtne
    max_value: 104.85874938964844
    min_value: -95.72312927246094
    scale: 0.7865955829620361
    zero_point: 122
  '@reshape_679:out0':
    qtype: u8
    quantizer: asymmetric_affine
    rounding: rtne
    max_value: 3.162745952606201
    min_value: -3.38403582572937
    scale: 0.025673653930425644
    zero_point: 132
  '@fullconnect_680:out0':
    qtype: u8
    quantizer: asymmetric_affine
    rounding: rtne
    max_value: 74.84843444824219
    min_value: -94.08250427246094
    scale: 0.6624742746353149
    zero_point: 142
  '@reshape_681:out0':
    qtype: u8
    quantizer: asymmetric_affine
    rounding: rtne
    max_value: 74.84843444824219
    min_value: -94.08250427246094
    scale: 0.6624742746353149
    zero_point: 142
  '@reshape_682:out0':
    qtype: u8
    quantizer: asymmetric_affine
    rounding: rtne
    max_value: 114.13435363769531
    min_value: -0.16997122764587402
    scale: 0.44825223088264465
    zero_point: 0
  '@fullconnect_683:out0':
    qtype: u8
    quantizer: asymmetric_affine
    rounding: rtne
    max_value: 3269.182861328125
    min_value: -4333.69921875
    scale: 29.815223693847656
    zero_point: 145
  '@reshape_684:out0':
    qtype: u8
    quantizer: asymmetric_affine
    rounding: rtne
    max_value: 3269.182861328125
    min_value: -4333.69921875
    scale: 29.815223693847656
    zero_point: 145
  '@reshape_685:out0':
    qtype: u8
    quantizer: asymmetric_affine
    rounding: rtne
    max_value: 3.162745952606201
    min_value: -3.38403582572937
    scale: 0.025673653930425644
    zero_point: 132
  '@fullconnect_686:out0':
    qtype: u8
    quantizer: asymmetric_affine
    rounding: rtne
    max_value: 75.89810180664062
    min_value: -84.04586029052734
    scale: 0.627231240272522
    zero_point: 134
  '@reshape_687:out0':
    qtype: u8
    quantizer: asymmetric_affine
    rounding: rtne
    max_value: 75.89810180664062
    min_value: -84.04586029052734
    scale: 0.627231240272522
    zero_point: 134
  '@reshape_688:out0':
    qtype: u8
    quantizer: asymmetric_affine
    rounding: rtne
    max_value: 3.162745952606201
    min_value: -3.38403582572937
    scale: 0.025673653930425644
    zero_point: 132
  '@fullconnect_689:out0':
    qtype: u8
    quantizer: asymmetric_affine
    rounding: rtne
    max_value: 88.77471160888672
    min_value: -77.53919982910156
    scale: 0.6522113680839539
    zero_point: 119
  '@reshape_690:out0':
    qtype: u8
    quantizer: asymmetric_affine
    rounding: rtne
    max_value: 88.77471160888672
    min_value: -77.53919982910156
    scale: 0.6522113680839539
    zero_point: 119
  '@reshape_691:out0':
    qtype: u8
    quantizer: asymmetric_affine
    rounding: rtne
    max_value: 89.97057342529297
    min_value: -93.72493743896484
    scale: 0.7203745245933533
    zero_point: 130
  '@fullconnect_692:out0':
    qtype: u8
    quantizer: asymmetric_affine
    rounding: rtne
    max_value: 2297.76953125
    min_value: -3125.459228515625
    scale: 21.267562866210938
    zero_point: 147
  '@reshape_693:out0':
    qtype: u8
    quantizer: asymmetric_affine
    rounding: rtne
    max_value: 2297.76953125
    min_value: -3125.459228515625
    scale: 21.267562866210938
    zero_point: 147
  '@reshape_694:out0':
    qtype: u8
    quantizer: asymmetric_affine
    rounding: rtne
    max_value: 2.9583053588867188
    min_value: -3.971642255783081
    scale: 0.0271762665361166
    zero_point: 146
  '@fullconnect_695:out0':
    qtype: u8
    quantizer: asymmetric_affine
    rounding: rtne
    max_value: 114.13435363769531
    min_value: -97.64811706542969
    scale: 0.8305194973945618
    zero_point: 118
  '@reshape_696:out0':
    qtype: u8
    quantizer: asymmetric_affine
    rounding: rtne
    max_value: 114.13435363769531
    min_value: -97.64811706542969
    scale: 0.8305194973945618
    zero_point: 118
  '@reshape_697:out0':
    qtype: u8
    quantizer: asymmetric_affine
    rounding: rtne
    max_value: 3.235841989517212
    min_value: -2.9486844539642334
    scale: 0.02425304427742958
    zero_point: 122
  '@fullconnect_698:out0':
    qtype: u8
    quantizer: asymmetric_affine
    rounding: rtne
    max_value: 86.90579223632812
    min_value: -88.85089111328125
    scale: 0.689241886138916
    zero_point: 129
  '@reshape_699:out0':
    qtype: u8
    quantizer: asymmetric_affine
    rounding: rtne
    max_value: 86.90579223632812
    min_value: -88.85089111328125
    scale: 0.689241886138916
    zero_point: 129
  '@reshape_700:out0':
    qtype: u8
    quantizer: asymmetric_affine
    rounding: rtne
    max_value: 110.60147094726562
    min_value: -0.16997122764587402
    scale: 0.43439778685569763
    zero_point: 0
  '@fullconnect_701:out0':
    qtype: u8
    quantizer: asymmetric_affine
    rounding: rtne
    max_value: 3292.576904296875
    min_value: -3232.288330078125
    scale: 25.58770751953125
    zero_point: 126
  '@reshape_702:out0':
    qtype: u8
    quantizer: asymmetric_affine
    rounding: rtne
    max_value: 3292.576904296875
    min_value: -3232.288330078125
    scale: 25.58770751953125
    zero_point: 126
  '@reshape_703:out0':
    qtype: u8
    quantizer: asymmetric_affine
    rounding: rtne
    max_value: 3.235841989517212
    min_value: -2.9486844539642334
    scale: 0.02425304427742958
    zero_point: 122
  '@fullconnect_704:out0':
    qtype: u8
    quantizer: asymmetric_affine
    rounding: rtne
    max_value: 113.77761840820312
    min_value: -80.10125732421875
    scale: 0.7603093385696411
    zero_point: 105
  '@reshape_705:out0':
    qtype: u8
    quantizer: asymmetric_affine
    rounding: rtne
    max_value: 113.77761840820312
    min_value: -80.10125732421875
    scale: 0.7603093385696411
    zero_point: 105
  '@reshape_706:out0':
    qtype: u8
    quantizer: asymmetric_affine
    rounding: rtne
    max_value: 3.235841989517212
    min_value: -2.9486844539642334
    scale: 0.02425304427742958
    zero_point: 122
  '@fullconnect_707:out0':
    qtype: u8
    quantizer: asymmetric_affine
    rounding: rtne
    max_value: 86.26475524902344
    min_value: -86.62171173095703
    scale: 0.677986204624176
    zero_point: 128
  '@reshape_708:out0':
    qtype: u8
    quantizer: asymmetric_affine
    rounding: rtne
    max_value: 86.26475524902344
    min_value: -86.62171173095703
    scale: 0.677986204624176
    zero_point: 128
  '@reshape_709:out0':
    qtype: u8
    quantizer: asymmetric_affine
    rounding: rtne
    max_value: 94.28412628173828
    min_value: -100.96891021728516
    scale: 0.7656981945037842
    zero_point: 132
  '@fullconnect_710:out0':
    qtype: u8
    quantizer: asymmetric_affine
    rounding: rtne
    max_value: 2570.822509765625
    min_value: -2329.663330078125
    scale: 19.217592239379883
    zero_point: 121
  '@reshape_711:out0':
    qtype: u8
    quantizer: asymmetric_affine
    rounding: rtne
    max_value: 2570.822509765625
    min_value: -2329.663330078125
    scale: 19.217592239379883
    zero_point: 121
  '@reshape_712:out0':
    qtype: u8
    quantizer: asymmetric_affine
    rounding: rtne
    max_value: 3.345132827758789
    min_value: -3.0298876762390137
    scale: 0.025000080466270447
    zero_point: 121
  '@fullconnect_713:out0':
    qtype: u8
    quantizer: asymmetric_affine
    rounding: rtne
    max_value: 110.60147094726562
    min_value: -98.265380859375
    scale: 0.8190857172012329
    zero_point: 120
  '@reshape_714:out0':
    qtype: u8
    quantizer: asymmetric_affine
    rounding: rtne
    max_value: 110.60147094726562
    min_value: -98.265380859375
    scale: 0.8190857172012329
    zero_point: 120
  '@reshape_715:out0':
    qtype: u8
    quantizer: asymmetric_affine
    rounding: rtne
    max_value: 3.0100715160369873
    min_value: -3.8334267139434814
    scale: 0.026837248355150223
    zero_point: 143
  '@fullconnect_716:out0':
    qtype: u8
    quantizer: asymmetric_affine
    rounding: rtne
    max_value: 98.24263000488281
    min_value: -92.1708755493164
    scale: 0.7467196583747864
    zero_point: 123
  '@reshape_717:out0':
    qtype: u8
    quantizer: asymmetric_affine
    rounding: rtne
    max_value: 98.24263000488281
    min_value: -92.1708755493164
    scale: 0.7467196583747864
    zero_point: 123
  '@reshape_718:out0':
    qtype: u8
    quantizer: asymmetric_affine
    rounding: rtne
    max_value: 119.38206481933594
    min_value: -0.16997122764587402
    scale: 0.46883150935173035
    zero_point: 0
  '@fullconnect_719:out0':
    qtype: u8
    quantizer: asymmetric_affine
    rounding: rtne
    max_value: 4173.68798828125
    min_value: -4373.44384765625
    scale: 33.518165588378906
    zero_point: 130
  '@reshape_720:out0':
    qtype: u8
    quantizer: asymmetric_affine
    rounding: rtne
    max_value: 4173.68798828125
    min_value: -4373.44384765625
    scale: 33.518165588378906
    zero_point: 130
  '@reshape_721:out0':
    qtype: u8
    quantizer: asymmetric_affine
    rounding: rtne
    max_value: 3.0100715160369873
    min_value: -3.8334267139434814
    scale: 0.026837248355150223
    zero_point: 143
  '@fullconnect_722:out0':
    qtype: u8
    quantizer: asymmetric_affine
    rounding: rtne
    max_value: 96.7374496459961
    min_value: -91.5334701538086
    scale: 0.7383173108100891
    zero_point: 124
  '@reshape_723:out0':
    qtype: u8
    quantizer: asymmetric_affine
    rounding: rtne
    max_value: 96.7374496459961
    min_value: -91.5334701538086
    scale: 0.7383173108100891
    zero_point: 124
  '@reshape_724:out0':
    qtype: u8
    quantizer: asymmetric_affine
    rounding: rtne
    max_value: 3.0100715160369873
    min_value: -3.8334267139434814
    scale: 0.026837248355150223
    zero_point: 143
  '@fullconnect_725:out0':
    qtype: u8
    quantizer: asymmetric_affine
    rounding: rtne
    max_value: 100.2535629272461
    min_value: -97.5697021484375
    scale: 0.7757775187492371
    zero_point: 126
  '@reshape_726:out0':
    qtype: u8
    quantizer: asymmetric_affine
    rounding: rtne
    max_value: 100.2535629272461
    min_value: -97.5697021484375
    scale: 0.7757775187492371
    zero_point: 126
  '@reshape_727:out0':
    qtype: u8
    quantizer: asymmetric_affine
    rounding: rtne
    max_value: 99.55615997314453
    min_value: -84.92784881591797
    scale: 0.723466694355011
    zero_point: 117
  '@fullconnect_728:out0':
    qtype: u8
    quantizer: asymmetric_affine
    rounding: rtne
    max_value: 2862.494140625
    min_value: -3280.381103515625
    scale: 24.089706420898438
    zero_point: 136
  '@reshape_729:out0':
    qtype: u8
    quantizer: asymmetric_affine
    rounding: rtne
    max_value: 2862.494140625
    min_value: -3280.381103515625
    scale: 24.089706420898438
    zero_point: 136
  '@reshape_730:out0':
    qtype: u8
    quantizer: asymmetric_affine
    rounding: rtne
    max_value: 3.6660048961639404
    min_value: -4.305673122406006
    scale: 0.03126148134469986
    zero_point: 138
  '@fullconnect_731:out0':
    qtype: u8
    quantizer: asymmetric_affine
    rounding: rtne
    max_value: 119.38206481933594
    min_value: -111.62031555175781
    scale: 0.9058917164802551
    zero_point: 123
  '@reshape_732:out0':
    qtype: u8
    quantizer: asymmetric_affine
    rounding: rtne
    max_value: 119.38206481933594
    min_value: -111.62031555175781
    scale: 0.9058917164802551
    zero_point: 123
  '@reshape_733:out0':
    qtype: u8
    quantizer: asymmetric_affine
    rounding: rtne
    max_value: 3.1319596767425537
    min_value: -3.0066308975219727
    scale: 0.024072906002402306
    zero_point: 125
  '@fullconnect_734:out0':
    qtype: u8
    quantizer: asymmetric_affine
    rounding: rtne
    max_value: 93.12721252441406
    min_value: -96.68312072753906
    scale: 0.744354248046875
    zero_point: 130
  '@reshape_735:out0':
    qtype: u8
    quantizer: asymmetric_affine
    rounding: rtne
    max_value: 93.12721252441406
    min_value: -96.68312072753906
    scale: 0.744354248046875
    zero_point: 130
  '@reshape_736:out0':
    qtype: u8
    quantizer: asymmetric_affine
    rounding: rtne
    max_value: 122.86507415771484
    min_value: -0.16997122764587402
    scale: 0.4824903607368469
    zero_point: 0
  '@fullconnect_737:out0':
    qtype: u8
    quantizer: asymmetric_affine
    rounding: rtne
    max_value: 4283.41796875
    min_value: -4369.798828125
    scale: 33.93418502807617
    zero_point: 129
  '@reshape_738:out0':
    qtype: u8
    quantizer: asymmetric_affine
    rounding: rtne
    max_value: 4283.41796875
    min_value: -4369.798828125
